<pad>	0
<s>	0
</s>	0
<unk>	0
▁the	-2.9799
▁.	-3.19687
▁,	-3.23275
s	-3.41732
▁to	-3.86155
▁a	-3.86381
ed	-3.90769
▁of	-3.90934
▁in	-3.99189
▁and	-4.06776
ing	-4.28963
▁s	-4.3964
▁on	-4.85349
▁said	-4.8625
▁for	-4.93629
▁that	-4.96326
y	-4.99209
d	-5.12986
▁is	-5.16441
ly	-5.18818
▁	-5.21957
▁was	-5.24384
▁with	-5.27004
▁be	-5.29614
▁it	-5.3832
▁he	-5.4736
▁at	-5.48008
▁an	-5.55011
▁from	-5.58937
▁by	-5.60906
▁as	-5.63598
▁has	-5.65312
▁have	-5.73866
▁his	-5.73867
▁are	-5.85994
▁but	-5.917
e	-5.9271
▁were	-5.94476
▁will	-5.95406
▁not	-6.02232
▁who	-6.07972
▁u	-6.123
▁after	-6.12716
▁had	-6.15494
▁been	-6.21109
▁they	-6.22262
▁this	-6.23948
▁their	-6.28498
n	-6.29461
▁people	-6.29484
▁year	-6.29833
▁i	-6.30939
▁about	-6.31913
▁more	-6.3231
▁t	-6.32722
▁its	-6.34284
▁two	-6.3654
▁new	-6.39016
▁korea	-6.39481
▁we	-6.40511
t	-6.4249
▁which	-6.43861
▁one	-6.44041
▁president	-6.44619
▁up	-6.46392
▁her	-6.47678
▁government	-6.48442
▁would	-6.49324
▁or	-6.52794
▁north	-6.55227
▁she	-6.56665
▁also	-6.58124
▁out	-6.59483
▁than	-6.59929
▁over	-6.65496
▁last	-6.66752
▁cnn	-6.67875
ies	-6.6843
▁police	-6.68511
▁when	-6.71032
▁first	-6.71279
▁south	-6.72151
▁there	-6.78288
▁us	-6.80386
▁other	-6.80546
▁some	-6.80593
▁into	-6.81928
▁all	-6.82713
r	-6.83984
▁no	-6.85918
▁time	-6.86594
er	-6.87458
▁told	-6.9008
es	-6.90385
▁world	-6.91242
a	-6.92909
▁korean	-6.93624
l	-6.94365
an	-6.95703
▁state	-6.96737
▁percent	-6.97836
▁you	-6.98544
▁years	-6.9875
▁can	-6.99813
▁united	-7.02067
▁could	-7.04044
▁them	-7.04698
on	-7.04701
▁if	-7.0538
▁according	-7.0539
▁officials	-7.05551
▁al	-7.0832
▁country	-7.09263
▁party	-7.09779
▁three	-7.0996
▁monday	-7.10803
▁iraq	-7.11394
▁minister	-7.11815
▁militar	-7.12353
▁tuesday	-7.13108
▁says	-7.13557
▁national	-7.13704
▁day	-7.14979
ese	-7.15035
▁what	-7.17265
▁kill	-7.1854
o	-7.18821
▁obama	-7.18912
▁week	-7.19177
▁states	-7.20072
▁like	-7.2095
▁him	-7.21303
▁wednesday	-7.21708
▁million	-7.21823
▁japan	-7.22122
▁before	-7.22241
▁most	-7.23156
▁old	-7.2324
▁since	-7.24498
▁against	-7.24533
▁sunday	-7.24651
▁so	-7.25842
▁now	-7.26578
ce	-7.26661
▁bush	-7.27366
▁china	-7.27537
▁nuclear	-7.27987
▁where	-7.28672
▁down	-7.28793
al	-7.29167
▁near	-7.29396
▁m	-7.3007
▁dur	-7.30248
▁under	-7.31199
▁say	-7.31785
▁take	-7.32247
▁back	-7.32724
cause	-7.33445
▁official	-7.3407
▁off	-7.34267
▁may	-7.34311
▁city	-7.34346
▁nation	-7.34458
▁un	-7.34547
▁thursday	-7.34686
▁former	-7.34819
▁re	-7.34864
▁security	-7.36955
▁just	-7.3698
▁whil	-7.37346
▁reported	-7.38252
▁four	-7.38393
▁house	-7.38461
tween	-7.38526
▁made	-7.39824
▁war	-7.40947
▁american	-7.41851
ish	-7.42089
▁high	-7.43406
▁group	-7.44572
▁month	-7.45018
▁many	-7.45585
▁through	-7.46452
▁do	-7.48319
▁end	-7.48612
▁news	-7.49937
▁man	-7.5065
▁being	-7.51156
▁plan	-7.51285
▁including	-7.52616
▁called	-7.52694
i	-7.53972
▁show	-7.54647
▁did	-7.55098
▁statement	-7.55447
▁home	-7.5595
▁b	-7.56575
▁our	-7.56817
▁international	-7.5684
▁get	-7.57061
▁any	-7.5737
▁six	-7.58091
▁help	-7.58143
▁found	-7.58459
▁work	-7.61614
▁th	-7.61889
▁report	-7.61894
▁part	-7.62196
▁won	-7.62561
▁reports	-7.62895
▁next	-7.63758
▁foreign	-7.64599
▁court	-7.65155
▁five	-7.65215
▁talks	-7.65847
▁second	-7.65852
▁make	-7.66332
▁my	-7.66536
▁attack	-7.66562
▁death	-7.66633
▁still	-7.66681
▁go	-7.6705
▁days	-7.67632
▁how	-7.68034
▁prime	-7.69432
▁long	-7.70137
▁troops	-7.70407
▁seoul	-7.71421
▁office	-7.71606
in	-7.71714
other	-7.7195
▁n	-7.72045
en	-7.72971
able	-7.72984
▁authorit	-7.73221
▁around	-7.73887
▁want	-7.74038
▁leas	-7.74699
▁recent	-7.75082
▁hour	-7.75588
▁top	-7.76977
▁release	-7.77191
▁set	-7.77222
▁ministry	-7.77338
▁come	-7.77437
▁spokesm	-7.77778
▁leader	-7.77924
▁arm	-7.79252
ther	-7.79382
▁way	-7.79387
▁know	-7.79893
▁clinton	-7.80251
▁program	-7.80262
hose	-7.81239
▁lead	-7.81508
▁washington	-7.81747
▁see	-7.81828
▁public	-7.82321
▁w	-7.82579
▁close	-7.82749
▁support	-7.82977
▁company	-7.83048
▁place	-7.8306
ity	-7.8347
▁site	-7.83528
▁agency	-7.84839
▁presidential	-7.85403
▁iraqi	-7.85464
▁expected	-7.85503
man	-7.8588
ion	-7.86266
▁bank	-7.86471
c	-7.8649
▁well	-7.86596
▁chief	-7.86603
▁look	-7.86683
▁saying	-7.87006
▁return	-7.87105
▁even	-7.87274
out	-7.87308
▁press	-7.87433
▁brit	-7.87842
▁billion	-7.87995
▁children	-7.8845
▁forces	-7.89024
▁both	-7.89626
▁york	-7.89632
▁should	-7.90387
▁earlie	-7.90575
▁political	-7.90669
▁campaign	-7.91088
▁election	-7.91352
▁early	-7.91379
▁died	-7.91554
▁number	-7.91611
▁believe	-7.91875
▁head	-7.92025
▁arrest	-7.92062
▁members	-7.92149
▁saturday	-7.93022
▁white	-7.93552
▁times	-7.93644
▁chin	-7.93875
▁general	-7.93992
▁meeting	-7.94297
▁friday	-7.94602
▁came	-7.95506
▁kim	-7.95818
▁countries	-7.95834
▁democratic	-7.9636
very	-7.96415
▁women	-7.96581
▁fire	-7.96795
▁car	-7.96819
▁p	-7.97085
▁economic	-7.97113
▁claim	-7.97337
▁air	-7.97609
▁team	-7.97713
▁health	-7.97714
▁among	-7.98602
▁good	-7.98917
▁took	-7.99789
▁going	-7.99847
▁ask	-7.99987
▁family	-8.00011
▁power	-8.00114
▁use	-8.00186
▁months	-8.00284
▁center	-8.00308
▁think	-8.00367
▁issue	-8.00643
▁visit	-8.01052
est	-8.01928
▁lee	-8.02126
▁later	-8.02653
▁human	-8.027
▁much	-8.02785
▁night	-8.02957
▁capital	-8.03024
▁try	-8.0314
▁move	-8.03259
▁life	-8.03432
▁face	-8.03666
▁force	-8.03739
▁left	-8.04085
▁need	-8.04203
▁then	-8.05111
▁john	-8.05496
▁ago	-8.05679
▁yesterday	-8.05868
ment	-8.0622
▁large	-8.0634
▁k	-8.06795
▁secretary	-8.07403
▁major	-8.07449
▁men	-8.08801
▁deal	-8.08878
▁area	-8.09042
▁pakistan	-8.0957
▁allow	-8.09585
▁run	-8.09664
▁turn	-8.09869
▁held	-8.10981
▁iran	-8.12103
▁same	-8.12282
▁business	-8.12675
ers	-8.12698
▁market	-8.13148
▁oil	-8.13452
▁case	-8.13625
h	-8.1363
▁de	-8.13865
▁right	-8.13912
▁me	-8.13949
▁local	-8.14005
▁own	-8.14022
▁severa	-8.14144
▁main	-8.14356
▁department	-8.14602
m	-8.15034
▁put	-8.1514
▁today	-8.15312
▁university	-8.15543
▁hit	-8.15591
▁media	-8.15617
▁don	-8.16111
▁school	-8.16245
▁dead	-8.16399
▁opposition	-8.16872
▁economy	-8.17023
▁start	-8.17152
▁appear	-8.17168
▁third	-8.17177
▁record	-8.17554
▁past	-8.17598
▁militant	-8.17638
▁roh	-8.17642
▁law	-8.17879
▁concern	-8.17947
▁half	-8.17993
▁leaders	-8.18317
▁candidate	-8.18412
▁call	-8.18448
▁morning	-8.18582
▁win	-8.18794
▁vote	-8.18876
▁financial	-8.1888
▁these	-8.1924
▁space	-8.19541
▁few	-8.19823
land	-8.2135
▁london	-8.21409
▁taliban	-8.21409
▁defense	-8.21569
▁whe	-8.2162
▁late	-8.22006
▁e	-8.22085
▁sign	-8.22405
▁clear	-8.22861
▁film	-8.23353
▁free	-8.23708
such	-8.23797
▁remain	-8.23921
▁com	-8.24061
▁your	-8.24526
▁f	-8.24798
▁test	-8.25132
▁hospital	-8.25254
▁beijing	-8.25328
▁open	-8.25359
▁water	-8.25433
▁name	-8.26084
▁workers	-8.2611
▁administration	-8.26164
▁afghanistan	-8.26165
▁money	-8.26245
▁per	-8.26438
▁base	-8.2645
▁palestinian	-8.265
le	-8.26548
▁change	-8.26583
ve	-8.2662
▁service	-8.26662
▁german	-8.26672
▁d	-8.26913
▁final	-8.27001
▁mccain	-8.27177
▁rule	-8.27495
▁does	-8.27777
▁line	-8.28011
▁eight	-8.28201
▁increase	-8.2906
▁source	-8.29066
▁park	-8.29076
▁great	-8.29236
▁attacks	-8.29375
▁best	-8.29607
▁announc	-8.29624
▁system	-8.29693
▁play	-8.29794
▁led	-8.29853
▁already	-8.29929
▁baghdad	-8.30106
▁big	-8.30128
▁central	-8.30338
▁give	-8.31002
▁killing	-8.31034
▁along	-8.31178
▁strong	-8.31181
▁march	-8.31342
ation	-8.31426
▁small	-8.31688
▁began	-8.31717
▁province	-8.31765
▁trade	-8.32193
▁decision	-8.32312
▁far	-8.32614
▁video	-8.32715
▁control	-8.32793
▁hope	-8.33335
▁seven	-8.33479
▁bomb	-8.33665
▁current	-8.3384
▁co	-8.3403
▁ap	-8.34309
▁thousand	-8.34385
▁cut	-8.34449
▁bill	-8.34553
each	-8.34648
▁miles	-8.34702
▁keep	-8.34727
▁away	-8.34857
▁operation	-8.35071
▁fund	-8.35571
▁french	-8.35854
▁rights	-8.3598
▁post	-8.36143
▁conference	-8.36231
▁however	-8.36239
▁continue	-8.36256
▁become	-8.36419
▁israeli	-8.36447
▁food	-8.36615
▁region	-8.36721
▁israel	-8.36881
▁station	-8.37394
▁consider	-8.37507
▁southern	-8.37726
▁mak	-8.3814
▁attempt	-8.38479
▁barack	-8.3848
▁web	-8.38664
▁soldiers	-8.3875
▁agreement	-8.39034
▁global	-8.39298
▁woman	-8.39487
yang	-8.3957
▁information	-8.39633
▁spokes	-8.40346
▁gas	-8.40468
▁bas	-8.40702
▁violence	-8.40784
▁east	-8.40955
th	-8.41059
▁european	-8.41242
▁others	-8.41628
▁qa	-8.41706
▁sen	-8.41813
▁border	-8.41959
▁weapons	-8.42224
▁young	-8.42497
▁here	-8.4269
▁russia	-8.42765
▁star	-8.42814
▁person	-8.42906
▁injur	-8.43063
▁offer	-8.43342
▁c	-8.4379
▁plann	-8.43794
▁cause	-8.44032
▁town	-8.44106
▁union	-8.44247
▁condition	-8.44387
▁action	-8.44408
▁rate	-8.44476
st	-8.44529
▁director	-8.44568
▁committee	-8.45167
▁live	-8.45237
▁students	-8.45498
▁full	-8.45548
▁prices	-8.45971
▁weeks	-8.46074
▁following	-8.46164
▁ve	-8.46368
▁northern	-8.46385
▁internet	-8.47206
▁federal	-8.47413
▁peace	-8.47431
▁count	-8.47563
▁article	-8.4783
▁order	-8.48301
▁point	-8.48321
▁california	-8.48667
um	-8.48793
▁pyong	-8.48878
▁republican	-8.49121
▁alleged	-8.49213
▁confirm	-8.49621
▁added	-8.49783
▁short	-8.4986
▁every	-8.499
▁britain	-8.49938
▁might	-8.50151
▁grow	-8.50578
ic	-8.50634
▁talk	-8.50929
▁launch	-8.50942
▁total	-8.50996
▁never	-8.51024
▁aid	-8.51091
▁include	-8.51155
▁congress	-8.51223
▁target	-8.51223
▁hundred	-8.51408
▁comment	-8.51478
▁side	-8.51794
▁watch	-8.52117
▁key	-8.52406
▁outside	-8.52547
▁ahead	-8.52766
▁immediate	-8.52964
▁organization	-8.5341
▁points	-8.53479
▁went	-8.53726
▁investigation	-8.53804
▁member	-8.53908
▁research	-8.53934
▁anti	-8.54053
▁emergency	-8.54093
▁acros	-8.54485
▁senior	-8.5496
▁stock	-8.55219
▁must	-8.55233
▁cost	-8.55608
▁accus	-8.55621
▁little	-8.55642
▁working	-8.55911
▁real	-8.55958
▁game	-8.55991
▁france	-8.5611
▁body	-8.56196
▁hold	-8.56235
▁crisis	-8.56313
te	-8.56345
▁possible	-8.56606
▁find	-8.56643
▁follow	-8.56761
▁energy	-8.57002
▁ban	-8.57149
▁got	-8.57629
▁stop	-8.57889
▁charges	-8.58094
▁companies	-8.58146
▁prosecutor	-8.58148
▁study	-8.58187
▁question	-8.58265
▁involv	-8.58329
▁again	-8.58344
▁elections	-8.58407
▁west	-8.58895
us	-8.58944
▁hyun	-8.59034
▁january	-8.59075
▁council	-8.59704
▁newspaper	-8.59778
een	-8.59884
▁hard	-8.59936
▁speak	-8.60005
▁latest	-8.60299
▁race	-8.60382
▁june	-8.6051
▁age	-8.60915
▁building	-8.60943
▁sea	-8.60967
▁share	-8.61572
▁reporters	-8.61573
▁red	-8.61772
▁meet	-8.61898
▁july	-8.61985
▁tell	-8.62085
▁due	-8.6213
▁america	-8.62214
▁previous	-8.62397
▁round	-8.6263
▁russian	-8.62861
▁further	-8.62882
▁interview	-8.62968
▁pay	-8.63042
▁toward	-8.63074
▁suicide	-8.63132
▁mean	-8.63232
▁provide	-8.63854
▁policy	-8.63986
▁afghan	-8.64097
▁george	-8.64105
▁child	-8.64121
▁travel	-8.64167
▁coast	-8.64185
▁airport	-8.64369
▁less	-8.64389
▁search	-8.6439
▁carry	-8.64634
▁weekend	-8.64841
▁interest	-8.6501
▁england	-8.65086
▁ruling	-8.65088
▁list	-8.65245
▁charge	-8.65267
▁process	-8.66026
raf	-8.66035
▁term	-8.66128
▁tour	-8.6625
▁poll	-8.66341
▁gaza	-8.66359
eda	-8.66423
uch	-8.6654
▁september	-8.66584
▁television	-8.6659
▁minutes	-8.66858
▁ever	-8.66918
▁judge	-8.672
▁hostage	-8.67353
▁demand	-8.6744
▁damage	-8.67472
▁couple	-8.67607
▁bring	-8.67757
▁too	-8.67824
▁medical	-8.67859
▁efforts	-8.67864
▁lost	-8.67976
▁son	-8.68015
▁future	-8.6805
▁hav	-8.68078
▁scientist	-8.68105
▁groups	-8.68384
ness	-8.68459
▁lawmaker	-8.68633
▁storm	-8.68649
▁level	-8.68758
▁develop	-8.69226
▁act	-8.69384
▁street	-8.69564
self	-8.69586
▁executive	-8.69652
▁elect	-8.69767
▁o	-8.69822
▁black	-8.70361
▁father	-8.70449
▁send	-8.70483
▁wide	-8.70539
▁victory	-8.70752
▁island	-8.70788
▁grand	-8.70877
▁serious	-8.70956
▁shot	-8.71222
▁series	-8.71381
▁better	-8.71494
▁terrorist	-8.71571
▁suggest	-8.71692
▁communist	-8.71752
▁lot	-8.71804
▁goal	-8.71863
▁break	-8.71974
▁stay	-8.72283
▁mother	-8.72506
ry	-8.72768
▁industry	-8.7308
▁fuel	-8.73096
woman	-8.73277
▁missile	-8.73352
▁sent	-8.73425
▁strike	-8.735
▁december	-8.73619
▁pro	-8.73721
▁tv	-8.73982
▁musha	-8.73995
▁sex	-8.74104
▁apri	-8.74159
▁hand	-8.7429
▁almost	-8.74714
▁fall	-8.74831
▁parliament	-8.74858
▁incident	-8.74922
▁hotel	-8.7498
▁mission	-8.75101
▁heart	-8.7515
▁threaten	-8.75284
▁direct	-8.75429
▁result	-8.75606
age	-8.75617
▁cell	-8.76379
▁yet	-8.76394
▁seek	-8.76454
hind	-8.76595
though	-8.76676
▁wounded	-8.76754
▁europe	-8.76814
▁really	-8.77093
▁important	-8.77192
▁enough	-8.77197
▁chairman	-8.77479
▁history	-8.77481
▁nine	-8.77486
to	-8.77649
▁inside	-8.77774
▁asia	-8.77926
▁november	-8.78033
▁david	-8.78033
▁front	-8.78087
▁special	-8.78126
cy	-8.78139
▁ground	-8.7815
▁wall	-8.78187
▁flight	-8.7821
▁prison	-8.7824
▁western	-8.78484
▁voter	-8.78508
▁vehicle	-8.78599
▁job	-8.78772
▁soon	-8.79041
▁wife	-8.79462
ous	-8.79602
▁player	-8.79707
▁rice	-8.7975
▁plane	-8.79773
▁given	-8.79793
▁complete	-8.79858
▁discuss	-8.79964
ought	-8.80026
▁democrat	-8.80042
▁fighting	-8.80304
▁room	-8.80436
▁started	-8.80633
▁amid	-8.80666
▁protest	-8.80716
g	-8.80756
▁private	-8.81189
▁cross	-8.81292
▁estimate	-8.81371
bc	-8.81513
▁india	-8.81564
son	-8.81661
u	-8.81692
▁whose	-8.81699
▁middle	-8.8177
▁role	-8.81869
▁season	-8.81996
▁crash	-8.82063
▁price	-8.82234
coming	-8.82295
▁foot	-8.82387
▁ship	-8.82718
▁walk	-8.82949
na	-8.83001
f	-8.83312
▁mark	-8.83404
▁associat	-8.8353
▁different	-8.83845
▁commission	-8.84031
▁exchange	-8.84052
▁august	-8.84083
▁rebel	-8.84148
▁negotiation	-8.84155
▁light	-8.84203
▁san	-8.84278
▁supporter	-8.84333
▁step	-8.84539
▁evidence	-8.84741
▁though	-8.8495
▁victims	-8.85141
▁problem	-8.8515
k	-8.85394
known	-8.85403
▁district	-8.8565
▁development	-8.85695
▁board	-8.85701
▁join	-8.85773
▁warn	-8.859
▁dozen	-8.85955
▁problems	-8.86153
▁boy	-8.86187
▁protect	-8.86226
▁liv	-8.8625
▁conduct	-8.86268
▁pressure	-8.8649
▁animal	-8.86577
▁situation	-8.86876
▁homes	-8.87032
▁fail	-8.87079
vez	-8.87248
▁areas	-8.87288
▁cha	-8.87391
▁gave	-8.875
▁met	-8.87564
▁australia	-8.87622
ntil	-8.87892
▁larges	-8.87995
▁resident	-8.88037
▁leave	-8.88168
▁lower	-8.88227
▁road	-8.88247
▁am	-8.88334
▁february	-8.88428
▁movie	-8.88762
▁reach	-8.8881
▁bad	-8.88817
▁train	-8.89148
▁primar	-8.89315
▁bus	-8.89484
▁summit	-8.89688
▁senate	-8.8969
▁analyst	-8.89691
▁express	-8.89833
▁gen	-8.89842
less	-8.89857
▁trip	-8.89858
▁church	-8.90011
▁lawyer	-8.90012
▁fell	-8.90013
▁risk	-8.90327
▁crew	-8.9033
▁inter	-8.90447
▁low	-8.90544
▁senator	-8.90964
▁tried	-8.91037
▁link	-8.91214
▁heavy	-8.91285
▁thought	-8.91294
▁happen	-8.91298
▁disease	-8.91332
▁serve	-8.91522
▁illegal	-8.91608
▁pakistani	-8.91766
▁prevent	-8.91932
▁urg	-8.91963
▁rival	-8.92263
ally	-8.92277
▁let	-8.92287
▁results	-8.92487
ance	-8.92534
▁wanted	-8.92798
ty	-8.92807
▁speech	-8.92909
▁vice	-8.93031
▁relations	-8.93065
▁land	-8.93113
▁los	-8.93191
▁october	-8.93237
▁together	-8.93264
▁intelligen	-8.93381
▁protesters	-8.93391
▁address	-8.93446
▁pull	-8.93793
▁florida	-8.94561
▁something	-8.94566
▁moo	-8.94811
▁request	-8.94893
▁tokyo	-8.94896
▁project	-8.949
wide	-8.94951
▁mid	-8.95102
▁summer	-8.95228
▁cup	-8.95579
▁stage	-8.9574
▁hamas	-8.959
▁position	-8.95925
▁ll	-8.95943
▁product	-8.96006
▁phone	-8.96198
▁loss	-8.96212
▁attorney	-8.96237
▁justice	-8.96242
▁crowd	-8.96247
▁crime	-8.96253
▁leban	-8.96255
▁technology	-8.96257
▁online	-8.96359
▁calls	-8.96434
▁hong	-8.96592
▁growth	-8.96611
▁thai	-8.96632
▁unti	-8.96736
▁attend	-8.96746
mar	-8.96749
▁decided	-8.96839
ism	-8.96926
ary	-8.96982
▁eastern	-8.97186
▁labor	-8.9721
▁begin	-8.97248
z	-8.97256
▁muslim	-8.97258
▁quick	-8.97261
one	-8.97272
▁getting	-8.97293
▁brown	-8.9733
▁focus	-8.97377
▁j	-8.97516
▁paris	-8.97614
▁daughter	-8.97618
▁fight	-8.97761
▁hill	-8.97767
▁survey	-8.97893
▁coalition	-8.97944
▁popular	-8.97967
▁sell	-8.98028
biggest	-8.98074
▁announce	-8.98171
▁girl	-8.98186
▁markets	-8.98222
▁battle	-8.98484
▁approv	-8.98573
▁treat	-8.98648
▁league	-8.98658
▁chance	-8.9871
▁rise	-8.98758
▁gold	-8.98771
▁needed	-8.98917
▁assembly	-8.99017
▁award	-8.99249
▁officer	-8.99258
▁koreans	-8.99264
▁reached	-8.9931
▁apparent	-8.99334
▁missing	-8.99349
▁fan	-8.99429
▁despi	-8.99535
▁h	-8.99812
▁games	-9.00121
▁saw	-9.00147
▁credit	-9.00335
▁hillary	-9.00397
▁releas	-9.00505
▁pick	-9.00718
▁buy	-9.00823
▁tax	-9.0086
▁legal	-9.00882
▁joint	-9.00915
▁fee	-9.00961
▁kind	-9.01067
co	-9.01396
▁effort	-9.01409
▁scene	-9.01453
▁asian	-9.01611
▁match	-9.01622
▁love	-9.01691
▁expect	-9.01697
taken	-9.01741
ard	-9.01868
▁democrac	-9.02162
▁olympic	-9.02171
▁services	-9.02182
▁officers	-9.02282
▁stand	-9.02468
ive	-9.02516
▁feel	-9.02621
▁sentence	-9.02881
▁sarkozy	-9.02883
▁jail	-9.02896
▁nomination	-9.02897
▁music	-9.03167
▁blood	-9.03637
▁r	-9.03659
▁polls	-9.03885
▁seem	-9.03995
p	-9.04058
▁bid	-9.04099
▁caus	-9.04166
ri	-9.04232
▁cover	-9.04338
▁threat	-9.04381
▁drug	-9.04429
▁issues	-9.04736
came	-9.04781
▁form	-9.04969
▁texas	-9.05077
▁running	-9.05093
▁tak	-9.05131
▁staff	-9.05141
by	-9.05266
▁network	-9.05584
▁event	-9.05685
▁turkey	-9.05827
▁quarter	-9.05831
▁destroy	-9.0601
▁host	-9.06057
▁robert	-9.06182
▁population	-9.06198
▁letter	-9.06598
▁protests	-9.06611
▁australian	-9.06787
▁experts	-9.06863
▁paul	-9.06896
▁blast	-9.06945
▁deput	-9.06949
▁delay	-9.06956
side	-9.07028
▁jobs	-9.07072
▁community	-9.07086
▁murder	-9.07167
▁receiv	-9.0779
▁ra	-9.08005
▁governor	-9.0806
▁field	-9.0815
▁story	-9.08157
▁higher	-9.08212
▁idea	-9.08363
▁why	-9.08533
▁radio	-9.08612
ra	-9.08869
▁image	-9.08907
greed	-9.09129
▁safety	-9.09244
▁association	-9.09265
▁sales	-9.09461
▁things	-9.09785
x	-9.09847
▁river	-9.09975
▁plant	-9.09998
▁embass	-9.10004
▁beat	-9.10098
▁title	-9.10202
▁opened	-9.10455
▁message	-9.10709
▁continued	-9.10732
▁cit	-9.10744
▁deep	-9.10754
▁mov	-9.10778
▁resolution	-9.10783
▁sanction	-9.10786
▁suffer	-9.11029
▁lives	-9.11066
▁camp	-9.11269
▁ki	-9.1131
▁civilians	-9.11327
or	-9.11366
▁similar	-9.11567
▁appeal	-9.11569
▁book	-9.11782
▁firm	-9.11966
▁trial	-9.11981
▁debate	-9.11994
▁average	-9.12099
▁fear	-9.12262
▁earth	-9.12365
▁rose	-9.12379
▁production	-9.12406
▁daily	-9.12416
▁g	-9.12452
taking	-9.12499
▁aim	-9.12514
ways	-9.12522
▁researcher	-9.12601
whil	-9.1263
▁delegates	-9.12687
▁minute	-9.12729
▁safe	-9.1273
▁rais	-9.12868
▁initial	-9.13163
▁royal	-9.13165
▁date	-9.13169
▁often	-9.13375
▁doing	-9.1343
▁ceremon	-9.1356
▁identified	-9.1379
▁airline	-9.13882
ton	-9.13884
▁measures	-9.13937
▁husband	-9.13963
▁journalist	-9.13982
▁king	-9.14031
▁poor	-9.14376
▁africa	-9.14592
▁receive	-9.14922
▁computer	-9.15023
▁wait	-9.15091
▁care	-9.15194
▁iranian	-9.15338
▁kong	-9.1534
▁drive	-9.15444
▁michael	-9.15594
▁contain	-9.15752
▁shooting	-9.15966
▁moment	-9.16028
▁st	-9.16033
▁famili	-9.16328
▁neighbor	-9.16414
▁parents	-9.1643
▁arriv	-9.16486
▁done	-9.16684
▁fired	-9.16775
▁investigator	-9.16883
▁fact	-9.1701
▁tourist	-9.17345
pent	-9.17569
▁islami	-9.17655
▁quot	-9.17747
▁present	-9.17775
▁commander	-9.17893
▁ordered	-9.18042
▁dispute	-9.18054
▁accident	-9.18067
▁reform	-9.18078
▁movement	-9.18191
▁facilit	-9.18393
▁certain	-9.18509
▁transport	-9.18509
▁club	-9.18514
▁paper	-9.18545
▁burn	-9.18607
▁raise	-9.187
▁dr	-9.18846
▁affair	-9.18933
▁education	-9.18989
▁african	-9.19124
▁prince	-9.19253
▁ambassador	-9.19358
▁increasing	-9.19358
▁push	-9.19373
▁involve	-9.19454
▁details	-9.19482
▁suspected	-9.19482
▁period	-9.1952
▁included	-9.19532
▁sexual	-9.19795
▁rest	-9.19951
▁cars	-9.20015
▁related	-9.20388
▁professor	-9.20646
▁dow	-9.20768
▁accept	-9.20931
▁matter	-9.20938
▁afternoon	-9.2108
▁wear	-9.21187
▁view	-9.21205
▁difficult	-9.2127
▁account	-9.21361
▁english	-9.21514
▁potential	-9.21514
▁gain	-9.21833
▁rock	-9.21868
▁cat	-9.2191
▁rally	-9.21985
▁majorit	-9.21996
▁ready	-9.22078
▁manager	-9.22107
▁bodie	-9.22142
hutto	-9.22247
▁reject	-9.2235
▁cabinet	-9.22389
▁activities	-9.22458
nato	-9.22651
▁contract	-9.22712
▁draw	-9.22811
▁detain	-9.22827
▁kilometer	-9.22829
▁brother	-9.22842
▁huge	-9.2299
▁leav	-9.23265
▁design	-9.23425
▁block	-9.23689
▁contact	-9.23717
▁patient	-9.23741
▁course	-9.23768
▁terror	-9.23774
ung	-9.23876
▁challenge	-9.23889
truck	-9.24004
hua	-9.24069
▁holding	-9.24143
▁finish	-9.24158
▁access	-9.24196
▁saudi	-9.24612
▁opening	-9.24639
▁indian	-9.24781
rought	-9.24888
stead	-9.24889
▁played	-9.24909
▁rescue	-9.25442
▁doctors	-9.25586
▁broadcast	-9.25658
▁cases	-9.25814
▁conservative	-9.25969
▁treatment	-9.2601
▁announcement	-9.26032
▁sure	-9.26046
▁turk	-9.26204
▁marine	-9.2634
▁progress	-9.26411
▁raid	-9.26473
▁broke	-9.26532
▁track	-9.26694
▁limit	-9.26843
▁peninsula	-9.26884
▁response	-9.26884
▁suspend	-9.26884
za	-9.26891
▁enter	-9.26942
ble	-9.26968
▁institute	-9.27359
▁create	-9.27365
▁civil	-9.27539
▁deliver	-9.27602
▁prisoner	-9.27934
▁shows	-9.27985
▁hearing	-9.28065
▁check	-9.28281
ler	-9.2837
▁cities	-9.2844
▁village	-9.28498
▁common	-9.28498
▁material	-9.28603
▁passengers	-9.28735
▁partie	-9.28737
▁mexico	-9.2874
▁spoke	-9.28742
▁lift	-9.28767
▁friend	-9.28772
▁probabl	-9.28834
▁means	-9.28843
▁non	-9.28851
▁forward	-9.2888
▁streets	-9.2891
▁single	-9.29023
wood	-9.29095
▁critical	-9.29114
▁illinois	-9.2921
▁taiwan	-9.2921
▁square	-9.29214
▁agree	-9.29217
▁interior	-9.29258
▁published	-9.2952
▁trading	-9.29682
▁actor	-9.29739
▁understand	-9.29744
▁vot	-9.29751
ey	-9.30005
▁session	-9.30155
re	-9.30587
▁describ	-9.30839
▁passed	-9.3087
▁separate	-9.31038
▁green	-9.31065
ful	-9.31095
▁explosion	-9.3111
▁relationship	-9.31114
▁investor	-9.31134
▁rain	-9.31143
▁refus	-9.31274
▁investment	-9.31281
▁warning	-9.31359
▁spread	-9.3138
ney	-9.3157
▁allegation	-9.31593
▁nothing	-9.31608
▁spending	-9.31689
▁l	-9.31715
ial	-9.3194
▁diplomatic	-9.32137
gnp	-9.32183
▁secret	-9.3246
▁index	-9.3259
▁nav	-9.3286
▁fast	-9.32862
▁chicago	-9.33047
▁annual	-9.3346
▁insurgent	-9.33537
▁data	-9.33562
▁citizens	-9.33579
selves	-9.33993
▁islam	-9.34024
▁giant	-9.34034
▁rising	-9.34075
geles	-9.34424
▁nominee	-9.34525
▁female	-9.34525
▁actual	-9.34526
▁investigat	-9.34634
▁personal	-9.34667
▁natural	-9.3493
▁criminal	-9.35022
▁helicopter	-9.35022
▁weather	-9.35034
▁winning	-9.35037
▁longer	-9.35039
▁virginia	-9.35041
▁avoid	-9.35078
▁sold	-9.35187
▁pai	-9.35273
▁fly	-9.35368
▁sun	-9.35437
▁mayor	-9.35568
▁experience	-9.35859
time	-9.35946
▁italian	-9.36033
▁code	-9.36125
▁smith	-9.3629
▁friends	-9.36344
▁schedule	-9.36445
▁shiite	-9.36531
▁satellite	-9.36532
▁export	-9.36785
▁require	-9.36892
▁abo	-9.3694
▁particular	-9.37039
▁lack	-9.37053
▁ran	-9.37091
▁social	-9.37207
▁chung	-9.3731
▁moon	-9.37365
▁discovered	-9.3749
▁independent	-9.3757
▁decades	-9.37697
▁century	-9.37705
▁range	-9.37736
▁truck	-9.37756
▁eu	-9.37801
▁injuries	-9.37838
▁mass	-9.37946
▁success	-9.37999
▁provid	-9.38012
▁snow	-9.3803
▁boat	-9.3809
▁size	-9.38331
▁availab	-9.38377
▁adding	-9.38444
▁dollar	-9.38445
▁employees	-9.3845
▁construction	-9.38581
▁italy	-9.38633
▁blue	-9.39032
▁finding	-9.39055
▁science	-9.3912
▁camera	-9.3914
▁worth	-9.39155
▁guard	-9.39174
▁wors	-9.39729
▁committ	-9.3975
▁color	-9.39809
▁toll	-9.39836
▁la	-9.40057
▁nasa	-9.40071
▁xin	-9.40154
▁rare	-9.40182
▁declar	-9.40215
▁additional	-9.40273
▁steps	-9.40344
▁visitor	-9.4042
▁seat	-9.40436
▁mail	-9.40466
▁flood	-9.40608
▁earthquake	-9.40665
▁unit	-9.40975
▁espe	-9.41088
▁establish	-9.41101
▁refugee	-9.41103
▁college	-9.41195
▁supreme	-9.41196
▁sever	-9.41203
▁barrel	-9.41204
▁jones	-9.41231
▁parts	-9.41244
▁honor	-9.41272
▁operat	-9.41287
pain	-9.41326
▁port	-9.41482
▁gun	-9.41663
▁industrial	-9.4167
▁anything	-9.41729
cially	-9.41763
▁insist	-9.41821
▁voice	-9.42041
▁pass	-9.42146
▁resign	-9.42238
▁everything	-9.42262
▁standard	-9.42265
▁peaceful	-9.42284
▁dae	-9.42295
▁zone	-9.42313
▁command	-9.42382
▁slow	-9.42606
▁thing	-9.42731
▁approach	-9.42737
men	-9.42743
▁maintain	-9.42798
▁reactor	-9.42805
▁read	-9.4285
▁extend	-9.42897
▁import	-9.43031
▁build	-9.43046
▁gather	-9.43099
▁ice	-9.43355
▁quit	-9.43534
▁wound	-9.4365
ley	-9.43717
▁moscow	-9.43882
▁prosecution	-9.43885
▁defeat	-9.43887
▁schedul	-9.43981
▁dollars	-9.44024
▁dropp	-9.44222
▁figure	-9.44231
▁super	-9.44283
▁value	-9.44295
▁massive	-9.4445
▁ben	-9.44514
▁original	-9.44549
▁banks	-9.44736
▁peter	-9.44768
▁deni	-9.44777
▁condemn	-9.44978
▁envoy	-9.44978
▁carolina	-9.44978
▁regard	-9.44979
▁opportunit	-9.45004
▁kar	-9.451
spite	-9.45397
▁represent	-9.45507
▁attention	-9.45533
▁cancer	-9.45544
▁schools	-9.45566
▁shut	-9.45568
▁occurr	-9.45574
▁speed	-9.45595
▁shin	-9.45843
▁produc	-9.4587
▁alliance	-9.46089
▁aircraft	-9.46097
▁mountain	-9.46195
▁convicted	-9.462
▁le	-9.46214
ose	-9.46227
▁ii	-9.46241
▁born	-9.46251
▁criticiz	-9.46283
▁store	-9.46305
▁engineer	-9.46333
▁uri	-9.46437
▁questions	-9.46569
▁driving	-9.46646
▁significant	-9.4667
▁driver	-9.46882
▁produce	-9.47102
▁resume	-9.47106
aught	-9.47155
▁uk	-9.47161
▁jump	-9.47209
kept	-9.47324
▁remarks	-9.47351
▁consumer	-9.47389
bi	-9.47438
▁pre	-9.47459
▁il	-9.47578
▁pacifi	-9.47772
▁brain	-9.47779
▁usual	-9.4778
▁suspect	-9.47793
▁environmental	-9.47933
▁student	-9.47948
ritten	-9.47952
▁normal	-9.48327
▁marriage	-9.4834
▁discussion	-9.48466
giving	-9.48546
▁remains	-9.48631
responsible	-9.48722
▁whom	-9.48762
▁evening	-9.48803
▁monitor	-9.48911
el	-9.48984
▁society	-9.48987
▁admitted	-9.49078
▁class	-9.49243
oft	-9.4936
▁hands	-9.494
▁device	-9.49492
▁bridge	-9.49534
▁training	-9.4964
▁pennsylvania	-9.49812
▁indonesia	-9.49881
▁independen	-9.49908
▁finance	-9.50026
▁prompt	-9.50064
▁ohio	-9.50065
▁management	-9.50076
▁guilt	-9.50092
▁severe	-9.50213
▁fighter	-9.50412
▁sharp	-9.50431
▁millions	-9.50518
▁heard	-9.50613
▁museum	-9.50648
▁performance	-9.50656
▁blame	-9.50681
harry	-9.50816
▁drop	-9.50921
▁promise	-9.5094
▁levels	-9.50945
▁ex	-9.50954
▁customer	-9.50965
putin	-9.5113
▁tibet	-9.51133
▁sale	-9.51245
▁decline	-9.51274
▁hurt	-9.5129
▁song	-9.51455
▁criticism	-9.51829
▁baby	-9.51873
▁review	-9.52196
▁holiday	-9.5241
▁conflict	-9.52411
▁beginning	-9.52418
▁chang	-9.52463
▁fill	-9.52546
▁abbas	-9.52582
▁rich	-9.52863
rote	-9.52969
▁canno	-9.52971
▁leadership	-9.53038
▁aide	-9.53106
▁terroris	-9.5316
▁parliamentar	-9.53252
▁civilian	-9.53377
▁constitution	-9.53399
▁prize	-9.53528
▁custody	-9.53604
▁scandal	-9.53604
▁sides	-9.53619
▁save	-9.53647
▁factor	-9.53741
▁bak	-9.53866
▁changes	-9.53941
▁word	-9.54016
▁electric	-9.54082
▁impact	-9.54219
▁drink	-9.54221
▁herald	-9.54221
▁bin	-9.54294
▁intend	-9.54304
ia	-9.54311
▁regional	-9.54466
▁angel	-9.5452
▁suspects	-9.54619
▁critic	-9.54686
▁mosque	-9.54813
▁double	-9.54817
▁career	-9.55055
▁commercial	-9.55099
▁effect	-9.55233
▁opinion	-9.55422
▁corruption	-9.55425
▁communication	-9.55427
▁combat	-9.55429
▁negotiator	-9.55437
▁reduce	-9.55448
▁pledge	-9.55781
▁regime	-9.55803
▁environment	-9.55816
▁georgia	-9.55847
▁language	-9.56036
▁everyone	-9.56086
▁author	-9.56125
▁fair	-9.56142
rt	-9.56157
up	-9.56188
▁micros	-9.56215
▁repeated	-9.56481
▁screen	-9.56536
tan	-9.56596
▁ball	-9.566
▁allies	-9.5671
▁fine	-9.56726
▁reason	-9.56866
▁forest	-9.56978
▁boost	-9.57173
▁panel	-9.57282
▁seats	-9.57359
ni	-9.57439
▁mo	-9.5762
▁score	-9.57639
▁buildings	-9.57652
ever	-9.57694
▁numbers	-9.57772
way	-9.57782
▁buil	-9.57807
▁territor	-9.57809
▁fresh	-9.579
▁failure	-9.579
▁climate	-9.57902
▁fifth	-9.57911
▁traffic	-9.58338
▁republic	-9.58431
▁brief	-9.58437
▁adopt	-9.58456
▁recover	-9.58496
▁complex	-9.58529
▁formal	-9.58592
▁myung	-9.58598
▁surprise	-9.58612
▁ko	-9.59013
▁associate	-9.59015
▁documents	-9.59175
▁bit	-9.59177
▁proposal	-9.59216
▁fish	-9.59355
▁traditional	-9.59391
▁da	-9.59519
ar	-9.59597
▁specific	-9.59776
▁assault	-9.59798
▁domestic	-9.59798
▁spanish	-9.59807
▁james	-9.59814
▁surgery	-9.5984
▁cho	-9.60416
▁difference	-9.6044
▁corp	-9.60497
▁package	-9.60505
▁sound	-9.60889
▁fac	-9.61024
▁figures	-9.61026
▁olympics	-9.61068
▁cash	-9.61101
▁bombing	-9.61222
▁ky	-9.61496
▁queen	-9.61632
▁hu	-9.61661
▁violent	-9.61734
▁nam	-9.61761
▁possibilit	-9.61763
▁option	-9.61801
▁wave	-9.61964
▁richard	-9.62015
▁owner	-9.62186
▁itself	-9.62241
▁hop	-9.62403
▁coach	-9.62414
▁route	-9.62426
▁penalt	-9.62438
▁tree	-9.62513
▁ba	-9.62558
▁events	-9.62861
▁recall	-9.63045
▁answer	-9.63056
▁mobile	-9.63079
▁jong	-9.63089
▁protection	-9.63128
▁miss	-9.63506
▁colombia	-9.63525
ory	-9.63633
▁withdraw	-9.63639
▁trigger	-9.63708
▁reveal	-9.63708
▁apple	-9.63711
▁shuttle	-9.63715
▁disaster	-9.63718
tp	-9.63877
▁created	-9.63883
▁addition	-9.64204
▁accuse	-9.64358
▁astronaut	-9.64374
▁quake	-9.64375
▁telephone	-9.64454
▁adviser	-9.64464
▁maker	-9.64524
▁tie	-9.6483
▁gates	-9.64831
▁measure	-9.64929
▁makes	-9.64957
▁propos	-9.64962
▁profit	-9.65046
▁supply	-9.65052
▁sleep	-9.65077
▁tests	-9.65106
▁necessary	-9.65134
▁carrie	-9.6516
▁holly	-9.65178
▁abe	-9.65216
▁self	-9.65298
▁sunni	-9.65398
▁describe	-9.65427
▁beach	-9.65447
▁premier	-9.65552
▁arab	-9.65688
▁improve	-9.6572
▁individual	-9.65721
▁correspondent	-9.65726
▁winter	-9.65746
▁powerful	-9.65768
▁francis	-9.6583
▁girls	-9.65978
▁amount	-9.66011
▁controll	-9.66117
▁headquarter	-9.66401
▁neighborhood	-9.66405
▁dangerous	-9.66413
▁agent	-9.66442
▁exist	-9.66456
▁cap	-9.66541
▁piece	-9.66543
▁shown	-9.66545
▁respond	-9.666
▁struggl	-9.66609
▁flights	-9.6667
▁replace	-9.66739
▁compar	-9.6674
▁stopped	-9.66792
▁football	-9.66809
da	-9.67062
▁magazine	-9.67086
▁ilbo	-9.67088
abe	-9.67106
▁loan	-9.67129
▁affect	-9.67243
▁touch	-9.67514
▁rocket	-9.67665
▁resolve	-9.67758
▁positive	-9.67776
▁behavior	-9.6778
▁mug	-9.67788
▁appearance	-9.67835
▁showing	-9.67887
ng	-9.68092
▁forecast	-9.68164
▁cold	-9.68186
▁kids	-9.68405
▁planet	-9.68462
▁else	-9.68481
▁deadline	-9.68488
▁page	-9.68611
▁arms	-9.68622
well	-9.68731
ur	-9.68746
▁arrive	-9.68785
▁affected	-9.69008
▁respect	-9.69154
▁confidence	-9.6917
▁felt	-9.69174
▁vow	-9.69185
▁advance	-9.69327
▁ongoing	-9.69369
▁words	-9.69427
▁trouble	-9.69487
▁secure	-9.69667
▁heat	-9.69761
▁overseas	-9.69874
▁pilot	-9.69885
▁location	-9.69901
▁referr	-9.69912
▁apartment	-9.69953
▁votes	-9.7009
▁fears	-9.70108
▁rank	-9.70128
ine	-9.70203
▁carri	-9.70316
▁perform	-9.70518
▁anniversar	-9.70583
▁sometime	-9.7074
▁activists	-9.70741
▁ht	-9.7097
▁mil	-9.71015
▁po	-9.71113
▁legislati	-9.71116
▁terms	-9.71174
▁wrong	-9.71288
▁brazil	-9.71291
▁crude	-9.71297
▁degree	-9.71297
▁solution	-9.71305
▁successful	-9.7131
ie	-9.71393
▁govern	-9.71996
▁straight	-9.72017
▁wa	-9.72143
▁riot	-9.72185
▁yang	-9.72217
town	-9.72278
▁learn	-9.72325
▁constitutional	-9.72334
▁winner	-9.72435
▁forc	-9.72494
▁abuse	-9.72598
responsibility	-9.72598
▁km	-9.72666
▁bear	-9.72723
▁below	-9.72772
▁style	-9.72777
▁choice	-9.72806
off	-9.72836
▁adult	-9.72986
▁bay	-9.73019
▁na	-9.73038
▁soldier	-9.73169
▁row	-9.73275
▁drugs	-9.73306
▁hurricane	-9.73471
▁christmas	-9.73471
▁display	-9.73472
▁assistant	-9.73474
▁controversial	-9.7348
▁id	-9.73487
▁reserve	-9.73542
▁joined	-9.73559
▁type	-9.73706
▁promis	-9.73856
lew	-9.73907
▁card	-9.7391
▁van	-9.73958
▁flu	-9.7398
▁supplie	-9.74032
▁birth	-9.74205
▁christophe	-9.74207
▁entire	-9.74207
▁regular	-9.74215
ong	-9.74356
▁propert	-9.74375
▁blow	-9.74403
▁bar	-9.74453
ist	-9.74504
▁bann	-9.7471
▁influence	-9.74749
▁model	-9.74766
▁blair	-9.74947
▁madrid	-9.74948
▁channel	-9.74949
▁famous	-9.74979
▁welcome	-9.74998
▁surrounding	-9.75035
▁collapse	-9.75042
▁cooperati	-9.75105
▁feature	-9.75198
▁virus	-9.75274
▁victim	-9.75452
▁che	-9.75508
▁abu	-9.7561
▁highway	-9.75623
▁indicate	-9.75662
▁happy	-9.75694
▁resort	-9.75697
▁freedom	-9.757
▁mount	-9.7572
▁gone	-9.75799
▁decade	-9.76231
new	-9.76261
▁clean	-9.76294
▁su	-9.76305
▁pack	-9.7636
▁extreme	-9.76452
▁tech	-9.76512
▁true	-9.76551
▁tibetan	-9.76571
▁scor	-9.76587
▁throw	-9.76612
▁alone	-9.76673
ak	-9.76732
▁burma	-9.76859
ither	-9.76866
▁cancel	-9.769
▁transfer	-9.77005
▁kidnapped	-9.77018
▁treasur	-9.7713
▁olme	-9.77195
▁floor	-9.77205
▁spark	-9.7722
▁hair	-9.77229
▁cent	-9.77286
▁twic	-9.77417
▁door	-9.77503
▁auto	-9.77528
▁politic	-9.77593
▁christian	-9.77661
▁asp	-9.77749
▁male	-9.77769
▁lone	-9.77778
▁abandon	-9.77967
▁exile	-9.77985
▁charles	-9.78022
▁witnesses	-9.78073
nel	-9.78235
▁tough	-9.78299
▁ocean	-9.78319
▁singer	-9.78536
▁meters	-9.78659
▁el	-9.78685
▁competition	-9.78736
▁sudan	-9.78738
▁dream	-9.78743
▁festival	-9.78745
▁species	-9.78758
▁resignation	-9.78771
▁ali	-9.78865
▁activit	-9.78909
▁active	-9.78954
▁eye	-9.79162
▁nor	-9.79362
▁doctor	-9.79385
▁pound	-9.79405
▁names	-9.79474
▁jet	-9.79475
▁software	-9.79511
▁enem	-9.79513
▁recession	-9.79517
▁division	-9.79519
▁malik	-9.7953
▁trust	-9.79579
▁champions	-9.79631
▁producer	-9.79688
▁winds	-9.80105
ro	-9.80105
▁northeast	-9.80159
▁indicat	-9.80239
▁married	-9.80314
▁doubt	-9.80351
▁laws	-9.80493
▁et	-9.80566
▁gunm	-9.80628
ahoo	-9.80648
▁dis	-9.80674
▁qualit	-9.80742
overall	-9.80758
▁han	-9.80829
▁shar	-9.80905
▁studie	-9.80928
▁singapore	-9.80978
▁journal	-9.81054
▁hussein	-9.81079
▁pentagon	-9.81079
▁palace	-9.81081
▁heavi	-9.81086
▁art	-9.811
▁kick	-9.8113
▁hot	-9.81225
▁shari	-9.81326
▁dog	-9.81433
uters	-9.81587
is	-9.8168
▁zimbabwe	-9.81774
▁imposed	-9.81799
▁eventual	-9.81874
▁concert	-9.81876
▁gord	-9.81882
ium	-9.81883
▁beyon	-9.81929
▁prepared	-9.81978
▁reflect	-9.81986
▁determine	-9.82047
▁william	-9.82094
▁denie	-9.82197
▁kidnapping	-9.82308
▁remove	-9.82368
▁chi	-9.82524
▁currenc	-9.82674
den	-9.82686
ang	-9.8275
▁setting	-9.8279
▁pope	-9.82897
▁wild	-9.82928
▁gay	-9.83159
▁steve	-9.8326
▁williams	-9.83263
▁mine	-9.83356
▁shop	-9.83386
▁bombings	-9.83682
▁cast	-9.83871
▁syria	-9.83923
▁ma	-9.83959
atomic	-9.84074
▁surge	-9.84187
ian	-9.84223
▁ronald	-9.84293
▁survivor	-9.84305
▁effective	-9.84351
▁shift	-9.84396
id	-9.84424
▁photograph	-9.84475
▁demanding	-9.84538
▁tank	-9.84891
eastern	-9.84959
▁clashe	-9.85046
▁condoleez	-9.85112
▁relief	-9.85114
▁draft	-9.85114
▁kosov	-9.85116
▁demonstrator	-9.85125
▁commitment	-9.8513
▁declaration	-9.85145
▁scale	-9.85157
▁euro	-9.85163
▁halt	-9.85168
▁dark	-9.85176
▁prove	-9.85379
▁signal	-9.85468
▁fil	-9.85619
▁sub	-9.85701
▁consumers	-9.85718
▁capture	-9.85855
▁se	-9.85916
▁economist	-9.85939
▁crackdown	-9.85941
▁presen	-9.86025
▁culture	-9.86079
▁sense	-9.86147
▁serving	-9.8617
▁practice	-9.86209
▁earn	-9.86275
▁bomber	-9.86478
▁farmer	-9.86577
▁smoke	-9.86703
▁egypt	-9.86766
▁hall	-9.86769
▁implement	-9.86772
▁soviet	-9.86772
▁dialogue	-9.86772
▁various	-9.86773
▁portug	-9.86774
▁actress	-9.86775
▁withdrawal	-9.8686
▁foundation	-9.87014
▁whole	-9.87144
▁multi	-9.87186
▁flow	-9.8725
▁stem	-9.87344
▁foreigner	-9.87346
▁sports	-9.87492
▁witness	-9.87497
▁rush	-9.87511
▁roll	-9.87533
▁dress	-9.87647
▁connection	-9.87664
▁counter	-9.87702
▁losing	-9.87727
ification	-9.87775
▁tony	-9.87952
ner	-9.87953
▁works	-9.88053
▁via	-9.88143
▁alert	-9.88221
▁politicians	-9.88225
▁jew	-9.88256
▁mind	-9.8827
▁complain	-9.88305
▁zoo	-9.88381
▁picture	-9.88388
▁appoint	-9.88426
▁add	-9.88432
▁tournament	-9.8846
▁militia	-9.8846
▁religious	-9.88463
▁sector	-9.88469
▁violation	-9.88505
▁pictures	-9.88532
▁min	-9.88587
▁partner	-9.8868
▁seed	-9.88786
▁shock	-9.88818
▁martin	-9.88876
ham	-9.88914
▁trail	-9.8897
▁hole	-9.88972
▁guy	-9.88976
▁convention	-9.8901
▁deploy	-9.89283
▁defend	-9.89319
▁version	-9.89333
where	-9.89429
▁income	-9.89445
▁flame	-9.89457
▁ending	-9.89544
▁suffering	-9.8966
▁minor	-9.89674
▁waters	-9.89691
▁historic	-9.89729
▁traveling	-9.89758
▁determined	-9.89861
▁favor	-9.89875
▁escape	-9.89898
▁probe	-9.89964
▁academ	-9.90028
▁computers	-9.90098
▁delegation	-9.90177
▁unveil	-9.90177
▁kabul	-9.90177
▁beckham	-9.90177
▁ceo	-9.9019
▁meetings	-9.90287
▁broad	-9.90346
▁content	-9.90424
▁las	-9.90461
▁taxes	-9.90464
▁frank	-9.9048
▁bag	-9.9049
▁leg	-9.90638
▁ways	-9.90761
▁alcohol	-9.91026
▁danger	-9.91041
▁encourage	-9.91046
▁budget	-9.91051
▁medicine	-9.91064
▁reaction	-9.91078
▁speaker	-9.91141
▁spring	-9.9121
▁hear	-9.91212
zai	-9.91213
▁easi	-9.91217
▁wind	-9.91394
▁dut	-9.91597
▁spot	-9.91673
ship	-9.91728
▁extra	-9.91818
▁fraud	-9.91923
▁rapid	-9.91925
▁fellow	-9.91929
▁stone	-9.91936
▁diana	-9.91956
▁users	-9.92044
▁weight	-9.92069
▁apolog	-9.92155
▁hous	-9.92161
berg	-9.92306
la	-9.9242
▁rape	-9.92433
aks	-9.92433
▁table	-9.92572
▁isn	-9.92683
▁god	-9.92717
▁ranking	-9.92728
▁michigan	-9.92808
▁tehran	-9.92808
▁temperature	-9.92808
▁enjoy	-9.92809
▁saddam	-9.92809
▁register	-9.92839
▁standing	-9.92843
▁urani	-9.92847
▁sister	-9.92903
▁remov	-9.93088
▁contest	-9.93122
▁systems	-9.93133
▁torch	-9.93221
▁li	-9.9334
b	-9.93425
▁ring	-9.93458
▁items	-9.93485
▁slight	-9.935
▁arabia	-9.93534
ester	-9.93637
▁tens	-9.93651
▁kennedy	-9.93702
▁virtual	-9.93708
yone	-9.93734
▁stake	-9.93894
▁alive	-9.93941
▁collapsed	-9.94011
▁ho	-9.94061
▁seiz	-9.94115
▁basic	-9.94125
▁mile	-9.94154
▁stoo	-9.94258
▁fix	-9.94391
▁object	-9.94521
▁catholic	-9.94602
▁vietnam	-9.94602
▁simpson	-9.94603
▁unlike	-9.94619
▁gov	-9.94669
▁inspector	-9.94708
▁jur	-9.94748
▁demonstrations	-9.94807
▁sky	-9.95032
▁artist	-9.95137
▁tensions	-9.95232
▁enforce	-9.9524
▁southeast	-9.95299
▁wealth	-9.95413
▁ahmadi	-9.95439
▁box	-9.95506
▁ethnic	-9.95515
▁assistance	-9.95521
▁orbit	-9.95529
▁organizer	-9.95533
▁explosives	-9.95534
▁gar	-9.95559
▁generation	-9.95568
▁mad	-9.95569
▁climb	-9.95584
▁wing	-9.95647
junta	-9.95668
▁lose	-9.9579
▁accepted	-9.95795
▁demanded	-9.958
▁cb	-9.95862
▁broken	-9.95915
▁ji	-9.95915
▁possibl	-9.96161
▁declare	-9.96197
▁joong	-9.96212
▁fled	-9.96229
▁decide	-9.96239
▁pa	-9.96286
▁cuba	-9.96291
▁jose	-9.96362
▁file	-9.96393
suu	-9.96423
▁visa	-9.96432
▁troop	-9.96432
▁liver	-9.96433
▁championship	-9.96438
▁speculation	-9.96445
▁machine	-9.96498
▁sadr	-9.96508
▁pounds	-9.96569
▁arizo	-9.96833
ter	-9.97067
▁chose	-9.97087
▁kenya	-9.97173
▁spend	-9.9719
▁exact	-9.97355
▁stadium	-9.97355
▁nicola	-9.97355
▁islamabad	-9.97355
▁enrich	-9.97356
▁regulation	-9.97361
▁vegas	-9.97373
▁massa	-9.97435
▁ten	-9.97559
▁cruise	-9.97846
▁edge	-9.97914
j	-9.97957
▁takes	-9.98053
▁stars	-9.98184
▁remote	-9.98289
chuse	-9.98294
▁debt	-9.98356
▁physical	-9.98372
▁complaint	-9.98464
▁traveler	-9.98487
▁warming	-9.98513
▁license	-9.98543
▁equal	-9.98636
▁cia	-9.98685
▁ensure	-9.98844
▁statu	-9.98969
▁photos	-9.98979
▁obtain	-9.99232
▁jerusalem	-9.99232
▁purpose	-9.99233
▁rallie	-9.99235
▁sa	-9.993
▁googl	-9.99322
ado	-9.99325
ea	-9.99413
▁agre	-9.99503
ribal	-9.99622
▁net	-9.99634
tts	-9.99728
▁motor	-9.99733
▁thanks	-9.9978
▁di	-9.99793
▁continu	-9.99808
▁lad	-10.0003
▁pain	-10.0003
cient	-10.0016
▁trillion	-10.0018
▁equipment	-10.0019
▁crucial	-10.0019
▁oppos	-10.0019
▁putt	-10.0021
▁commissioner	-10.0053
▁oscar	-10.0078
at	-10.008
▁weapon	-10.008
▁relative	-10.0081
▁surface	-10.0082
▁spear	-10.011
▁blam	-10.011
▁narrow	-10.0115
▁invite	-10.0115
▁task	-10.0115
▁globe	-10.0115
▁wake	-10.0116
▁iowa	-10.0117
▁jung	-10.0118
▁celebrit	-10.012
back	-10.0124
▁violat	-10.0152
▁spy	-10.0153
▁tape	-10.0162
▁era	-10.0162
▁plot	-10.0164
ier	-10.0187
▁promote	-10.0204
▁perfect	-10.0213
▁warrant	-10.0213
▁bailout	-10.0214
▁tons	-10.0217
▁leak	-10.0238
▁representatives	-10.0244
▁organiz	-10.0246
▁evacuated	-10.0246
▁dan	-10.0254
haps	-10.0264
ily	-10.0269
▁anger	-10.027
western	-10.0271
▁modern	-10.0273
▁audience	-10.0278
▁detail	-10.0281
▁angr	-10.0297
▁jan	-10.0298
▁fed	-10.0301
▁gang	-10.0302
▁declin	-10.0303
▁exercise	-10.0304
▁mahmoud	-10.031
▁subject	-10.031
▁estate	-10.0311
▁carbon	-10.0312
▁strengthen	-10.0314
▁stress	-10.0323
▁founder	-10.0332
▁samsun	-10.0336
▁discovery	-10.0341
▁dismissed	-10.0352
▁band	-10.036
▁brand	-10.0374
▁ei	-10.0395
▁tonight	-10.0408
▁guarantee	-10.0409
▁invasion	-10.0409
▁magnitude	-10.0409
▁closer	-10.041
▁nevada	-10.041
▁internal	-10.0411
▁guest	-10.0411
▁professional	-10.0413
▁mike	-10.0414
▁calm	-10.0414
▁dutch	-10.0414
▁rough	-10.0415
▁runner	-10.0415
▁boycott	-10.0419
▁writer	-10.0426
▁expand	-10.0457
▁charg	-10.0461
▁stall	-10.0463
ack	-10.0464
▁handed	-10.0495
▁aware	-10.0504
▁wi	-10.0508
▁agricultur	-10.0509
▁detention	-10.0509
▁fashion	-10.0509
▁daniel	-10.051
▁jackson	-10.051
▁nobel	-10.0512
▁wolf	-10.0513
▁santa	-10.0521
▁transition	-10.0525
broad	-10.0544
corporate	-10.0554
▁wor	-10.0563
▁provinc	-10.0572
▁smok	-10.0575
▁electronic	-10.059
▁nepal	-10.0592
mer	-10.0603
▁attract	-10.0607
itarian	-10.0609
▁memorial	-10.061
▁offensive	-10.061
▁suburb	-10.061
▁temporar	-10.061
▁colleague	-10.061
▁lawsuit	-10.061
▁relay	-10.0611
▁assassination	-10.0611
▁windows	-10.0612
▁tight	-10.0613
▁restriction	-10.0615
▁dogs	-10.0618
▁arrival	-10.0624
▁liberal	-10.0644
▁phones	-10.0663
▁meant	-10.0665
▁patrol	-10.0676
▁urge	-10.0688
▁champion	-10.0695
surance	-10.0697
▁reporter	-10.0705
▁identify	-10.0712
▁sheriff	-10.0712
▁reduction	-10.0712
▁louis	-10.0712
▁monk	-10.0714
▁wonder	-10.0715
▁estimat	-10.0749
▁path	-10.0764
▁agenci	-10.0788
▁pair	-10.0797
▁alaska	-10.0798
▁strategy	-10.0815
▁suspicion	-10.0815
▁advantage	-10.0815
▁counterpart	-10.0815
▁dubai	-10.0815
▁remember	-10.0816
▁babies	-10.0817
▁canad	-10.0817
▁batter	-10.0818
▁worrie	-10.0827
▁visiting	-10.0843
▁colombian	-10.0844
ized	-10.0856
▁yes	-10.0866
▁ang	-10.0879
▁projects	-10.0882
▁maca	-10.0898
▁dub	-10.0911
▁permanent	-10.0919
▁berlin	-10.0921
▁casualties	-10.0922
▁manch	-10.0925
▁lake	-10.0926
▁presiden	-10.0929
▁diplomats	-10.0933
▁choose	-10.0936
field	-10.0937
▁reasons	-10.0941
▁sport	-10.0952
pool	-10.0962
ant	-10.0968
▁investigate	-10.098
▁ease	-10.0983
▁offering	-10.0999
▁tom	-10.1011
ified	-10.1014
▁example	-10.1014
▁coup	-10.1016
▁mix	-10.1023
▁sudden	-10.1024
▁kingdom	-10.1025
▁haven	-10.1027
▁aboard	-10.1034
▁argu	-10.1052
▁relatives	-10.1063
night	-10.1067
▁forum	-10.1076
▁lady	-10.1079
un	-10.1108
▁ray	-10.1111
▁venezuela	-10.1112
▁freed	-10.1116
ical	-10.113
▁anonymity	-10.1131
▁veteran	-10.1131
▁diego	-10.1131
▁exit	-10.1132
▁auction	-10.1134
▁teenager	-10.1139
▁sydn	-10.1142
▁books	-10.1145
▁mohamm	-10.1145
▁none	-10.1148
▁princess	-10.1157
▁die	-10.1175
▁catch	-10.1181
ani	-10.1189
▁theater	-10.1195
gun	-10.1197
▁threats	-10.1214
▁favorite	-10.1237
▁technical	-10.1238
▁nadal	-10.1238
▁entertainment	-10.1239
▁tiger	-10.1239
▁passenger	-10.1239
▁buri	-10.124
▁split	-10.124
▁hilton	-10.1241
▁chen	-10.1245
▁recovery	-10.1245
oline	-10.125
▁johnson	-10.1252
▁lay	-10.1253
▁simple	-10.1255
▁document	-10.1258
▁worse	-10.1259
▁label	-10.1266
ll	-10.1267
▁fa	-10.1281
▁strain	-10.1283
spread	-10.1286
▁dong	-10.1293
▁inc	-10.1311
▁struggle	-10.1314
▁rome	-10.1315
▁fata	-10.1332
▁harm	-10.1332
▁feder	-10.1347
▁tomorrow	-10.1347
▁ukrain	-10.1347
▁froze	-10.1348
▁destruction	-10.1349
▁manag	-10.1351
▁sw	-10.1351
▁landing	-10.1362
▁easy	-10.137
▁warm	-10.137
▁tear	-10.1378
ma	-10.1388
dna	-10.139
▁wood	-10.1414
▁con	-10.1415
▁creat	-10.1417
ization	-10.1452
▁compound	-10.1457
▁soccer	-10.1457
▁cleric	-10.1457
▁negative	-10.1457
▁fit	-10.1457
▁delta	-10.1457
▁atmospher	-10.1457
▁potter	-10.1458
▁cutting	-10.1461
▁shortage	-10.1465
▁basi	-10.1499
dai	-10.1509
▁purchase	-10.1514
▁benefits	-10.1519
ju	-10.154
▁roads	-10.1559
▁debut	-10.1568
▁agenda	-10.1568
▁emission	-10.1568
▁canadian	-10.1569
▁simply	-10.1569
▁mention	-10.157
▁en	-10.1574
▁renew	-10.1578
▁lowest	-10.158
▁sh	-10.1597
ground	-10.1611
▁resources	-10.1619
▁movies	-10.1625
▁engine	-10.163
▁refuse	-10.1635
▁suit	-10.1638
▁polic	-10.165
▁prepar	-10.1658
rew	-10.1659
▁malaysia	-10.1662
▁strip	-10.1673
▁detect	-10.1674
▁erupt	-10.1676
▁x	-10.1677
▁explod	-10.168
▁thomas	-10.168
▁shelter	-10.168
▁conspirac	-10.1681
▁gap	-10.1683
▁expectation	-10.1688
▁firefighter	-10.1697
▁profile	-10.1698
▁heading	-10.1699
▁devastat	-10.1707
▁guards	-10.1707
▁mr	-10.1716
▁percentage	-10.1719
▁trapped	-10.172
▁lt	-10.1724
ana	-10.173
▁pe	-10.1754
▁rang	-10.1761
▁kurdis	-10.1771
▁frequent	-10.1794
▁chelsea	-10.1794
yongbyon	-10.1794
▁bullet	-10.1794
▁element	-10.1795
▁valley	-10.1797
▁wen	-10.18
▁plus	-10.18
▁elder	-10.1801
▁chemical	-10.1803
▁woo	-10.1816
▁acknowledg	-10.1831
across	-10.184
▁manufactur	-10.184
▁cultur	-10.1841
▁unclea	-10.1847
▁sit	-10.1854
▁indiana	-10.1867
im	-10.1875
imed	-10.1885
ersey	-10.1898
▁improv	-10.1903
ability	-10.1906
▁recruit	-10.1908
▁nature	-10.191
▁mars	-10.1913
▁section	-10.1913
▁payment	-10.1924
▁issu	-10.1924
ional	-10.1927
▁eyes	-10.193
▁vessel	-10.1932
▁ticket	-10.1932
▁expert	-10.1933
▁institution	-10.1951
as	-10.1958
▁youth	-10.1964
▁rescuer	-10.198
▁locat	-10.2008
▁bureau	-10.201
▁pop	-10.2018
▁assets	-10.2024
▁unusual	-10.2025
▁diamond	-10.2026
▁writing	-10.2033
▁heads	-10.2041
▁sort	-10.2043
enko	-10.2046
▁album	-10.2049
▁ride	-10.2051
▁bone	-10.2056
▁identit	-10.2074
▁apologize	-10.2078
ican	-10.2078
▁closing	-10.208
▁rat	-10.2091
▁learned	-10.2094
▁pc	-10.2095
▁birds	-10.2111
▁proper	-10.2118
▁vi	-10.2139
▁disappoint	-10.214
▁bangkok	-10.2143
▁succeed	-10.2143
▁wedding	-10.2145
▁maryland	-10.2145
▁clinic	-10.2146
▁kang	-10.2148
▁khan	-10.2153
▁listen	-10.2165
arta	-10.2166
▁chair	-10.2171
▁observer	-10.2178
di	-10.2186
▁petr	-10.2204
▁landed	-10.2227
▁thank	-10.2238
it	-10.2253
▁disappear	-10.2261
▁preliminar	-10.2262
▁mccann	-10.2262
▁nominat	-10.2262
▁studio	-10.2262
▁bilateral	-10.2262
▁proud	-10.2262
▁abdullah	-10.2263
▁shrine	-10.2264
▁execution	-10.2265
▁hopeful	-10.2268
▁dramatic	-10.2271
▁pushing	-10.2278
▁plead	-10.2296
▁boe	-10.2296
▁ghaz	-10.2298
ten	-10.2301
▁homeland	-10.2301
▁crack	-10.2304
▁cool	-10.2307
▁toys	-10.2308
olar	-10.2315
▁divorce	-10.233
▁oppose	-10.2347
▁bird	-10.2367
▁surround	-10.2368
ina	-10.2372
▁controversy	-10.2382
▁tsunami	-10.2382
▁yellow	-10.2382
▁edition	-10.2384
▁gulf	-10.2384
▁hezb	-10.2385
▁chrys	-10.2387
▁boss	-10.2391
▁reduced	-10.2392
▁inflation	-10.2401
▁soar	-10.2406
▁fate	-10.2415
▁shoe	-10.2419
▁retir	-10.2427
▁jak	-10.2436
▁cheer	-10.2444
▁ha	-10.2453
mph	-10.2453
▁digital	-10.2462
▁knee	-10.2467
ville	-10.2469
▁ver	-10.2479
beth	-10.2486
▁collect	-10.2496
▁edwards	-10.2499
▁scot	-10.2501
▁hunt	-10.2502
▁darfur	-10.2504
▁error	-10.2504
▁mortgage	-10.2504
▁alternative	-10.2504
▁miami	-10.2504
▁radical	-10.2505
▁palin	-10.2507
▁prett	-10.252
▁joe	-10.2527
ious	-10.2531
▁opponents	-10.2536
▁marked	-10.2542
▁rail	-10.2547
▁outbreak	-10.255
▁teachers	-10.2558
▁sponsor	-10.2562
over	-10.2564
▁hung	-10.2564
▁reading	-10.2567
▁ia	-10.2568
▁goods	-10.2569
▁pace	-10.257
day	-10.2577
▁southwest	-10.2594
▁lama	-10.2617
▁entering	-10.262
▁campus	-10.2623
▁strength	-10.2623
▁journey	-10.2628
fare	-10.2628
▁method	-10.2628
▁ballot	-10.2628
▁assist	-10.2629
▁bottom	-10.263
▁coordinat	-10.2634
▁firing	-10.2638
▁clash	-10.2639
▁venezuelan	-10.2649
▁pet	-10.2664
▁restaurant	-10.2678
azir	-10.2691
▁ill	-10.2692
▁desert	-10.2747
▁guns	-10.2751
▁yonhap	-10.2753
▁convoy	-10.2753
▁youtube	-10.2753
▁sustain	-10.2753
▁sentenc	-10.2755
▁vat	-10.276
▁immigrat	-10.2766
▁gonzale	-10.2769
▁farm	-10.277
mi	-10.2771
▁belong	-10.2773
▁ro	-10.2773
▁bottle	-10.2775
▁approve	-10.2775
ches	-10.279
▁indonesian	-10.2793
▁drew	-10.2793
▁gains	-10.2794
▁ru	-10.2796
▁boom	-10.28
▁seal	-10.28
▁roman	-10.28
▁hospitaliz	-10.2806
▁benefit	-10.2808
▁corner	-10.281
body	-10.2811
▁sean	-10.2819
▁fatal	-10.2826
▁engag	-10.2828
ga	-10.2828
▁weak	-10.285
▁weigh	-10.2865
▁balance	-10.2871
▁select	-10.2878
▁client	-10.2879
▁captain	-10.2879
▁cloud	-10.2879
▁gallon	-10.2881
▁inspection	-10.2881
▁shopping	-10.2883
▁deployment	-10.2884
▁weaken	-10.2885
ay	-10.2889
employment	-10.2891
▁operate	-10.2895
▁pose	-10.2905
▁effects	-10.2917
erson	-10.2921
ford	-10.2934
▁electora	-10.2936
▁gathering	-10.294
▁waste	-10.2946
▁zealand	-10.2949
▁notice	-10.2949
▁tim	-10.295
llah	-10.2953
ept	-10.2978
▁predicted	-10.2978
▁alexand	-10.2991
▁northwest	-10.2991
▁ally	-10.2994
arah	-10.2996
▁shape	-10.2996
▁falling	-10.2998
▁invest	-10.3001
▁convince	-10.3008
▁girlfriend	-10.3008
▁vacation	-10.3008
madeleine	-10.3008
▁truth	-10.3008
▁tall	-10.3012
▁innocent	-10.3012
hai	-10.3018
▁osam	-10.3024
▁afford	-10.3028
▁grave	-10.3061
▁restore	-10.3064
▁delivery	-10.3066
▁beating	-10.3073
▁metal	-10.308
▁yoo	-10.3081
▁participate	-10.3083
▁lock	-10.3083
▁charit	-10.31
▁stores	-10.3109
▁handl	-10.3112
▁col	-10.3113
upper	-10.3123
▁holy	-10.3124
ling	-10.3127
▁affiliate	-10.3133
▁landslide	-10.3137
▁boston	-10.3138
▁drove	-10.3138
▁initiative	-10.3138
▁pump	-10.3138
▁corporation	-10.3138
▁jesu	-10.314
▁je	-10.3149
▁stability	-10.315
ural	-10.3151
▁oh	-10.3154
▁rockets	-10.3159
▁chain	-10.316
▁nas	-10.3164
▁scott	-10.3166
ta	-10.3176
agan	-10.3188
▁dealing	-10.3196
▁argentin	-10.32
down	-10.3201
▁dala	-10.3207
▁meaning	-10.3207
water	-10.3208
work	-10.3227
bility	-10.3252
aid	-10.3254
▁length	-10.3264
▁im	-10.3266
▁knowledge	-10.3269
▁prospect	-10.3269
▁grew	-10.3273
▁yard	-10.3273
▁defendant	-10.3274
▁palm	-10.3282
▁islamist	-10.3282
▁acre	-10.3298
▁string	-10.33
▁cable	-10.331
▁structure	-10.3314
▁failing	-10.3319
▁younger	-10.3337
▁teacher	-10.3352
▁formed	-10.3353
▁ka	-10.3354
▁carrier	-10.3358
iya	-10.3374
▁planes	-10.338
▁participat	-10.3381
▁flee	-10.3392
▁survived	-10.3396
▁experiment	-10.3399
▁wildlife	-10.3402
▁ultimate	-10.3403
▁accord	-10.3404
▁temple	-10.3404
▁vast	-10.3405
▁dump	-10.3407
▁atlantic	-10.341
▁fox	-10.3413
▁bright	-10.3415
aeus	-10.3422
▁bound	-10.343
▁friendly	-10.343
ehud	-10.3432
▁kurd	-10.3436
▁mayb	-10.3443
▁battl	-10.3444
▁barr	-10.3458
▁divers	-10.3471
▁tradition	-10.3483
▁comfort	-10.3488
ick	-10.3514
▁write	-10.3526
▁abduct	-10.3527
▁vladimir	-10.3527
▁connect	-10.3536
▁typical	-10.3539
▁collection	-10.3544
▁ye	-10.355
▁peru	-10.3557
▁achieve	-10.3562
▁requir	-10.3567
ez	-10.3579
▁excit	-10.3586
ence	-10.3586
▁har	-10.3592
▁gore	-10.3594
▁tire	-10.3598
▁margin	-10.3602
▁damag	-10.3611
▁pirates	-10.3627
▁celebrate	-10.3635
▁detonat	-10.3635
▁sensitiv	-10.3646
▁warnings	-10.3661
▁barcelon	-10.3674
▁pregnant	-10.3674
▁delhi	-10.3675
▁michel	-10.3675
▁eliza	-10.3675
▁plastic	-10.3675
▁conversation	-10.3675
▁numer	-10.3676
▁lab	-10.3677
ger	-10.3684
▁stan	-10.369
▁mate	-10.3702
bed	-10.3703
▁kerr	-10.3705
▁islands	-10.3719
▁mur	-10.3736
▁restaurants	-10.3757
▁flag	-10.3759
▁lie	-10.376
▁representative	-10.3768
▁responded	-10.377
▁symbol	-10.3776
▁beef	-10.3781
▁bond	-10.3783
▁clon	-10.3787
▁direction	-10.379
▁serbia	-10.3795
▁ga	-10.3801
▁provinces	-10.3804
ne	-10.3806
▁restrict	-10.3807
▁drama	-10.3809
▁abdul	-10.3813
▁settle	-10.3813
▁superdelegate	-10.3813
▁endanger	-10.3813
▁jordan	-10.3814
▁birthday	-10.3814
▁memory	-10.3815
▁squad	-10.3816
▁neck	-10.3816
ejad	-10.3822
▁briefing	-10.3834
▁shang	-10.3842
▁negotiat	-10.3843
▁pledg	-10.3872
▁philippines	-10.3873
▁stretch	-10.3876
▁wish	-10.3881
▁conclude	-10.3887
▁skin	-10.3894
▁recommend	-10.3906
▁acknowledge	-10.3909
han	-10.3911
▁pursu	-10.3927
itting	-10.3929
baki	-10.3949
evin	-10.3949
▁tru	-10.395
▁participant	-10.3954
▁sovereign	-10.3954
▁surrender	-10.3954
▁routine	-10.3954
▁buddhist	-10.3955
▁brazilian	-10.3955
▁stole	-10.3956
▁illness	-10.3956
▁punishment	-10.3957
▁federation	-10.3957
▁peacekeep	-10.3963
▁advertis	-10.3965
▁character	-10.3975
chuan	-10.3979
▁wins	-10.399
▁stories	-10.3991
▁feeling	-10.4004
▁note	-10.4006
▁runway	-10.4013
▁trains	-10.402
▁jim	-10.4028
▁par	-10.4042
▁crop	-10.4043
▁print	-10.4043
▁maxim	-10.4053
ny	-10.406
▁highlight	-10.4062
▁glass	-10.4075
▁unity	-10.4078
▁promot	-10.408
▁moderate	-10.4091
▁hampshire	-10.4097
▁hawaii	-10.4097
▁airstrike	-10.4097
▁arsenal	-10.4098
▁sample	-10.4098
▁sailor	-10.4099
▁mental	-10.4103
▁abc	-10.4104
▁bowl	-10.4105
daq	-10.411
▁veto	-10.4111
▁solve	-10.4111
▁publicly	-10.4123
▁bi	-10.4123
kk	-10.4126
▁celebrat	-10.4133
▁wage	-10.4162
▁rom	-10.4176
▁farc	-10.4179
▁torture	-10.4179
▁divide	-10.4189
▁brutal	-10.42
▁photographer	-10.4209
▁demonstration	-10.421
▁obvious	-10.4242
▁watchdog	-10.4242
▁strict	-10.4242
▁revolutionar	-10.4243
▁shirt	-10.4244
▁distance	-10.4245
▁peak	-10.4246
▁successor	-10.4246
▁appointment	-10.4247
▁morgan	-10.4254
▁accusation	-10.4255
▁authoriz	-10.4262
▁pos	-10.4266
▁introduce	-10.4266
ren	-10.4269
▁kenyan	-10.4271
▁undergo	-10.4275
▁tool	-10.429
▁bell	-10.4293
▁metropoli	-10.4298
▁humans	-10.43
go	-10.4301
▁striker	-10.4306
ha	-10.4316
▁somali	-10.4323
▁nei	-10.433
▁contests	-10.4335
▁uh	-10.4339
▁featur	-10.4339
▁commit	-10.4354
hattan	-10.4369
▁worker	-10.4375
▁cease	-10.4389
▁scientific	-10.4389
▁capacity	-10.4391
▁midnight	-10.4391
▁expensive	-10.4393
▁regulator	-10.4394
▁fortune	-10.4394
▁shark	-10.4397
▁text	-10.44
▁comedy	-10.4407
▁messages	-10.4424
▁rod	-10.4425
rey	-10.4428
▁polici	-10.4438
▁corps	-10.4444
▁v	-10.4446
pped	-10.4453
▁photo	-10.4485
▁argue	-10.4496
▁eating	-10.4519
witz	-10.4523
lor	-10.4534
▁bob	-10.4534
▁shoot	-10.4536
erry	-10.4536
▁editor	-10.4538
▁wreck	-10.4538
▁dispatch	-10.4538
▁venue	-10.4538
▁surveill	-10.4538
▁blago	-10.4538
▁jack	-10.4539
▁cyclone	-10.4539
▁egyptian	-10.4539
▁columbia	-10.454
▁genetic	-10.454
▁ordinar	-10.454
▁everybody	-10.4541
▁urban	-10.4542
▁switch	-10.4545
▁stimul	-10.455
▁chile	-10.4558
▁powers	-10.4559
▁handle	-10.456
▁dick	-10.4561
ippi	-10.4565
owitz	-10.4565
▁pursue	-10.4567
▁lung	-10.4571
▁transferr	-10.4578
▁inquir	-10.4616
ca	-10.4622
▁zar	-10.4625
▁caucuse	-10.4632
▁explain	-10.4644
▁hiv	-10.4646
▁aids	-10.4646
▁cloth	-10.4653
▁diplomat	-10.4662
▁stressed	-10.4674
▁emerged	-10.4675
▁moham	-10.4676
▁react	-10.4685
▁hospitals	-10.4686
▁whal	-10.4689
▁spirit	-10.469
▁coffee	-10.469
▁funeral	-10.469
▁dinner	-10.469
▁harsh	-10.469
▁ne	-10.4691
▁hwan	-10.4693
▁bitter	-10.4693
▁fta	-10.4694
▁congo	-10.4695
▁civi	-10.4696
▁native	-10.4698
▁mississ	-10.4698
▁intense	-10.47
▁operator	-10.4701
▁circumstances	-10.4713
▁deny	-10.4727
▁gree	-10.4737
▁views	-10.474
▁accounts	-10.475
▁saving	-10.4756
armament	-10.4758
iana	-10.4758
▁gmt	-10.4768
▁televis	-10.4768
▁loh	-10.4773
tiny	-10.4808
▁disable	-10.4813
▁teen	-10.4813
▁depend	-10.4823
▁knock	-10.4828
▁citizen	-10.4829
▁jane	-10.4841
▁steven	-10.4841
▁mexican	-10.4844
▁multiple	-10.4844
▁crown	-10.4845
▁supposed	-10.4845
▁prepare	-10.4848
▁indication	-10.4853
▁debri	-10.4858
▁entry	-10.4863
▁sick	-10.4864
▁ca	-10.487
▁mouth	-10.4873
▁commerc	-10.4874
▁henr	-10.488
sumption	-10.4881
ities	-10.4896
▁eat	-10.4902
▁ski	-10.4906
har	-10.491
▁survive	-10.4911
▁compete	-10.4922
▁willing	-10.4923
▁maj	-10.493
▁earning	-10.4938
▁lights	-10.4948
tah	-10.4973
ei	-10.4981
evich	-10.499
▁realize	-10.4994
▁breakthrough	-10.5
▁quiet	-10.5
▁false	-10.5
▁impeach	-10.5
▁dvd	-10.5001
▁barrier	-10.5002
▁rumor	-10.5005
▁castro	-10.5006
▁bail	-10.501
▁cafe	-10.501
▁vital	-10.5011
▁bombers	-10.5014
▁fun	-10.5019
▁musical	-10.5031
▁owners	-10.5033
ular	-10.5039
▁appropriate	-10.5056
light	-10.5071
▁conclud	-10.5076
▁chun	-10.5082
▁recognize	-10.5101
▁rescued	-10.5111
chi	-10.5113
more	-10.5115
▁gul	-10.5122
erland	-10.5129
▁du	-10.5146
▁blaze	-10.5152
▁explosive	-10.5155
▁window	-10.5155
▁disney	-10.5158
▁occupation	-10.5159
▁benedict	-10.5159
▁testimon	-10.5159
▁swiss	-10.5159
▁concrete	-10.5159
▁punish	-10.516
▁chart	-10.5162
▁preparation	-10.5163
no	-10.5165
▁gross	-10.5165
▁ta	-10.5167
▁frame	-10.5172
ch	-10.5183
▁hub	-10.5219
▁engage	-10.522
▁cave	-10.5221
▁diet	-10.5246
▁matche	-10.5249
▁historical	-10.5249
▁guide	-10.525
wise	-10.5257
▁hail	-10.5259
▁broadcaster	-10.5268
▁negotiate	-10.5274
▁consult	-10.528
▁sch	-10.5295
▁marks	-10.5304
▁conservation	-10.5317
▁confident	-10.5319
▁faith	-10.5319
▁tobacco	-10.532
▁verdict	-10.532
▁benchmark	-10.532
▁phoeni	-10.532
▁conclusion	-10.532
▁shareholder	-10.532
▁repair	-10.5321
▁amnes	-10.5322
▁fierce	-10.5322
▁apply	-10.5323
luton	-10.5323
▁pitt	-10.5329
▁apart	-10.5334
▁continent	-10.5336
▁correct	-10.5336
▁floods	-10.5338
▁chong	-10.5357
▁unknown	-10.5362
▁patric	-10.5364
▁bull	-10.5375
▁responsibilit	-10.5377
▁chest	-10.5406
▁fay	-10.5423
▁believ	-10.5431
confirmed	-10.5437
▁liter	-10.5442
▁yi	-10.5443
ota	-10.5443
▁ire	-10.5448
▁bigge	-10.545
▁sam	-10.5478
▁disrupt	-10.5479
▁parent	-10.5482
eath	-10.5483
▁category	-10.5484
▁joseph	-10.5484
▁boyfriend	-10.5484
▁await	-10.5484
▁motion	-10.5485
▁ti	-10.5487
▁careful	-10.5489
put	-10.5489
▁odd	-10.5491
▁brad	-10.5498
▁socialist	-10.5503
▁pitch	-10.5505
▁ge	-10.5512
▁paint	-10.5512
▁communit	-10.5527
▁overwhelming	-10.5528
▁twin	-10.5545
ah	-10.5548
▁somalia	-10.5558
▁kyo	-10.5568
▁jon	-10.5603
▁cd	-10.5613
▁partners	-10.5616
▁fat	-10.562
rs	-10.5629
▁classic	-10.563
▁austria	-10.5632
▁slipp	-10.5633
▁unfortunate	-10.5651
▁czech	-10.5651
▁striking	-10.5651
▁reconciliation	-10.5651
▁clark	-10.5651
▁uniform	-10.5651
▁stern	-10.5651
▁sheikh	-10.5652
▁sweep	-10.5652
▁cargo	-10.5655
▁resolv	-10.5661
▁specialist	-10.5662
▁rebuild	-10.5668
▁substantial	-10.5668
▁infect	-10.5675
▁hero	-10.5676
▁copy	-10.568
▁carlo	-10.5683
▁jin	-10.5684
efa	-10.5697
▁praise	-10.5698
▁chris	-10.57
▁toxic	-10.5711
▁chad	-10.572
am	-10.5721
▁retail	-10.5731
▁sad	-10.5735
▁villager	-10.574
▁mary	-10.5757
▁abus	-10.5757
▁stephen	-10.5768
▁wel	-10.5772
▁rep	-10.5781
hood	-10.5783
▁aren	-10.5786
▁steel	-10.5791
▁tackle	-10.5794
▁regions	-10.5805
▁grant	-10.5812
pending	-10.5817
▁laptop	-10.582
▁tennesse	-10.582
▁transaction	-10.582
▁mccorm	-10.582
▁legend	-10.582
▁typhoon	-10.582
▁petition	-10.5821
▁slave	-10.5827
▁yong	-10.5831
▁railway	-10.5835
▁reference	-10.5836
▁captur	-10.5838
▁medal	-10.5839
▁tend	-10.5842
▁variet	-10.5846
▁custom	-10.5848
▁trader	-10.5848
▁ar	-10.5852
▁beaut	-10.5852
▁familiar	-10.5861
▁antoni	-10.5861
▁graduate	-10.5869
▁bolt	-10.587
▁prayer	-10.5885
▁shipp	-10.5887
ting	-10.5895
▁camps	-10.5898
▁outrage	-10.5926
▁complet	-10.5928
▁sung	-10.5928
house	-10.5929
▁copie	-10.593
ent	-10.5939
▁convert	-10.5942
▁fires	-10.5948
bus	-10.5949
▁hug	-10.596
▁hat	-10.5965
▁scar	-10.5968
▁mourn	-10.5982
▁stands	-10.5984
▁seconds	-10.5986
▁priva	-10.5992
▁platform	-10.5992
▁administrative	-10.5992
▁referendum	-10.5992
▁departure	-10.5992
▁compensation	-10.5993
▁crush	-10.5993
▁separatist	-10.5993
▁relocation	-10.5993
▁mistake	-10.5996
▁sweet	-10.6001
stance	-10.6008
▁buyer	-10.6011
▁absolutely	-10.6011
mumba	-10.6013
▁household	-10.6016
▁sri	-10.602
▁kent	-10.6021
▁wine	-10.6027
▁cuban	-10.6032
▁larr	-10.6038
▁seize	-10.604
tv	-10.604
▁thinking	-10.6041
▁pr	-10.605
▁jae	-10.6052
▁shore	-10.6055
lin	-10.6057
▁kid	-10.6065
▁rd	-10.6067
▁cow	-10.607
▁attacker	-10.6071
▁miner	-10.6098
craft	-10.6103
▁sir	-10.6106
▁mal	-10.611
▁mar	-10.6128
▁jeff	-10.6128
▁painting	-10.6137
▁ryan	-10.6148
▁chao	-10.6152
ol	-10.6156
▁except	-10.6162
▁volcano	-10.6164
▁robot	-10.6166
▁secular	-10.6166
▁immigrant	-10.6168
▁aggressive	-10.6168
▁muscle	-10.6168
▁clock	-10.6168
▁sentiment	-10.6168
▁conviction	-10.6169
▁contrast	-10.6169
▁alarm	-10.617
erdog	-10.617
▁baseball	-10.6171
▁essential	-10.6172
▁shield	-10.6173
▁novel	-10.6173
▁float	-10.6175
▁zero	-10.6177
▁kate	-10.618
▁spott	-10.6185
▁propose	-10.6194
▁settlement	-10.6199
▁delegate	-10.62
▁paulo	-10.6205
▁counts	-10.6206
▁turnout	-10.6215
▁contribute	-10.6218
clusive	-10.6223
▁stable	-10.6223
▁bo	-10.6223
▁greet	-10.6235
▁inform	-10.6248
▁replac	-10.6251
▁athen	-10.6252
dp	-10.6261
▁oldest	-10.6266
court	-10.6276
▁golf	-10.6278
▁traffick	-10.6302
▁promotion	-10.6303
▁rio	-10.6305
▁depressi	-10.631
▁polar	-10.6312
▁alex	-10.6322
▁libya	-10.6328
▁employ	-10.6329
▁airports	-10.6331
lanta	-10.634
▁imprison	-10.6346
▁rifle	-10.6347
▁loyal	-10.6348
▁assessment	-10.6349
▁dust	-10.635
▁glacier	-10.6352
▁criticize	-10.6355
▁moore	-10.6363
▁sole	-10.6364
▁rafa	-10.6367
▁mel	-10.6372
▁submitt	-10.6377
▁wire	-10.6383
▁stepp	-10.6394
▁mis	-10.6398
▁dam	-10.6406
▁athletes	-10.641
zo	-10.6415
▁anticipat	-10.6419
▁hills	-10.6429
▁fame	-10.6444
▁restor	-10.6454
▁airway	-10.6454
▁meter	-10.6456
w	-10.6461
▁sand	-10.6462
▁inch	-10.6462
▁soil	-10.6467
▁lend	-10.6473
quo	-10.6476
▁generate	-10.6477
▁hang	-10.6483
▁pla	-10.6483
gi	-10.6514
▁priorit	-10.6519
▁classifie	-10.6524
▁lobby	-10.6528
▁qualify	-10.6528
▁caution	-10.6528
▁unrest	-10.6528
delphi	-10.6528
▁retain	-10.6528
▁laborator	-10.6528
▁tunnel	-10.6528
▁roger	-10.6529
▁donald	-10.6529
▁orange	-10.653
▁duck	-10.653
▁outcome	-10.653
▁slump	-10.6531
▁respective	-10.6531
▁timor	-10.6533
▁stroke	-10.6538
▁residence	-10.6539
oney	-10.6541
iri	-10.6541
▁hawk	-10.6548
▁solid	-10.6551
ada	-10.6553
▁teens	-10.6553
▁fleet	-10.6554
▁confrontation	-10.6554
▁tsv	-10.6561
▁electronics	-10.6565
▁doors	-10.6569
fp	-10.6571
▁employee	-10.6574
▁whale	-10.6574
▁root	-10.6576
nancy	-10.6586
▁robber	-10.6607
▁undermine	-10.6609
▁syrian	-10.6616
▁retailer	-10.6624
▁banner	-10.663
▁ousted	-10.6632
▁laugh	-10.6633
▁ignor	-10.6634
▁advi	-10.6634
▁phase	-10.6645
▁denounc	-10.6647
shore	-10.6657
▁pray	-10.6665
▁impose	-10.6668
▁hitt	-10.6673
▁gambar	-10.6682
▁organ	-10.6684
▁bangladesh	-10.6701
▁spill	-10.6708
▁si	-10.6711
▁chant	-10.6712
losi	-10.6712
▁dictator	-10.6713
▁detroit	-10.6713
▁guerrilla	-10.6713
▁capitol	-10.6713
▁embryo	-10.6713
▁darwin	-10.6714
▁hamid	-10.6714
▁checkpoint	-10.6714
▁abortion	-10.6714
▁mohammad	-10.6714
▁huck	-10.6714
▁strategic	-10.6714
▁flash	-10.6715
▁curb	-10.6715
▁gyeong	-10.6715
▁pattern	-10.6716
▁extraordinar	-10.6717
▁davis	-10.6717
▁roof	-10.6718
▁lea	-10.6723
▁freeze	-10.6725
▁concept	-10.6752
▁breach	-10.6755
▁revenue	-10.676
▁clothe	-10.6765
▁politician	-10.6766
▁murr	-10.6769
▁towns	-10.6773
be	-10.6789
▁securit	-10.6793
v	-10.6799
▁quote	-10.6829
▁extremists	-10.6831
▁brun	-10.6832
▁andrew	-10.6834
▁liquid	-10.6839
▁function	-10.6854
▁garden	-10.6856
tar	-10.6866
▁documentar	-10.6869
▁introduc	-10.6871
led	-10.6881
▁lanka	-10.6883
head	-10.6888
tion	-10.6899
▁netherlands	-10.6902
▁quarterfinal	-10.6902
▁technique	-10.6902
▁exposure	-10.6902
▁twenty	-10.6902
▁creature	-10.6902
▁orlean	-10.6902
▁summon	-10.6902
▁consequence	-10.6903
▁impossible	-10.6903
▁pat	-10.6903
▁greenhouse	-10.6903
▁seattle	-10.6903
▁map	-10.6904
▁wireless	-10.6905
▁efficient	-10.6906
▁dawn	-10.6908
▁missou	-10.6909
burgh	-10.6909
▁keb	-10.691
▁phila	-10.691
▁runoff	-10.691
▁portion	-10.692
stein	-10.6922
▁virgin	-10.6925
▁villa	-10.6938
▁volunteers	-10.6939
▁ja	-10.694
▁shell	-10.6948
▁jo	-10.695
▁mi	-10.6952
▁rac	-10.6953
▁trend	-10.6957
▁colon	-10.6958
▁worsen	-10.696
▁smash	-10.696
▁yo	-10.6961
▁wheel	-10.6972
cation	-10.6973
▁tension	-10.6975
▁giv	-10.6975
▁intention	-10.6976
▁pav	-10.6979
▁hunter	-10.6992
▁polan	-10.6999
▁bribe	-10.7003
▁ambush	-10.7024
ball	-10.703
▁soo	-10.7034
▁revive	-10.7042
ential	-10.7042
▁starr	-10.7045
▁mom	-10.7048
▁stick	-10.7052
▁manage	-10.7056
▁ok	-10.7062
▁submit	-10.7064
▁inspir	-10.7064
▁sang	-10.7067
▁newly	-10.7073
▁prior	-10.7079
▁beer	-10.7083
▁hybrid	-10.7094
▁minimum	-10.7094
▁giuli	-10.7094
▁swimming	-10.7094
▁wildfire	-10.7095
▁eve	-10.7095
▁substance	-10.7095
▁toilet	-10.7096
▁amendment	-10.7096
▁bankruptcy	-10.7098
▁panda	-10.7098
oil	-10.7105
mbled	-10.7106
▁centre	-10.7108
▁gate	-10.7108
▁rum	-10.7118
▁laid	-10.7123
▁homeless	-10.7127
▁offender	-10.7133
▁rudd	-10.7138
▁ir	-10.7139
▁scheme	-10.7146
▁mont	-10.7149
▁nice	-10.7164
▁core	-10.7164
▁attitude	-10.7174
ki	-10.7182
▁breath	-10.7183
▁warner	-10.7184
▁viewers	-10.7189
▁moral	-10.7199
board	-10.7207
▁upset	-10.7208
▁minorit	-10.7212
▁hunting	-10.7216
▁dean	-10.7219
irai	-10.7224
▁resist	-10.723
▁legs	-10.7235
▁whales	-10.7261
▁combin	-10.7263
▁please	-10.7265
▁whit	-10.7267
ated	-10.7268
▁revolution	-10.7272
nnan	-10.7277
▁kuwait	-10.7282
▁wal	-10.7286
▁counsel	-10.7286
▁plung	-10.729
▁voluntar	-10.729
▁merkel	-10.7291
▁testify	-10.7291
▁panama	-10.7291
▁inauguration	-10.7291
▁fulfill	-10.7291
▁stuff	-10.7292
▁evacuation	-10.7292
▁competitive	-10.7292
▁timetable	-10.7293
▁greek	-10.7293
▁coca	-10.7295
▁jungle	-10.7296
▁trick	-10.7297
▁del	-10.7297
▁celebration	-10.7298
▁gear	-10.7299
▁emotional	-10.7303
▁deadlie	-10.7306
▁dec	-10.7309
▁feed	-10.7315
▁fever	-10.7324
sfeld	-10.7331
▁feb	-10.7344
▁peer	-10.736
▁motors	-10.7367
▁fo	-10.7371
▁faction	-10.7371
rac	-10.7376
▁stag	-10.7382
▁compet	-10.7389
▁bu	-10.7399
▁disclose	-10.7409
ella	-10.7416
▁plate	-10.7421
identified	-10.7429
▁overcom	-10.7431
▁wrapp	-10.7433
▁amounts	-10.7441
▁escap	-10.7446
▁compromise	-10.7475
▁sons	-10.749
▁consecutive	-10.749
▁swift	-10.749
▁elephant	-10.7491
▁clinch	-10.7491
▁slam	-10.7491
▁aftershock	-10.7492
▁disappearance	-10.7493
▁launder	-10.7493
ze	-10.7495
▁serb	-10.7496
▁rodrigue	-10.7496
▁ioc	-10.7496
▁inquest	-10.7496
ok	-10.7498
▁shots	-10.7499
▁proof	-10.7499
▁yuan	-10.7503
▁influ	-10.7505
▁torn	-10.7509
▁leftist	-10.751
▁gray	-10.7512
▁simon	-10.7524
▁designer	-10.7535
▁gm	-10.7538
burg	-10.7544
▁investigations	-10.7545
▁attach	-10.7554
▁worry	-10.7559
▁divid	-10.7567
held	-10.7574
▁laho	-10.7581
▁winners	-10.7584
▁slamm	-10.7585
half	-10.7593
abee	-10.7599
▁defending	-10.7608
izu	-10.7613
▁rowl	-10.7613
▁albert	-10.7615
▁mall	-10.7618
▁dat	-10.7626
hdi	-10.7626
▁fin	-10.7646
opec	-10.7649
▁mandat	-10.7667
▁trained	-10.7672
▁tropica	-10.7678
▁flat	-10.7681
▁cleve	-10.7684
▁latin	-10.7685
▁industri	-10.7688
▁anchor	-10.769
▁infant	-10.7694
▁luxur	-10.7694
▁concession	-10.7695
▁encounter	-10.7695
▁enterprise	-10.7695
▁technologies	-10.7695
▁spiritual	-10.7695
▁cigarette	-10.7695
▁constant	-10.7695
▁offense	-10.7695
▁landmark	-10.7695
▁mortar	-10.7695
▁terminal	-10.7695
▁obligation	-10.7695
▁drill	-10.7696
▁hint	-10.7696
▁nak	-10.7696
▁colonial	-10.7696
▁reward	-10.77
▁arabic	-10.7701
▁meat	-10.7703
▁ambition	-10.7707
▁granted	-10.7716
▁icon	-10.7724
▁kansa	-10.7727
▁chole	-10.773
▁fi	-10.7745
▁cartoon	-10.7748
▁execut	-10.775
▁kyu	-10.7753
▁detainees	-10.7754
▁mor	-10.7758
▁euros	-10.7761
▁lion	-10.7765
▁eric	-10.7767
▁spa	-10.7805
que	-10.781
▁equit	-10.7814
east	-10.7816
▁regret	-10.783
▁indicted	-10.7832
standing	-10.7833
▁pointed	-10.7847
▁distribut	-10.7852
▁apologiz	-10.786
▁expos	-10.7862
▁iron	-10.7878
▁reduc	-10.7879
▁stead	-10.7881
istan	-10.7888
▁cheap	-10.7893
▁semifinal	-10.7901
ba	-10.7902
▁deficit	-10.7903
▁precaution	-10.7903
▁relax	-10.7903
▁chapter	-10.7903
▁blanket	-10.7903
▁admission	-10.7903
▁ballistic	-10.7904
▁barbara	-10.7904
▁suspicious	-10.7904
ron	-10.7904
▁houston	-10.7906
▁maria	-10.7909
▁turm	-10.791
▁desire	-10.7917
uri	-10.792
drew	-10.793
▁malaysian	-10.7937
▁bei	-10.794
▁shara	-10.7943
▁wales	-10.7945
▁shoulder	-10.7958
▁ron	-10.7962
▁sao	-10.7971
ov	-10.7972
▁flags	-10.7974
▁coal	-10.7989
▁burst	-10.7993
▁hir	-10.7996
iro	-10.8
▁employment	-10.8002
▁discover	-10.8007
▁decisions	-10.8007
▁isolat	-10.8008
sh	-10.8011
▁tale	-10.8015
▁bang	-10.8019
▁dad	-10.8021
▁capabilit	-10.8024
▁advisor	-10.8027
▁deliberate	-10.8034
fk	-10.8035
▁dominat	-10.8045
▁habitat	-10.8062
eva	-10.8068
▁vessels	-10.8074
▁mart	-10.8077
▁shi	-10.8087
▁dry	-10.809
▁yel	-10.8092
the	-10.8093
▁gu	-10.8093
▁mac	-10.8104
▁ni	-10.8105
▁confess	-10.8112
▁oklahoma	-10.8116
▁transplant	-10.8116
▁belief	-10.8116
▁migrant	-10.8116
▁expansion	-10.8116
▁salmon	-10.8116
▁tornado	-10.8116
▁pipeline	-10.8116
▁respondent	-10.8118
▁priest	-10.8119
▁insult	-10.8119
▁prominent	-10.8119
▁musician	-10.8124
ntao	-10.8126
▁spray	-10.8127
wright	-10.8128
▁occasion	-10.8128
▁thin	-10.813
▁locate	-10.8132
▁follower	-10.8134
▁pole	-10.8134
▁pun	-10.8137
▁pour	-10.8138
▁presumpti	-10.8138
arctic	-10.814
▁universal	-10.814
lum	-10.8145
▁instance	-10.8146
dc	-10.8153
▁welcom	-10.8171
▁dop	-10.8171
▁lo	-10.8176
▁bars	-10.8176
▁hasn	-10.8187
▁frontier	-10.8196
▁strand	-10.8207
▁drawing	-10.8208
ors	-10.8208
▁passport	-10.8221
▁canal	-10.8223
▁principle	-10.8225
▁uni	-10.8235
▁cards	-10.8235
rut	-10.8239
▁decid	-10.824
▁stepping	-10.824
long	-10.8244
▁sin	-10.8253
▁demonstrate	-10.8254
▁tay	-10.8257
▁cooper	-10.8257
▁holder	-10.826
▁inde	-10.826
▁reverse	-10.8263
▁berna	-10.8264
▁dominate	-10.8265
▁centur	-10.8268
precedent	-10.827
▁kath	-10.8274
▁tickets	-10.829
ko	-10.8292
▁woods	-10.8313
ehouse	-10.8319
▁prohibit	-10.8327
▁confront	-10.8329
▁ecuador	-10.8333
▁lewis	-10.8333
fer	-10.8334
▁vitamin	-10.8334
▁ibrahim	-10.8335
▁tragedy	-10.8335
▁medication	-10.8336
▁urgent	-10.8336
▁empty	-10.8338
▁load	-10.8344
▁background	-10.8346
▁loud	-10.8353
tsin	-10.8355
▁persuade	-10.8361
▁adam	-10.8379
▁proceedings	-10.8382
▁publication	-10.8384
▁masters	-10.8388
nke	-10.8389
▁ramo	-10.8394
▁escalat	-10.8398
do	-10.8403
▁cooperate	-10.8459
▁circle	-10.8461
▁libert	-10.8465
▁fake	-10.848
lated	-10.8481
ppp	-10.8483
▁oversee	-10.849
▁theft	-10.8515
▁dealers	-10.8533
lets	-10.8538
▁breed	-10.854
▁denucleariz	-10.8543
▁grab	-10.8543
▁sight	-10.8547
▁blog	-10.8549
▁wrap	-10.8549
▁yemen	-10.855
▁telecom	-10.8551
▁interpret	-10.8553
▁consensu	-10.8555
▁disorder	-10.8555
▁evolution	-10.8555
▁extensive	-10.8555
▁telescope	-10.8555
▁evil	-10.8555
▁definite	-10.8555
▁pepper	-10.8555
▁craig	-10.8555
▁instant	-10.8555
▁dissident	-10.8556
kovic	-10.8556
▁unfair	-10.8556
▁imagine	-10.8556
▁idol	-10.8556
▁kanda	-10.8557
iscons	-10.8557
▁tribute	-10.8558
bama	-10.8558
▁uncover	-10.8558
▁guideline	-10.8558
▁dragg	-10.856
▁chamber	-10.856
▁sweden	-10.8561
▁hide	-10.8562
▁insurgenc	-10.8563
▁amazon	-10.8563
▁replacement	-10.8566
▁grass	-10.8567
▁exhibit	-10.8574
▁ch	-10.8582
▁happening	-10.8594
ek	-10.8598
▁kitt	-10.86
▁personally	-10.8606
viation	-10.8607
▁lin	-10.8609
▁pool	-10.8616
ological	-10.862
▁characters	-10.8621
▁pm	-10.8631
▁ruler	-10.8638
line	-10.8643
et	-10.8646
▁geologic	-10.8648
▁lender	-10.8659
▁chan	-10.866
▁impo	-10.8664
▁secur	-10.8682
cia	-10.8683
▁philippine	-10.8685
sul	-10.8694
▁mon	-10.8712
▁permissi	-10.873
▁mountains	-10.8732
ison	-10.8735
▁thick	-10.8742
▁expire	-10.8746
▁philip	-10.8758
▁diploma	-10.8765
▁silence	-10.8769
ucky	-10.8775
ila	-10.8778
▁genocid	-10.8783
▁predecessor	-10.8783
▁religion	-10.8783
▁tabloid	-10.8783
▁unexpected	-10.8783
▁bargain	-10.8783
▁extension	-10.8783
▁autonom	-10.8783
▁destination	-10.8783
▁economies	-10.8783
▁entrance	-10.8783
▁overturn	-10.8783
▁exclusive	-10.8784
▁consistent	-10.8785
▁snake	-10.8786
ius	-10.8786
▁outlook	-10.8787
▁recommendation	-10.8787
▁legitimate	-10.8791
▁creation	-10.8792
her	-10.8794
▁gerr	-10.8798
▁ahmad	-10.8801
▁statue	-10.8803
▁milk	-10.8803
gt	-10.881
▁contractor	-10.8812
▁bloom	-10.8817
▁stream	-10.883
▁suggestion	-10.8831
▁z	-10.8837
▁visibl	-10.8846
▁endur	-10.8846
▁diya	-10.8846
▁plent	-10.8859
▁pan	-10.8863
▁models	-10.8866
▁proceed	-10.8871
▁primari	-10.8876
▁dropping	-10.8894
▁compare	-10.8895
▁marking	-10.8899
▁rodd	-10.8899
▁trace	-10.8928
▁rains	-10.8939
▁clip	-10.8941
▁tower	-10.8943
em	-10.8975
▁vien	-10.8976
▁ker	-10.8976
▁flower	-10.8978
▁transform	-10.899
▁occur	-10.8995
▁nin	-10.8995
▁nigeria	-10.8997
▁mer	-10.9
▁teenage	-10.9
verish	-10.9003
▁oct	-10.9005
▁ambulance	-10.9015
▁embarrass	-10.9015
▁tissue	-10.9015
▁volume	-10.9015
▁prosper	-10.9015
▁fault	-10.9015
▁jolie	-10.9015
▁suspension	-10.9016
▁steep	-10.9016
▁zawah	-10.9016
▁lord	-10.9016
▁download	-10.9016
▁exploit	-10.9017
▁partnership	-10.9017
▁possession	-10.9018
▁grace	-10.9018
▁resistance	-10.9019
▁rebound	-10.9019
▁contribution	-10.9019
▁pardon	-10.902
▁occupie	-10.902
▁emirate	-10.9021
▁bow	-10.9025
▁tho	-10.9025
▁jobless	-10.9027
▁crossing	-10.9028
▁gaz	-10.9029
▁grenade	-10.9035
▁galaxy	-10.9035
ament	-10.9043
▁hye	-10.9044
▁publisher	-10.9047
▁rent	-10.9061
▁sheet	-10.9075
▁universit	-10.9104
▁matters	-10.9116
me	-10.9116
▁nazi	-10.9123
▁riding	-10.9126
▁tomb	-10.913
▁examin	-10.9141
▁fred	-10.9147
▁brick	-10.9151
▁abduction	-10.9161
▁automaker	-10.9165
pol	-10.9166
▁recording	-10.9173
math	-10.9173
▁massacre	-10.9177
▁recognized	-10.9191
▁vision	-10.9193
▁touris	-10.9196
▁ala	-10.9211
▁predict	-10.9215
▁manufacturers	-10.9227
dev	-10.9229
▁polluti	-10.9232
▁yu	-10.9236
▁pilgrim	-10.9252
judicial	-10.9253
▁infrastructure	-10.9253
▁judiciar	-10.9253
▁skull	-10.9253
▁unacceptabl	-10.9253
▁videotape	-10.9253
▁vermont	-10.9253
▁maritime	-10.9254
▁registration	-10.9254
▁pyeong	-10.9254
▁katrin	-10.9255
▁interrogation	-10.9255
▁desperate	-10.9255
▁shutdown	-10.9255
▁statistical	-10.9255
▁burden	-10.9256
▁puert	-10.9257
▁everywhere	-10.926
▁brigade	-10.926
▁kyung	-10.9262
▁torre	-10.9267
▁airplane	-10.9268
▁charter	-10.9269
▁confirmation	-10.9275
▁pen	-10.9276
▁dirt	-10.9276
omar	-10.929
▁harv	-10.9292
▁melt	-10.9293
arachi	-10.93
ean	-10.9303
oding	-10.9307
▁qu	-10.9309
▁hwa	-10.9311
▁au	-10.9314
▁taxi	-10.9316
▁mu	-10.9316
sen	-10.9318
dari	-10.932
▁factors	-10.9325
harto	-10.9326
▁goalkeep	-10.9329
▁broker	-10.9347
▁guan	-10.9353
▁principles	-10.9374
▁cart	-10.9386
tada	-10.939
▁plays	-10.9391
▁richards	-10.9396
▁dismantl	-10.94
▁endors	-10.9401
▁knight	-10.9401
▁pleas	-10.9405
▁abuses	-10.9414
▁discount	-10.9415
▁button	-10.9418
▁procedure	-10.9419
ari	-10.9419
ell	-10.9421
▁nicole	-10.9428
▁kidnapp	-10.9431
▁hike	-10.9439
▁glas	-10.944
▁hidd	-10.9455
hook	-10.9479
▁vulnerab	-10.9489
▁analysi	-10.9491
▁chip	-10.9494
▁fundamental	-10.9495
refore	-10.9496
▁component	-10.9497
▁marathon	-10.9497
▁taxpayer	-10.9497
▁legislature	-10.9497
▁absence	-10.9497
▁monarch	-10.9497
▁afr	-10.9497
▁regain	-10.9497
▁incredibl	-10.9497
▁chicken	-10.9498
▁archaeologist	-10.9499
▁height	-10.95
▁endorsement	-10.9501
▁principal	-10.9501
▁steal	-10.9503
▁pornograph	-10.9504
▁remarkable	-10.9506
▁shake	-10.9506
▁walter	-10.951
▁commuter	-10.9513
▁afterward	-10.9517
min	-10.9521
▁libyan	-10.9522
▁rivers	-10.9526
▁ph	-10.9532
▁magic	-10.9535
▁habit	-10.956
▁tanker	-10.9566
most	-10.9571
▁procedures	-10.958
▁brook	-10.9597
▁mask	-10.9597
▁zoe	-10.9607
▁violate	-10.9623
▁kun	-10.9624
▁theme	-10.9644
▁covering	-10.965
cut	-10.9658
▁orchestra	-10.9666
▁chase	-10.9666
▁vaccine	-10.9668
▁phil	-10.9676
▁victoria	-10.9678
ware	-10.969
li	-10.9693
▁ke	-10.9694
▁achiev	-10.9695
▁chancell	-10.9703
bow	-10.9706
▁inmate	-10.9708
ova	-10.971
▁cape	-10.9718
▁launching	-10.972
▁der	-10.9724
▁depart	-10.9744
▁classe	-10.9745
▁curfew	-10.9747
▁superior	-10.9747
▁gradual	-10.9747
▁spaniard	-10.9747
▁distress	-10.9747
▁mirror	-10.9748
▁balloon	-10.9748
▁drown	-10.9748
▁wilson	-10.9748
pov	-10.9748
▁honest	-10.9749
▁toyota	-10.9749
▁guang	-10.9749
▁graham	-10.975
▁combination	-10.975
▁midfielder	-10.975
▁unique	-10.9751
▁poison	-10.9751
▁pronounce	-10.9751
▁myspace	-10.9752
▁reopen	-10.9752
▁ahmed	-10.9754
▁passage	-10.9755
▁bb	-10.9757
tic	-10.9757
▁landscape	-10.9759
▁statistics	-10.976
▁mice	-10.9762
▁filmmaker	-10.9764
▁medic	-10.9765
▁nair	-10.9766
▁astronomer	-10.9772
▁partial	-10.9792
▁plea	-10.9801
▁clay	-10.9806
ino	-10.9815
▁rad	-10.9818
liberation	-10.9822
not	-10.9826
▁raped	-10.9828
obi	-10.9832
▁turns	-10.9839
▁lunch	-10.9841
phy	-10.986
▁headline	-10.9865
ioxid	-10.9875
indi	-10.9895
▁rob	-10.9902
▁christ	-10.991
kara	-10.9913
▁roma	-10.9915
▁remark	-10.9915
▁contribut	-10.9921
cheon	-10.9926
▁unna	-10.9927
▁sec	-10.9934
▁infection	-10.9936
▁opponent	-10.9937
▁emerg	-10.9945
▁univers	-10.9951
▁repeat	-10.9953
teen	-10.9956
med	-10.9964
som	-10.9978
▁victor	-10.9983
▁ju	-10.9986
▁parade	-10.9991
▁sp	-10.9992
▁branch	-10.9993
der	-10.9996
▁indefinite	-11.0004
▁volatil	-11.0004
▁enormous	-11.0004
▁composite	-11.0004
▁gunshot	-11.0004
▁prestig	-11.0004
▁biologist	-11.0005
▁plunge	-11.0005
▁prolong	-11.0006
▁descend	-11.0006
▁expell	-11.0006
▁guild	-11.0008
▁iphone	-11.0009
▁pig	-11.0009
▁master	-11.001
▁distribution	-11.0013
▁gesture	-11.0015
▁coverage	-11.0015
▁brian	-11.0016
▁closure	-11.0017
▁burial	-11.0021
▁revis	-11.0021
▁mrs	-11.0023
▁finger	-11.0025
▁kaes	-11.003
▁refusal	-11.0034
anamo	-11.0038
col	-11.0054
▁fare	-11.0054
▁theory	-11.0057
▁clue	-11.0059
▁determin	-11.007
▁hiding	-11.0081
▁bacteria	-11.0083
▁shap	-11.0096
▁killer	-11.0103
▁nurse	-11.0105
▁tent	-11.0106
▁dismantle	-11.0106
▁mir	-11.0121
▁christians	-11.0123
▁deals	-11.0139
▁thus	-11.0143
▁ram	-11.0145
tarian	-11.0166
▁forget	-11.0173
▁skills	-11.0175
▁te	-11.0183
▁joy	-11.0188
▁mere	-11.02
▁clo	-11.0205
▁harris	-11.0208
▁activist	-11.021
▁rigg	-11.0227
▁mistakes	-11.0233
▁amaz	-11.0233
▁uganda	-11.0247
▁craft	-11.025
▁bal	-11.0253
▁fatalit	-11.0254
▁jets	-11.0266
sburg	-11.0266
▁counterfeit	-11.0267
▁surprising	-11.0267
▁encouraging	-11.0267
▁oxygen	-11.0267
▁dolphin	-11.0267
▁thirty	-11.0267
▁oregon	-11.0267
▁escort	-11.0267
▁campbell	-11.0267
▁prophet	-11.0267
▁optimistic	-11.0267
▁unanimous	-11.0267
▁teeth	-11.0267
▁mutual	-11.0267
▁mercur	-11.0268
▁em	-11.0268
▁slip	-11.0268
onna	-11.0269
▁examination	-11.0269
▁audio	-11.027
▁pitts	-11.0271
remlin	-11.0271
▁gender	-11.0271
▁bahama	-11.0271
▁comply	-11.0271
▁romantic	-11.0272
▁guess	-11.0273
▁engagement	-11.0274
▁accidental	-11.0279
▁miller	-11.028
▁subway	-11.0281
▁joke	-11.0281
▁smart	-11.0282
▁selection	-11.0284
▁publicist	-11.0285
▁sink	-11.0285
▁decrease	-11.0291
ou	-11.0291
▁alan	-11.0294
▁deepen	-11.0297
▁serbian	-11.0303
▁embrace	-11.0303
▁minne	-11.0309
▁refuge	-11.0313
▁wav	-11.0313
▁dallas	-11.0316
inho	-11.0318
▁preserve	-11.0325
iest	-11.0328
▁challeng	-11.0331
▁suk	-11.0341
▁penn	-11.0346
orry	-11.0351
▁cats	-11.0352
▁belgi	-11.0353
▁update	-11.0362
▁eggs	-11.0365
▁fift	-11.0375
▁endorse	-11.0378
▁jay	-11.0381
▁comfortabl	-11.0388
▁bears	-11.0394
ad	-11.0396
▁fence	-11.0408
ington	-11.0424
▁sevill	-11.0429
▁burm	-11.0429
▁wash	-11.0462
▁venture	-11.0462
ev	-11.0464
latter	-11.0465
▁hanging	-11.0466
▁matt	-11.0473
▁swor	-11.0478
mond	-11.0482
▁mud	-11.0483
▁volunteer	-11.0484
vili	-11.0485
▁argument	-11.0491
▁sept	-11.0497
space	-11.05
▁danc	-11.0501
▁troubl	-11.0501
ribe	-11.0503
ugher	-11.0506
▁permit	-11.0507
▁rev	-11.051
▁dy	-11.0512
▁usa	-11.0515
▁widen	-11.0533
▁adjust	-11.0534
▁benjamin	-11.0537
▁citigroup	-11.0537
▁incumbent	-11.0537
▁shrink	-11.0537
▁cautious	-11.0537
▁coincide	-11.0537
▁beautiful	-11.0537
▁intervention	-11.0537
▁retreat	-11.0537
▁harbor	-11.0537
▁elevator	-11.0537
▁twel	-11.0537
▁deadlock	-11.0538
▁reconstruction	-11.0538
▁excessive	-11.0538
▁talent	-11.0538
▁probation	-11.0538
▁ibm	-11.0538
▁acid	-11.0539
▁installation	-11.0539
▁yield	-11.054
▁manipulation	-11.054
▁captor	-11.0542
▁proliferat	-11.0543
▁albanian	-11.0543
▁castle	-11.0546
▁ferg	-11.0549
ago	-11.055
▁attribut	-11.0551
▁geu	-11.0564
ebay	-11.0568
▁inspire	-11.057
▁cheong	-11.057
▁luis	-11.0574
▁prais	-11.0577
▁hud	-11.0588
won	-11.0592
▁signing	-11.06
▁prov	-11.06
▁mood	-11.0601
ral	-11.0604
▁elaborate	-11.061
▁reviv	-11.0613
▁armor	-11.062
▁ag	-11.0624
if	-11.0632
▁scrap	-11.0635
dong	-11.0636
▁micro	-11.0639
rry	-11.064
egger	-11.0652
olla	-11.0652
▁forecaster	-11.0658
elite	-11.0668
ked	-11.0677
▁hol	-11.0683
▁prostitute	-11.0685
▁hostil	-11.0694
▁jewel	-11.0702
▁displac	-11.0703
nell	-11.0707
▁contenders	-11.0722
▁plac	-11.0728
stone	-11.0729
▁radi	-11.0732
▁hindu	-11.0737
▁arrang	-11.0744
prime	-11.0754
▁ranch	-11.0756
▁racial	-11.0757
▁minds	-11.0761
▁admit	-11.0763
▁tip	-11.0764
ishu	-11.0772
▁swing	-11.0773
▁diseases	-11.0774
▁intervene	-11.0778
awat	-11.0783
sley	-11.0788
▁sect	-11.079
▁reiterat	-11.0795
▁cambodia	-11.0796
▁portray	-11.0808
▁comprehensive	-11.0815
▁crocodile	-11.0815
▁episode	-11.0815
▁expense	-11.0815
▁schwarz	-11.0815
▁dakota	-11.0815
▁dinosaur	-11.0815
▁aspect	-11.0815
▁bolster	-11.0815
▁eligib	-11.0815
▁casino	-11.0815
▁unpopular	-11.0815
▁reputation	-11.0815
▁abolish	-11.0816
▁rhetoric	-11.0816
▁basket	-11.0816
▁pirac	-11.0816
▁kidney	-11.0816
▁classroom	-11.0817
▁moga	-11.0818
▁defector	-11.0821
▁disruption	-11.0823
▁objective	-11.0824
mo	-11.0824
▁silver	-11.0828
▁grabb	-11.0831
▁attraction	-11.0835
▁spur	-11.0835
▁eas	-11.0835
▁juan	-11.0839
▁bhut	-11.084
▁ear	-11.0842
▁ya	-11.0843
▁harr	-11.0843
▁yourself	-11.0844
▁manner	-11.0847
wine	-11.0851
▁academic	-11.0864
▁reserved	-11.0871
▁fisher	-11.0878
▁nov	-11.0879
▁bold	-11.0882
▁panic	-11.0885
band	-11.0892
ably	-11.0894
▁noon	-11.0897
▁opposit	-11.0898
▁posts	-11.0903
▁taste	-11.0904
▁indict	-11.0912
▁examine	-11.0922
▁defender	-11.0923
▁complicat	-11.0931
▁nose	-11.0943
▁cult	-11.0946
▁bur	-11.0949
▁argentine	-11.096
athrow	-11.097
▁ideal	-11.0975
ullah	-11.0987
▁deposit	-11.1003
il	-11.101
▁fe	-11.1013
▁defin	-11.1031
person	-11.104
sky	-11.1049
▁billionaire	-11.105
going	-11.1055
▁twist	-11.1058
▁atlant	-11.1064
▁tactic	-11.107
▁shah	-11.1074
▁sha	-11.1075
went	-11.1079
▁populat	-11.1079
▁deteriorat	-11.1083
▁connecti	-11.1093
prom	-11.1093
com	-11.11
▁asteroid	-11.11
▁greenpeace	-11.11
▁crocker	-11.11
▁motorcycle	-11.11
▁ultra	-11.11
▁eager	-11.11
▁slogan	-11.11
▁animated	-11.1101
▁loot	-11.1101
▁approximate	-11.1101
▁motive	-11.1101
▁surf	-11.1101
▁mammal	-11.1101
▁strategist	-11.1102
▁borrow	-11.1102
▁explode	-11.1102
▁madoff	-11.1102
▁ratings	-11.1102
▁rampage	-11.1103
ronto	-11.1103
▁extinction	-11.1104
▁revision	-11.1106
▁serge	-11.1106
▁fertil	-11.1106
▁ignore	-11.1109
mpson	-11.1111
▁circulat	-11.1112
▁freez	-11.1112
▁ivor	-11.1115
▁recycl	-11.1119
▁requirement	-11.112
▁financ	-11.112
▁observation	-11.1124
▁ku	-11.1124
▁linds	-11.1125
nt	-11.1129
▁ac	-11.1131
▁tries	-11.1131
▁consum	-11.1132
▁automatic	-11.1132
▁posting	-11.1135
▁aig	-11.1142
▁nikk	-11.1144
▁amy	-11.1161
▁teaching	-11.1163
▁publish	-11.1166
ade	-11.1169
nba	-11.117
▁personalit	-11.12
▁challenger	-11.121
▁chat	-11.1211
mura	-11.123
ka	-11.1247
ampa	-11.1259
▁rocky	-11.1259
▁therap	-11.1278
▁installed	-11.1285
lie	-11.129
▁mc	-11.1295
▁scrambl	-11.1295
port	-11.1295
▁eliminat	-11.1302
fire	-11.1305
▁rid	-11.1316
▁wu	-11.1329
tt	-11.1331
stream	-11.1331
fall	-11.1332
▁br	-11.1348
▁presum	-11.135
▁ads	-11.1354
▁mp	-11.1362
▁gift	-11.1364
▁application	-11.1365
rmed	-11.1369
front	-11.1375
tified	-11.1379
▁opt	-11.138
fish	-11.1381
▁user	-11.1382
▁antarctic	-11.1384
cher	-11.1391
▁spectac	-11.1393
▁equivalent	-11.1395
▁instrument	-11.1395
▁revenge	-11.1395
▁denmark	-11.1395
▁wrongdoing	-11.1395
▁crunch	-11.1395
▁incentive	-11.1395
▁administrator	-11.1395
▁carpet	-11.1395
▁strait	-11.1395
▁epicenter	-11.1395
▁cardinal	-11.1395
▁bedroom	-11.1395
▁saint	-11.1395
droe	-11.1395
▁pension	-11.1395
▁tripoli	-11.1396
▁outdoor	-11.1396
▁zap	-11.1396
sterol	-11.1397
▁foster	-11.1397
▁assess	-11.1397
▁legislator	-11.1397
oprah	-11.1398
▁bernard	-11.1398
▁detective	-11.14
▁survival	-11.14
▁bruce	-11.1403
▁shak	-11.1403
▁utilit	-11.1403
▁divert	-11.1404
▁pride	-11.1406
▁ethiopian	-11.1406
▁ripp	-11.1406
▁anybody	-11.1408
▁alien	-11.1409
▁pollut	-11.141
▁alli	-11.1411
▁objection	-11.1414
▁useful	-11.1423
▁tea	-11.1426
▁slaughter	-11.143
▁brave	-11.1433
▁boxes	-11.1433
ook	-11.1435
my	-11.1435
▁atlanti	-11.1443
▁marry	-11.1444
▁limb	-11.1445
▁agreements	-11.1445
▁purchas	-11.1447
pa	-11.1447
▁assured	-11.1448
▁pure	-11.1466
▁shouted	-11.1467
residential	-11.1468
▁rawal	-11.1471
▁coin	-11.1473
▁smil	-11.1486
▁allen	-11.1489
die	-11.1491
▁slide	-11.1491
▁mas	-11.1493
▁eliminate	-11.1494
▁laser	-11.1497
▁assume	-11.1498
▁expanding	-11.1501
▁install	-11.1502
▁wo	-11.1514
▁designat	-11.1547
▁cole	-11.1548
▁nationalist	-11.1555
▁enable	-11.1555
▁hate	-11.1561
▁tighten	-11.157
▁parker	-11.1571
▁patriot	-11.1571
▁starts	-11.1591
▁rash	-11.1604
q	-11.1619
▁tai	-11.1625
▁sat	-11.163
skirt	-11.1632
▁happens	-11.1633
piece	-11.1636
ward	-11.1649
▁springs	-11.1657
▁dun	-11.1671
▁ash	-11.1673
▁remind	-11.1674
▁sympath	-11.1675
ood	-11.1675
▁accompani	-11.1677
▁tae	-11.168
yodo	-11.1681
▁advise	-11.1687
▁cyber	-11.1688
▁tears	-11.1688
▁musa	-11.169
▁hire	-11.1691
ura	-11.1692
▁exam	-11.1693
▁disagree	-11.1695
▁adapt	-11.1696
▁accompany	-11.1698
▁sprawl	-11.1698
▁imminent	-11.1698
▁overhaul	-11.1698
▁pyramid	-11.1698
▁subsequent	-11.1698
▁incursion	-11.1698
▁anthem	-11.1698
▁breakfast	-11.1698
▁boast	-11.1698
▁confine	-11.1698
▁anonymous	-11.1698
▁random	-11.1698
▁hamper	-11.1698
▁broadway	-11.17
▁jenni	-11.17
▁candidacy	-11.1701
▁assertion	-11.1703
bo	-11.1706
▁pregnancy	-11.1709
▁eruption	-11.171
horta	-11.1711
▁ambitio	-11.1711
▁branches	-11.1712
▁empir	-11.1717
▁defect	-11.1718
▁hometown	-11.172
▁rada	-11.1724
▁yasu	-11.1727
▁applications	-11.1728
▁provider	-11.1729
▁phenomen	-11.1731
▁intent	-11.1735
▁shooter	-11.1738
▁leap	-11.1748
▁lucky	-11.1758
ible	-11.1774
▁lane	-11.1785
▁experienc	-11.1801
▁patroll	-11.1805
▁automakers	-11.1812
▁lesson	-11.1814
▁tap	-11.1817
▁winf	-11.1819
wear	-11.1824
▁advocate	-11.1828
au	-11.1834
▁opera	-11.1854
awi	-11.1856
▁donations	-11.1861
▁menu	-11.1862
▁interviewed	-11.1865
▁stalin	-11.1872
▁slum	-11.1876
▁bind	-11.1879
▁hack	-11.1882
▁ri	-11.191
mann	-11.1927
▁advanc	-11.1939
tra	-11.1941
ega	-11.1949
ul	-11.1962
▁retire	-11.1964
▁ab	-11.1967
allah	-11.1971
▁pus	-11.1976
care	-11.1978
▁tr	-11.1979
▁worri	-11.1989
▁prefer	-11.1991
pec	-11.1994
▁cri	-11.1994
▁digit	-11.1998
▁haiti	-11.1999
▁surg	-11.1999
ves	-11.2
▁rove	-11.2003
▁buzz	-11.2004
ee	-11.2005
▁depict	-11.2006
▁unsuccessful	-11.201
▁automobile	-11.201
▁caribbean	-11.201
▁explanation	-11.201
▁invitation	-11.201
▁mammoth	-11.201
▁pichushkin	-11.201
▁tragic	-11.201
▁travolta	-11.201
▁thorough	-11.201
▁depth	-11.201
▁fingerprint	-11.201
▁tumor	-11.201
▁nixon	-11.201
▁crater	-11.201
▁mini	-11.201
▁textbook	-11.201
▁diabet	-11.201
▁website	-11.201
▁expedition	-11.2011
▁physician	-11.2011
▁restart	-11.2011
▁echo	-11.2011
▁stronghold	-11.2011
▁facebook	-11.2011
▁graphic	-11.2011
▁implication	-11.2012
akash	-11.2012
▁hip	-11.2012
▁tribunal	-11.2013
▁haul	-11.2013
▁combine	-11.2014
▁spell	-11.2014
▁hydro	-11.2015
▁blitz	-11.2015
▁merger	-11.2015
▁gibbon	-11.2016
▁consultation	-11.2017
▁autops	-11.2018
▁achievement	-11.2018
ubble	-11.2018
zhei	-11.2022
nold	-11.2024
▁wayne	-11.2025
lmand	-11.2026
▁symptoms	-11.2027
▁operative	-11.2027
▁mumm	-11.203
▁lifetime	-11.2031
mao	-11.2031
▁drunk	-11.2035
▁denial	-11.2042
▁smuggling	-11.2044
overt	-11.2046
▁surgeon	-11.2047
▁petrole	-11.2052
▁consideration	-11.2052
▁intensifie	-11.2053
tti	-11.2054
cal	-11.2061
▁shouting	-11.2066
right	-11.2067
room	-11.207
try	-11.2071
▁shia	-11.2078
▁fisc	-11.2082
▁generat	-11.2083
▁battles	-11.2083
▁electrical	-11.2084
▁supplier	-11.2093
▁explained	-11.2094
ver	-11.2094
▁topic	-11.2096
he	-11.2106
▁shim	-11.2115
▁amin	-11.212
▁tala	-11.2123
▁deck	-11.2128
▁sacrifice	-11.213
▁bonds	-11.2134
▁hearts	-11.2159
▁bath	-11.2164
▁smile	-11.2168
▁luc	-11.2171
▁exporter	-11.2177
▁developer	-11.2179
rotti	-11.2185
▁slim	-11.2186
▁grade	-11.2188
▁returns	-11.2188
cef	-11.2191
raul	-11.2196
how	-11.2199
▁surpass	-11.2206
▁communicate	-11.2216
bourne	-11.2224
▁bae	-11.2224
▁appli	-11.2227
▁pri	-11.2227
▁stopp	-11.2234
world	-11.224
mouth	-11.2241
▁stones	-11.2249
▁stewar	-11.2262
▁spare	-11.2264
▁evacuate	-11.2266
▁briton	-11.2268
▁till	-11.2273
▁dedicat	-11.2282
▁designate	-11.2287
▁sum	-11.229
▁households	-11.2291
▁fif	-11.2292
▁provision	-11.2294
▁cathedral	-11.2294
▁om	-11.2306
▁canne	-11.2307
▁sail	-11.2315
▁endeavo	-11.2315
▁fl	-11.2322
▁hui	-11.2327
children	-11.2328
▁extinct	-11.2329
▁triumph	-11.2332
▁automotive	-11.2333
▁fossil	-11.2333
▁margaret	-11.2333
▁norwegian	-11.2333
▁shepherd	-11.2333
▁aquarium	-11.2333
▁blind	-11.2333
▁swallow	-11.2333
▁silent	-11.2333
▁tentative	-11.2333
▁throat	-11.2333
▁lynch	-11.2333
▁bathroom	-11.2333
▁copyright	-11.2333
▁steam	-11.2333
▁kofi	-11.2333
▁pursuit	-11.2334
▁citizenship	-11.2335
▁pact	-11.2335
▁painful	-11.2336
▁quell	-11.2336
▁equipp	-11.2336
▁jeong	-11.2338
▁outpost	-11.2339
▁reluctant	-11.234
▁bryan	-11.234
▁restructur	-11.234
▁warehouse	-11.2341
▁belgian	-11.2344
tage	-11.2345
▁practical	-11.2351
▁falluja	-11.2356
▁jean	-11.2357
lisa	-11.2358
▁favorable	-11.2358
▁mccart	-11.2359
▁mitt	-11.2359
▁cristian	-11.236
ida	-11.2361
▁belonging	-11.2361
▁alter	-11.2363
▁sack	-11.2364
▁hun	-11.2367
▁asset	-11.2369
▁pad	-11.2373
▁archive	-11.238
▁soul	-11.2383
ho	-11.2384
▁luna	-11.2385
▁pf	-11.2386
▁oust	-11.2393
▁strange	-11.2395
▁arguments	-11.2399
▁screening	-11.2399
ture	-11.2399
▁passes	-11.2406
▁ward	-11.2407
▁jam	-11.2417
ster	-11.2426
▁rider	-11.2431
▁kell	-11.2434
▁joon	-11.2434
abao	-11.2447
▁formula	-11.245
▁beside	-11.2456
▁stabilize	-11.2464
wai	-11.2493
lando	-11.2494
▁guid	-11.25
▁rings	-11.2506
▁gwan	-11.2509
▁advis	-11.2522
▁anna	-11.2526
▁acquire	-11.2545
▁captives	-11.2562
▁lance	-11.2563
tuck	-11.2573
fected	-11.2575
▁biolog	-11.2575
▁investments	-11.2577
bani	-11.2578
▁caps	-11.258
▁proto	-11.259
▁clos	-11.2606
hou	-11.2609
aro	-11.261
▁anim	-11.2612
war	-11.2613
▁shutt	-11.2614
▁emi	-11.2616
tanbu	-11.2617
▁ethic	-11.2618
▁coat	-11.2626
▁mandate	-11.2627
▁aging	-11.2637
▁gus	-11.2637
bar	-11.264
▁thrill	-11.2652
▁refer	-11.2653
▁hi	-11.2655
▁audit	-11.266
▁recogni	-11.2663
▁psycholog	-11.2665
▁sophisticat	-11.2666
▁artificial	-11.2666
▁epidemic	-11.2666
▁okinawa	-11.2666
▁surplus	-11.2666
▁verify	-11.2666
▁homosexual	-11.2666
▁ceiling	-11.2666
▁mitchell	-11.2666
▁hazard	-11.2666
▁mercedes	-11.2666
▁prescription	-11.2666
▁judgment	-11.2667
▁scatter	-11.2667
▁samarra	-11.2667
▁layoff	-11.2668
▁polish	-11.267
▁disagreement	-11.267
▁tayyi	-11.2671
▁retirement	-11.2671
▁shopper	-11.2673
▁brush	-11.2675
▁desk	-11.2675
▁rita	-11.2677
▁legac	-11.2679
▁sway	-11.2679
▁modest	-11.268
▁monkey	-11.268
like	-11.2681
▁wheat	-11.2682
▁edward	-11.2683
▁horse	-11.2684
▁arti	-11.2685
▁fujimo	-11.2688
▁purported	-11.2689
▁assert	-11.269
▁sued	-11.2693
our	-11.2699
▁sideline	-11.2702
▁supervisor	-11.2703
rbil	-11.2704
▁donor	-11.2704
▁beatles	-11.2706
▁soft	-11.271
▁conscious	-11.2711
▁resum	-11.2713
▁tropic	-11.2715
▁expression	-11.2718
gen	-11.2719
▁embezzle	-11.272
▁keen	-11.272
▁tips	-11.2724
▁agenc	-11.2732
ello	-11.2736
▁yan	-11.2737
▁projection	-11.2739
ke	-11.274
▁shattered	-11.2742
▁measur	-11.2743
▁disabl	-11.2753
▁rating	-11.2754
▁plott	-11.2756
▁subsidiar	-11.2756
cious	-11.2756
▁cla	-11.2761
▁cm	-11.2762
llery	-11.2768
▁bever	-11.2772
apped	-11.2778
▁lit	-11.278
▁lov	-11.2785
▁scare	-11.2788
nic	-11.2795
▁caucus	-11.2796
▁nur	-11.2802
can	-11.2809
▁immun	-11.2822
▁med	-11.2829
▁punch	-11.2831
▁format	-11.2835
▁matsu	-11.2836
▁pipe	-11.2837
▁knowing	-11.2838
▁kwang	-11.284
▁stamp	-11.2842
▁cook	-11.2845
kat	-11.2846
▁nud	-11.285
attle	-11.2852
rich	-11.2859
station	-11.2863
erald	-11.2865
mon	-11.2872
▁congratulat	-11.2879
▁rely	-11.2887
▁lure	-11.2901
erial	-11.2903
til	-11.2908
▁dar	-11.2926
▁dies	-11.2928
hn	-11.2933
▁discriminat	-11.2942
munition	-11.2947
▁rahm	-11.2948
▁transit	-11.2954
russel	-11.2964
▁ethan	-11.2966
▁chos	-11.2968
teria	-11.2976
▁stripp	-11.2986
▁visual	-11.2986
▁widow	-11.2989
▁kidnap	-11.3
▁jihad	-11.3001
▁productiv	-11.3002
▁fernand	-11.3003
▁fisherm	-11.3009
▁scream	-11.3009
▁jer	-11.301
▁addict	-11.301
▁vigil	-11.301
▁disturb	-11.3011
elecommunication	-11.3011
▁aborigin	-11.3011
▁consortium	-11.3011
▁crystal	-11.3011
▁nervous	-11.3011
▁obstacle	-11.3011
▁substitute	-11.3011
▁sierra	-11.3011
▁convey	-11.3011
▁bishop	-11.3011
▁consent	-11.3011
▁conceal	-11.3011
▁grandfather	-11.3011
▁epic	-11.3011
▁nfl	-11.3012
▁dignity	-11.3012
▁nelson	-11.3012
▁uprising	-11.3013
▁fahr	-11.3013
▁humor	-11.3014
▁croatia	-11.3016
▁hormone	-11.3017
▁fernando	-11.3019
▁creative	-11.3019
▁susan	-11.3019
▁atrocit	-11.302
▁lieutenant	-11.3022
▁enhance	-11.3022
▁wazir	-11.3022
quba	-11.3024
▁heighten	-11.3025
▁impression	-11.3026
▁steer	-11.3026
▁setback	-11.3026
▁manipulat	-11.3027
▁ferry	-11.3028
▁sank	-11.3031
▁presentation	-11.3032
▁nick	-11.3034
▁removal	-11.3035
▁guin	-11.3035
▁sprint	-11.3043
▁treasure	-11.3044
▁pastor	-11.3047
▁austrian	-11.305
▁dance	-11.305
away	-11.3051
▁bron	-11.3051
▁linda	-11.3052
▁grounds	-11.3056
▁arena	-11.3059
▁marie	-11.3067
lo	-11.3071
▁ethical	-11.3074
▁symbolic	-11.3077
▁dave	-11.3078
▁ramp	-11.3078
some	-11.308
▁territories	-11.3086
▁ken	-11.3087
▁futures	-11.3087
▁antibiotics	-11.3089
▁wang	-11.3092
▁stunning	-11.3095
▁arrange	-11.3096
▁dense	-11.3112
▁matte	-11.3113
▁bon	-11.3113
▁gangs	-11.3113
▁sav	-11.3129
▁informal	-11.3132
▁hijack	-11.3137
ck	-11.3142
▁balti	-11.3144
ir	-11.3153
hip	-11.3157
▁tumbl	-11.318
▁mega	-11.3186
arade	-11.3211
air	-11.3214
ich	-11.322
▁disarm	-11.3222
▁farms	-11.3224
▁exceed	-11.3226
▁folks	-11.3233
enhei	-11.3233
▁inspect	-11.3244
▁slid	-11.3255
▁feeding	-11.3268
gan	-11.3269
▁lope	-11.3269
▁spots	-11.328
▁antho	-11.3292
▁geit	-11.3296
▁ak	-11.3298
bank	-11.33
▁preserv	-11.3303
dom	-11.3304
jiang	-11.3307
▁optimis	-11.3307
▁captiv	-11.3313
stock	-11.3315
▁coll	-11.3315
hasa	-11.3316
▁skeptic	-11.332
via	-11.3333
▁cor	-11.3342
▁loose	-11.335
▁swap	-11.336
▁deserve	-11.3362
ja	-11.3367
▁applicant	-11.3368
▁condolence	-11.3368
▁discharge	-11.3368
▁paparazz	-11.3368
▁pioneer	-11.3368
▁pistol	-11.3368
▁plummet	-11.3368
▁reaffirm	-11.3368
▁douglas	-11.3368
▁brothel	-11.3368
▁ankle	-11.3368
▁throne	-11.3368
▁mystery	-11.3368
▁railroad	-11.3368
▁mcdonald	-11.3368
▁gil	-11.3368
▁predominant	-11.3369
▁evaluation	-11.3369
▁propagand	-11.3369
▁deutsch	-11.3369
▁impass	-11.3369
▁niger	-11.337
▁laureate	-11.337
▁glori	-11.337
▁conglomerate	-11.3371
▁knife	-11.3371
▁ownership	-11.3371
▁phillip	-11.3373
▁trash	-11.3373
▁arson	-11.3373
▁happiness	-11.3376
▁aggression	-11.3376
▁aziz	-11.3376
▁oak	-11.3377
▁prefecture	-11.3378
▁scrapp	-11.3379
kdo	-11.338
▁transparent	-11.3383
▁cheaper	-11.3385
▁wy	-11.3386
▁bel	-11.3386
▁outlaw	-11.3388
viel	-11.3389
▁pink	-11.3389
▁greenland	-11.3389
▁jiang	-11.339
▁java	-11.3391
▁rick	-11.3391
▁cambodian	-11.3392
▁shame	-11.3392
▁rover	-11.3393
ider	-11.3394
▁inventor	-11.3394
▁passion	-11.3395
▁nigerian	-11.3397
▁reasonable	-11.3398
aska	-11.3401
▁massage	-11.3402
▁drought	-11.3405
▁pants	-11.3405
lene	-11.3406
▁stemm	-11.3408
▁jacque	-11.3418
penh	-11.3428
manuel	-11.3432
▁marc	-11.3432
bu	-11.3437
▁surveys	-11.3438
▁christi	-11.3445
▁mines	-11.3446
▁swed	-11.3449
▁cage	-11.3451
▁hits	-11.3452
▁contra	-11.3462
nebr	-11.3471
works	-11.3478
▁lu	-11.3483
▁rak	-11.3487
▁postpone	-11.3489
▁inner	-11.3501
▁mild	-11.3501
▁tu	-11.3505
cantil	-11.3513
wa	-11.352
titude	-11.3522
▁meals	-11.3523
▁unemploy	-11.3536
▁easter	-11.3539
▁anne	-11.354
▁bok	-11.354
▁jaz	-11.3556
pover	-11.3561
▁sponsors	-11.3562
ego	-11.3569
▁reli	-11.3569
hy	-11.3578
▁johnsto	-11.3587
llo	-11.359
▁cub	-11.3591
▁cop	-11.36
▁kiss	-11.3617
▁mill	-11.3627
▁hassan	-11.3628
▁roots	-11.3657
▁truc	-11.3663
ya	-11.3691
▁propell	-11.3697
▁instruct	-11.3706
ran	-11.3709
▁injure	-11.371
▁tut	-11.3712
▁tenn	-11.3716
ail	-11.3719
▁flick	-11.3727
▁donors	-11.3731
▁pal	-11.3731
▁mode	-11.3731
▁columb	-11.3734
nati	-11.3734
ssett	-11.3735
▁possess	-11.3735
▁catastroph	-11.3738
▁historian	-11.3738
▁jirga	-11.3738
▁junior	-11.3738
▁simultaneous	-11.3738
▁starbuck	-11.3738
▁refrain	-11.3738
▁script	-11.3738
▁domain	-11.3738
▁oath	-11.3738
▁sibling	-11.3738
▁grim	-11.3738
▁lodge	-11.3739
▁yankee	-11.3739
▁decree	-11.3739
▁johannes	-11.3739
▁breast	-11.3739
▁ftse	-11.374
▁intensive	-11.374
▁thwart	-11.374
▁pocket	-11.374
▁circuit	-11.374
▁bosnia	-11.374
▁mastermind	-11.374
▁servant	-11.374
gow	-11.374
▁respirator	-11.374
▁faithful	-11.374
▁milestone	-11.3741
▁editorial	-11.3741
▁mediator	-11.3741
▁cinc	-11.3741
▁lenno	-11.3742
▁holland	-11.3742
▁transmission	-11.3742
▁constitute	-11.3742
▁dementi	-11.3743
▁assign	-11.3743
▁logistic	-11.3743
▁trademark	-11.3743
uk	-11.3743
▁elb	-11.3743
▁dug	-11.3743
▁weakness	-11.3744
▁exhibition	-11.3745
▁poul	-11.3745
▁stud	-11.3745
▁flaw	-11.3745
▁segment	-11.3746
▁slush	-11.3748
▁minus	-11.3748
▁arth	-11.3749
▁restraint	-11.3749
▁bride	-11.3751
▁files	-11.3751
▁antarctica	-11.3751
tearn	-11.3752
▁comb	-11.3753
dale	-11.3756
iness	-11.3758
▁carmaker	-11.376
▁drum	-11.3763
▁mob	-11.3763
ties	-11.3765
▁scenario	-11.3771
▁patien	-11.3777
▁formation	-11.3779
▁annually	-11.3798
rell	-11.3801
▁raw	-11.3803
▁spitz	-11.3806
▁shelves	-11.381
▁popp	-11.3811
▁genes	-11.3815
▁ranger	-11.3818
nshine	-11.3824
▁manufacturer	-11.3831
▁premiere	-11.3833
▁grat	-11.3836
▁rig	-11.3847
▁chess	-11.3851
▁arts	-11.3854
ola	-11.3858
▁aero	-11.3865
eta	-11.3872
▁sk	-11.3875
▁surviv	-11.388
let	-11.3908
▁filing	-11.3914
▁lev	-11.3917
▁gambl	-11.3918
▁outline	-11.3921
▁carl	-11.3921
▁hosts	-11.3928
▁observe	-11.3931
▁pin	-11.3934
▁ugl	-11.3936
shire	-11.3944
lateral	-11.3945
▁infiltrat	-11.3961
ita	-11.3962
▁fines	-11.3968
▁relevan	-11.3969
▁sighting	-11.3972
▁neil	-11.3982
▁roy	-11.3985
▁lotte	-11.3988
▁shipments	-11.3992
▁impos	-11.3993
tten	-11.3995
▁harve	-11.4005
▁tribes	-11.4007
▁wat	-11.4018
suf	-11.404
furt	-11.4046
disclos	-11.4049
▁retaliati	-11.406
▁intens	-11.4061
▁sooner	-11.4067
▁smooth	-11.4068
kansa	-11.4073
waz	-11.4075
▁kam	-11.408
▁disperse	-11.4083
▁swim	-11.4085
intend	-11.4086
enos	-11.409
▁choos	-11.4103
▁transparen	-11.4107
▁construct	-11.4113
▁intercept	-11.4115
arian	-11.4116
caust	-11.4119
▁bench	-11.4119
▁guitar	-11.4122
▁brilliant	-11.4123
▁peanut	-11.4123
▁acquisition	-11.4123
▁kazakhstan	-11.4123
▁kuznetsov	-11.4123
▁rhode	-11.4123
▁cousin	-11.4123
▁memories	-11.4123
▁premium	-11.4123
▁nightclub	-11.4123
▁consist	-11.4123
▁curious	-11.4123
▁nerve	-11.4123
▁monster	-11.4123
▁parole	-11.4123
▁downturn	-11.4123
▁smell	-11.4124
▁shadow	-11.4124
▁transcript	-11.4124
▁psychologist	-11.4125
▁libby	-11.4125
▁pageant	-11.4125
▁rehabilitati	-11.4126
▁cairo	-11.4126
▁decisive	-11.4127
▁awake	-11.4127
▁attractive	-11.4128
▁robotic	-11.4128
▁terr	-11.4128
▁leonard	-11.4128
▁terrible	-11.4128
▁rath	-11.4128
▁isolation	-11.4128
▁martyr	-11.4129
▁hammer	-11.413
▁knut	-11.4131
▁contestant	-11.4134
▁progressive	-11.4135
vacu	-11.4135
▁kwon	-11.4136
▁representation	-11.4141
▁ub	-11.4141
▁op	-11.4142
▁indoor	-11.4142
▁hank	-11.4143
▁romance	-11.4148
▁gravit	-11.415
ustin	-11.4153
▁couch	-11.4154
▁moneta	-11.4157
xvi	-11.4158
▁ourselves	-11.4165
dium	-11.4166
▁zan	-11.4169
▁pile	-11.4171
os	-11.4177
▁exten	-11.4189
▁silv	-11.4194
▁flexib	-11.4194
▁reunifi	-11.4194
▁capt	-11.4197
▁sees	-11.4198
▁gala	-11.4204
▁distribute	-11.4208
▁tuck	-11.4211
▁rattl	-11.4212
ospi	-11.4214
▁cycle	-11.4224
▁glen	-11.4231
▁scan	-11.4232
▁terra	-11.4232
▁rubb	-11.4234
▁spice	-11.4244
▁vol	-11.4252
ged	-11.4252
oon	-11.4255
▁chill	-11.4263
▁bil	-11.427
▁sars	-11.4271
▁oscars	-11.4272
ido	-11.4274
▁choi	-11.4284
olo	-11.4286
▁gi	-11.4293
▁nis	-11.4295
▁exclud	-11.4298
▁programm	-11.43
▁isolate	-11.4323
bel	-11.4328
▁mess	-11.4329
▁tin	-11.4334
▁corn	-11.4337
▁rein	-11.4339
▁uncertaint	-11.4348
▁julie	-11.4351
▁emphasiz	-11.4353
▁paralyz	-11.4354
▁tours	-11.4355
▁sacr	-11.4355
▁container	-11.4366
▁retrieve	-11.4369
ara	-11.4385
▁drastic	-11.4388
ala	-11.4394
tor	-11.4409
oli	-11.4409
▁lots	-11.4411
▁organize	-11.4412
▁kil	-11.4413
▁cab	-11.4416
▁chairs	-11.442
▁vers	-11.4423
▁cry	-11.4428
rmal	-11.4434
▁eta	-11.4439
▁wan	-11.4443
itis	-11.4451
cliff	-11.446
appropriate	-11.4461
▁harmon	-11.4466
apping	-11.4471
▁mous	-11.4472
ning	-11.4477
henin	-11.4477
▁suits	-11.4478
▁bearing	-11.448
vy	-11.4486
▁span	-11.4486
▁contend	-11.4509
▁acquitt	-11.4516
▁enact	-11.452
▁heal	-11.4522
▁excess	-11.4522
▁contingent	-11.4523
▁gadget	-11.4523
▁lincoln	-11.4523
▁sufficient	-11.4523
▁tattoo	-11.4523
▁tremendous	-11.4523
▁vegetable	-11.4523
▁kilogram	-11.4523
▁irregularities	-11.4523
▁monument	-11.4523
▁vista	-11.4523
▁disgrace	-11.4523
▁absent	-11.4523
▁premature	-11.4523
▁inhabit	-11.4523
▁overthrow	-11.4523
▁frog	-11.4523
▁tenure	-11.4523
▁notorious	-11.4523
▁donkey	-11.4524
▁excuse	-11.4524
▁copper	-11.4524
▁tomato	-11.4524
▁orthodox	-11.4524
▁streak	-11.4525
▁psychological	-11.4525
▁bloc	-11.4525
▁boris	-11.4525
▁sugar	-11.4526
▁rift	-11.4526
▁pearl	-11.4526
▁irresponsible	-11.4527
▁laura	-11.4527
▁unchang	-11.4529
soo	-11.453
▁devil	-11.4531
▁muq	-11.4532
▁mechanical	-11.4532
▁amend	-11.4532
▁blogger	-11.4534
▁dominica	-11.4534
▁grammy	-11.4535
▁dock	-11.4537
▁diagnosed	-11.4539
▁belov	-11.4542
▁sensor	-11.4542
▁accurate	-11.4545
▁duk	-11.4549
▁explorer	-11.4551
▁warship	-11.4552
▁tube	-11.4552
▁lecture	-11.456
▁santi	-11.4561
wang	-11.4569
▁ports	-11.457
▁comic	-11.4571
▁zimbabwean	-11.4574
▁portal	-11.4578
▁pres	-11.4578
▁suppress	-11.4585
▁slain	-11.4585
▁div	-11.4586
▁philli	-11.4596
▁roar	-11.4597
▁fruit	-11.4597
▁outfit	-11.4604
▁salt	-11.4607
shi	-11.4618
▁bother	-11.462
▁burg	-11.462
▁improvement	-11.4624
hal	-11.4627
▁belt	-11.4643
arity	-11.4646
onica	-11.4652
▁applie	-11.4655
▁sensitivit	-11.4664
▁trans	-11.4668
▁obes	-11.467
▁employers	-11.4678
▁nest	-11.4684
▁interesting	-11.4693
▁din	-11.4706
red	-11.4711
▁sincere	-11.4717
▁steppe	-11.4723
▁steadi	-11.4725
▁ramad	-11.4725
▁counterterroris	-11.4732
val	-11.4732
▁barry	-11.4734
saka	-11.4736
▁gonn	-11.4745
▁rap	-11.4747
▁uncle	-11.475
▁outlets	-11.4753
▁difficulty	-11.4754
▁frustrat	-11.4756
ett	-11.4757
▁prostitut	-11.4757
▁observ	-11.4761
▁ross	-11.4767
▁roles	-11.4793
ato	-11.4796
pei	-11.4798
▁cooperat	-11.4801
▁speculat	-11.4838
▁browne	-11.4854
versh	-11.4856
zed	-11.4861
chang	-11.4871
active	-11.4875
strong	-11.4879
▁gran	-11.4882
top	-11.4889
borne	-11.4892
ux	-11.49
▁inaugura	-11.4906
▁flare	-11.4906
▁revise	-11.4908
▁choices	-11.491
oo	-11.491
▁bat	-11.491
ants	-11.4914
ario	-11.4916
▁emerge	-11.4918
▁midwest	-11.493
▁neutral	-11.4931
▁reign	-11.4932
▁mat	-11.4935
tz	-11.4938
▁q	-11.4939
▁avenue	-11.494
▁bizarre	-11.494
▁competitor	-11.494
▁genuine	-11.494
▁intellectual	-11.494
▁maradona	-11.494
▁reckless	-11.494
▁satisfie	-11.494
▁bmw	-11.494
▁kashmir	-11.494
▁qassam	-11.494
▁coroner	-11.494
▁vault	-11.494
▁misdemeanor	-11.494
▁whistle	-11.494
▁seizure	-11.494
▁potato	-11.494
▁harper	-11.494
▁negro	-11.494
▁profound	-11.494
▁venus	-11.494
▁introduction	-11.494
▁maoist	-11.494
▁veterinarian	-11.494
▁tamil	-11.494
▁hatred	-11.494
▁certificate	-11.4941
▁sequence	-11.4941
rogge	-11.4941
▁lyric	-11.4941
▁signature	-11.4941
▁fortress	-11.4942
▁colonel	-11.4942
▁bonuses	-11.4942
▁confidential	-11.4942
▁concentration	-11.4942
▁dili	-11.4942
▁ismail	-11.4943
▁infantry	-11.4944
▁jamie	-11.4944
▁sheep	-11.4944
▁collective	-11.4944
▁addiction	-11.4945
▁flin	-11.4946
▁distan	-11.4946
▁roug	-11.4948
▁precise	-11.4948
▁reunit	-11.4948
▁drain	-11.4949
▁bulgarian	-11.4951
▁slash	-11.4952
rk	-11.4957
▁loom	-11.4958
▁beam	-11.4961
▁laurea	-11.4961
▁iceland	-11.4962
▁ham	-11.4965
▁bio	-11.4967
▁spurr	-11.4967
▁garb	-11.4972
▁brig	-11.4988
▁zhang	-11.4988
▁slot	-11.4994
▁gp	-11.4997
▁rear	-11.5001
ions	-11.5001
▁suv	-11.5002
▁tooth	-11.501
▁hell	-11.5016
oster	-11.5023
▁fitt	-11.5025
▁blessing	-11.5026
▁impressi	-11.5029
▁dire	-11.503
▁toddler	-11.5031
▁countryside	-11.5034
▁kph	-11.504
conscious	-11.5041
▁alleg	-11.5044
▁hawa	-11.5048
▁ruin	-11.5056
▁yog	-11.5059
wc	-11.506
▁define	-11.5077
▁cac	-11.5081
▁crying	-11.5085
▁faye	-11.5085
itz	-11.5091
▁luck	-11.5096
▁appreciate	-11.5099
▁mikh	-11.5099
▁relieve	-11.51
nga	-11.5106
▁liu	-11.512
▁feelings	-11.5124
▁fuku	-11.5136
▁tense	-11.5136
▁concentrate	-11.5138
▁item	-11.514
▁cleaner	-11.5143
▁medi	-11.5143
win	-11.5156
ists	-11.5158
▁dispos	-11.5163
io	-11.5173
▁dismiss	-11.5178
▁authorize	-11.5189
hill	-11.5191
elling	-11.5197
▁cel	-11.5201
kuni	-11.5208
▁assassinat	-11.5213
▁yea	-11.5214
▁networking	-11.5218
▁spike	-11.5223
ette	-11.5223
adilla	-11.5227
▁unite	-11.5229
▁mori	-11.5233
row	-11.5234
▁poses	-11.5236
▁hurl	-11.5248
king	-11.5253
▁bodyguards	-11.5256
▁gre	-11.5259
ini	-11.5263
▁aug	-11.5268
▁bark	-11.527
▁characteriz	-11.5282
▁lamp	-11.5298
▁permitt	-11.5306
▁architect	-11.531
▁hae	-11.5313
▁nori	-11.5315
va	-11.5325
▁ratio	-11.5328
▁commemorate	-11.5337
▁digg	-11.5339
▁origin	-11.5341
▁marr	-11.5341
▁bobb	-11.5348
▁recep	-11.535
▁estonia	-11.5355
ted	-11.5356
▁monkeys	-11.5361
▁horses	-11.5365
▁settl	-11.537
oid	-11.5371
▁archaeolog	-11.5372
▁courage	-11.5374
▁arroyo	-11.5374
▁caretaker	-11.5374
▁chocolate	-11.5374
▁ingredient	-11.5374
▁umbrella	-11.5374
▁cricket	-11.5374
▁stomach	-11.5374
▁bicycle	-11.5374
▁junichi	-11.5374
▁definition	-11.5375
▁minneapolis	-11.5375
▁blunt	-11.5375
▁oversight	-11.5375
▁kitchen	-11.5375
▁mysterious	-11.5375
▁bulk	-11.5375
▁fidel	-11.5375
▁harass	-11.5375
▁lugg	-11.5376
▁justin	-11.5376
▁alfred	-11.5376
▁taint	-11.5376
▁contentious	-11.5376
▁cluster	-11.5376
▁click	-11.5376
▁cancellation	-11.5376
▁comedian	-11.5377
▁exploration	-11.5377
▁grain	-11.5378
▁consultant	-11.5378
▁array	-11.5379
▁powder	-11.5379
▁slugg	-11.5379
▁injection	-11.5379
▁stunt	-11.538
▁squid	-11.5381
▁drunken	-11.5381
▁glow	-11.5382
▁ipod	-11.5382
▁delight	-11.5382
▁ledger	-11.5383
▁titan	-11.5383
▁chunk	-11.5384
▁deem	-11.5384
▁harvest	-11.5385
▁rico	-11.5385
▁ufo	-11.5388
▁bread	-11.5389
yama	-11.5392
▁hon	-11.5394
▁guardian	-11.5395
▁measurement	-11.5396
▁siege	-11.5397
▁innocen	-11.5399
▁adequate	-11.5401
▁fantas	-11.5404
▁bible	-11.5407
▁glimpse	-11.5408
▁rejection	-11.5414
▁organic	-11.5416
▁nasr	-11.542
▁gifts	-11.5421
▁sach	-11.5424
▁lp	-11.5425
▁cecil	-11.5425
▁dual	-11.5427
▁karl	-11.5428
▁examiner	-11.5428
onia	-11.5442
▁semi	-11.5449
▁khali	-11.5456
▁vest	-11.5462
ping	-11.5464
aking	-11.5471
▁cl	-11.5473
▁baker	-11.5475
▁drag	-11.5477
▁gib	-11.548
▁protein	-11.5485
▁kle	-11.5489
▁mong	-11.549
▁convene	-11.549
▁bodyguard	-11.5494
amount	-11.5497
▁meteor	-11.5501
▁carac	-11.5506
▁chips	-11.5525
▁cher	-11.5525
▁demonstrat	-11.5525
▁dama	-11.5529
mus	-11.5539
▁kara	-11.554
chum	-11.5541
nce	-11.5546
▁cooking	-11.5553
▁linger	-11.5557
witt	-11.556
che	-11.5563
▁humiliat	-11.5568
▁fre	-11.5568
▁emphasize	-11.5568
▁farming	-11.5569
▁finalize	-11.5574
▁nk	-11.5579
▁nash	-11.5585
scus	-11.5585
▁grandm	-11.5586
▁pave	-11.5602
▁bout	-11.5604
▁ci	-11.5608
▁foe	-11.5611
▁barak	-11.5618
▁scholars	-11.5642
▁pills	-11.5643
▁shocking	-11.5643
▁pl	-11.565
▁municipal	-11.5656
▁extremis	-11.5661
lena	-11.5668
▁accomplish	-11.5671
per	-11.5678
▁meh	-11.5685
set	-11.5687
ative	-11.5688
▁identifi	-11.5696
▁contents	-11.5699
ber	-11.5703
aw	-11.571
▁sta	-11.5712
▁stunn	-11.5715
▁sketch	-11.5718
nan	-11.572
▁seller	-11.5726
▁gene	-11.573
yman	-11.5738
place	-11.5748
▁maha	-11.5753
▁frost	-11.5755
▁prodi	-11.5757
▁les	-11.576
ponte	-11.5764
point	-11.5764
▁ministr	-11.5765
decided	-11.5768
ith	-11.5768
about	-11.5773
amine	-11.5773
▁courts	-11.578
▁explaining	-11.5782
folk	-11.5787
▁presid	-11.579
▁climber	-11.5793
▁coordinate	-11.5804
▁lean	-11.5804
▁rag	-11.5805
▁guatemala	-11.5809
▁romania	-11.5812
▁deport	-11.5814
▁ridicul	-11.5815
▁pond	-11.5821
▁rib	-11.5823
▁recess	-11.5826
▁imperial	-11.5828
▁column	-11.5828
cc	-11.5829
▁abrupt	-11.5829
▁intensify	-11.5829
nprofit	-11.5829
▁fragil	-11.5829
▁illicit	-11.5829
▁magistrate	-11.5829
▁pharmaceutical	-11.5829
▁portrait	-11.5829
▁sumatra	-11.5829
▁multinational	-11.5829
▁librar	-11.5829
▁provocative	-11.5829
▁negligen	-11.5829
▁recount	-11.5829
▁database	-11.5829
▁diminish	-11.5829
▁fitzg	-11.5829
▁frontrunner	-11.5829
▁perception	-11.5829
▁greenspan	-11.5829
▁millenni	-11.5829
▁levinson	-11.583
▁federline	-11.583
▁anxious	-11.583
▁dependent	-11.583
▁reception	-11.583
▁interstate	-11.583
▁rehab	-11.583
▁solomon	-11.5831
▁derail	-11.5831
▁informant	-11.5831
▁fantastic	-11.5831
▁ukrainian	-11.5832
▁interaction	-11.5833
▁serena	-11.5833
▁frustration	-11.5833
▁overweight	-11.5834
▁workplace	-11.5834
▁yale	-11.5834
▁cabin	-11.5834
▁wield	-11.5835
▁slavery	-11.5836
▁handgun	-11.5836
▁mccon	-11.5836
▁creator	-11.5836
▁interrupt	-11.5837
▁hick	-11.5837
▁quarte	-11.5838
▁hover	-11.584
▁disappointment	-11.5842
▁playoff	-11.5845
▁costume	-11.5847
▁showdown	-11.5848
▁nail	-11.5851
rod	-11.5853
mandu	-11.5854
▁val	-11.5856
▁preferr	-11.5858
▁kt	-11.5858
▁priorities	-11.5862
▁instruction	-11.5866
▁keat	-11.587
▁wii	-11.587
▁poster	-11.587
▁collins	-11.5872
▁leone	-11.5872
▁neal	-11.5873
▁rack	-11.5875
▁hid	-11.5875
▁batch	-11.5877
▁barely	-11.588
eng	-11.5887
▁economically	-11.5887
▁fal	-11.5893
ywhere	-11.5894
iling	-11.5899
▁procession	-11.5901
▁queens	-11.5905
▁conceded	-11.5907
▁bp	-11.5907
▁jun	-11.5909
▁vanco	-11.591
▁basin	-11.5916
▁performer	-11.5916
▁petro	-11.5919
▁lump	-11.592
▁veni	-11.5925
▁gorillas	-11.5933
▁beck	-11.5951
ira	-11.5955
▁filling	-11.5958
shima	-11.5965
▁ferrer	-11.5966
▁cannon	-11.5973
▁dig	-11.5974
▁casualt	-11.5979
▁horn	-11.598
▁nah	-11.5981
eera	-11.5987
▁allege	-11.599
▁addresses	-11.6
▁tone	-11.6004
▁koo	-11.6004
bound	-11.6007
▁tribe	-11.6008
▁arrangements	-11.6013
▁bog	-11.6014
▁ashle	-11.6015
xel	-11.6017
ives	-11.6021
▁smoker	-11.6029
▁uncertain	-11.6033
▁stalinis	-11.6035
▁adventure	-11.6037
▁str	-11.6039
▁launche	-11.6046
▁tag	-11.6053
ut	-11.6057
▁sens	-11.6066
▁topple	-11.6084
▁pit	-11.6085
▁observat	-11.6087
▁defi	-11.6087
▁triple	-11.6091
▁dorm	-11.6098
unes	-11.61
▁superb	-11.6101
▁hart	-11.6106
▁xu	-11.6108
▁bounce	-11.6112
▁wag	-11.6118
po	-11.6118
ww	-11.6122
zel	-11.6123
▁melan	-11.6131
▁spin	-11.6135
pp	-11.6136
▁skinn	-11.6137
lick	-11.6141
▁bust	-11.6146
▁postpon	-11.6146
▁execute	-11.6148
lima	-11.615
will	-11.6165
▁franchise	-11.6165
▁planner	-11.6172
▁buck	-11.6173
singh	-11.6197
▁wool	-11.6207
▁resemble	-11.6215
▁offend	-11.6218
▁staffer	-11.6223
▁bran	-11.6224
power	-11.623
▁ze	-11.6236
▁proven	-11.624
specifi	-11.6241
shift	-11.6244
▁zu	-11.6244
cna	-11.6252
▁memorab	-11.6253
▁greg	-11.6254
ot	-11.6264
▁wipe	-11.6265
▁goh	-11.6269
ancy	-11.6272
▁occasional	-11.6277
erran	-11.6284
▁ethiopia	-11.6287
▁valid	-11.6289
▁behead	-11.6289
scope	-11.6296
▁scrutin	-11.6297
▁categori	-11.6298
▁grip	-11.6298
▁contradict	-11.6299
▁forth	-11.6304
▁extract	-11.6305
pollo	-11.6305
▁artifact	-11.6305
▁battalion	-11.6305
▁cosmonaut	-11.6305
▁efficienc	-11.6305
▁excerpt	-11.6305
▁implant	-11.6305
▁inflict	-11.6305
▁merchant	-11.6305
▁quarantine	-11.6305
▁seafood	-11.6305
▁tycoon	-11.6305
▁anxiet	-11.6305
▁oxford	-11.6305
▁dentist	-11.6305
▁himalaya	-11.6305
▁mislead	-11.6305
▁persistent	-11.6305
▁unilateral	-11.6305
▁boulder	-11.6305
▁malawi	-11.6306
▁keith	-11.6306
▁brink	-11.6306
▁hispanic	-11.6306
▁flock	-11.6306
▁workforce	-11.6306
▁blake	-11.6306
▁dictatorship	-11.6306
▁bore	-11.6307
▁verification	-11.6307
▁cinema	-11.6307
▁piano	-11.6307
▁gibb	-11.6308
▁shwe	-11.6308
▁reinforcement	-11.6308
▁deportation	-11.6308
▁wander	-11.6308
▁foley	-11.6308
▁atleti	-11.6308
▁salarie	-11.6309
▁emanuel	-11.6309
▁fiction	-11.6309
aker	-11.631
▁basque	-11.631
▁logo	-11.6311
▁headache	-11.6312
▁soften	-11.6312
▁overlook	-11.6313
▁quest	-11.6313
▁va	-11.6314
berra	-11.6315
▁dragon	-11.6315
▁honey	-11.6316
▁facial	-11.6316
▁prediction	-11.6317
▁citi	-11.6317
▁rubber	-11.6318
▁auditor	-11.6318
tact	-11.6319
▁glad	-11.6321
▁staple	-11.6321
▁owen	-11.6322
rbach	-11.6325
gm	-11.6326
▁gallery	-11.6327
▁noise	-11.6328
▁pelo	-11.6328
▁franco	-11.6333
nintend	-11.6333
▁establishment	-11.6334
▁trac	-11.6335
▁expresse	-11.6335
▁pu	-11.6335
▁liais	-11.6335
▁timing	-11.6339
▁juror	-11.6343
▁qualifier	-11.6344
▁nec	-11.6346
▁fold	-11.6346
▁tender	-11.6346
onga	-11.6349
▁upgrade	-11.6355
▁seasonal	-11.6358
▁helpful	-11.6358
▁sharon	-11.6359
▁ark	-11.6366
aho	-11.6366
▁ol	-11.6368
rkele	-11.6368
▁utter	-11.6377
▁lucas	-11.6384
▁realiz	-11.6385
▁entitl	-11.6387
fc	-11.6391
▁claren	-11.6394
hi	-11.6399
▁accelerate	-11.6402
▁campaigner	-11.6403
▁caffein	-11.6403
▁fier	-11.6403
cade	-11.6405
▁yell	-11.6407
▁lawn	-11.6409
▁troph	-11.6413
aware	-11.6414
▁subsid	-11.6418
▁speculate	-11.6419
▁hacker	-11.642
hrai	-11.6421
con	-11.6424
▁conscien	-11.6426
om	-11.6427
mz	-11.6427
▁lak	-11.6429
▁tolerate	-11.643
▁winger	-11.6431
ethane	-11.6434
▁commodit	-11.6436
▁finals	-11.6441
▁nu	-11.6443
▁highlights	-11.6445
af	-11.6449
▁neo	-11.6451
▁ears	-11.6451
▁airliner	-11.6453
▁tongue	-11.6453
gang	-11.6454
yi	-11.6462
oma	-11.6467
▁intel	-11.6479
▁denounce	-11.648
ssif	-11.6481
▁raj	-11.6484
▁pirate	-11.6485
▁contender	-11.6485
▁layer	-11.6487
▁kg	-11.6488
▁plain	-11.6497
▁pic	-11.65
▁supervis	-11.6504
aki	-11.6505
▁captive	-11.6512
▁assurance	-11.6519
egu	-11.6522
bala	-11.6524
▁shipment	-11.6525
▁jimm	-11.6529
unch	-11.6531
▁trailer	-11.6533
▁skill	-11.6537
▁reinstate	-11.655
▁org	-11.6553
▁collaps	-11.6565
▁edit	-11.6566
etic	-11.6566
▁holed	-11.6567
▁confusi	-11.6574
▁slope	-11.6575
▁contaminat	-11.6581
▁nurs	-11.6585
▁provok	-11.6585
▁guarded	-11.6586
ud	-11.6589
▁sim	-11.6596
hen	-11.6599
▁franc	-11.6614
▁analyze	-11.6618
▁plains	-11.6632
▁stockpile	-11.6639
▁lover	-11.6639
▁explor	-11.665
hmer	-11.6654
▁wings	-11.6654
ston	-11.6654
▁seeming	-11.6656
▁enhanc	-11.6659
▁fur	-11.666
▁overwhelm	-11.6668
▁russe	-11.6674
▁stumbl	-11.6685
▁dell	-11.6705
▁hak	-11.6706
rway	-11.6709
▁mem	-11.6714
oming	-11.6719
▁vo	-11.672
gged	-11.6722
▁chronic	-11.6725
▁riders	-11.6727
▁dann	-11.6729
▁applau	-11.6731
▁hamburg	-11.6735
▁vin	-11.6736
▁necessar	-11.6738
▁societ	-11.6739
qaw	-11.6739
▁gro	-11.674
▁thi	-11.6743
planes	-11.6744
wealth	-11.6744
cheong	-11.6744
cha	-11.6747
ow	-11.6749
hand	-11.6755
▁rotat	-11.6755
ilia	-11.6756
rank	-11.6759
oka	-11.676
▁monet	-11.6764
map	-11.6765
▁foods	-11.6768
ndrome	-11.6776
▁watcher	-11.6782
▁bump	-11.6783
▁algeria	-11.6787
▁heir	-11.6789
▁significan	-11.679
▁authentic	-11.6791
enver	-11.6791
▁inject	-11.68
eon	-11.6804
▁ideolog	-11.6805
▁demilitariz	-11.6805
▁engulf	-11.6805
▁abraham	-11.6805
▁albatross	-11.6805
▁barricade	-11.6805
▁biofuel	-11.6805
▁calendar	-11.6805
▁gossip	-11.6805
▁juvenile	-11.6805
▁newcastle	-11.6805
▁prototype	-11.6805
▁stalemate	-11.6805
▁wheelchair	-11.6805
▁curator	-11.6805
▁exxon	-11.6805
▁lesbian	-11.6805
▁pretend	-11.6805
▁eleven	-11.6805
▁chapel	-11.6805
▁wrist	-11.6805
▁nickname	-11.6805
▁keynote	-11.6805
▁disclosure	-11.6805
▁trap	-11.6805
▁rogue	-11.6806
▁zheng	-11.6806
▁fiber	-11.6806
▁collaboration	-11.6806
▁vocal	-11.6806
▁calorie	-11.6807
bhumi	-11.6807
▁collar	-11.6807
▁revelation	-11.6807
▁beverage	-11.6808
▁snack	-11.6808
iora	-11.6808
▁gator	-11.6808
▁predator	-11.6809
▁cruel	-11.6809
▁instructor	-11.6809
▁bypass	-11.681
▁referee	-11.6811
▁contemporar	-11.6813
▁spouse	-11.6814
▁bias	-11.6814
▁cordon	-11.6814
▁barrage	-11.6814
▁youngster	-11.6815
▁medit	-11.6816
▁conservationist	-11.6816
▁lim	-11.6816
▁tenor	-11.6817
nin	-11.6818
▁confession	-11.6818
▁township	-11.6818
▁djo	-11.6818
▁acceptance	-11.6821
▁whipp	-11.6821
▁griffi	-11.6822
▁avert	-11.6822
▁kiev	-11.6823
▁inspiration	-11.6823
cular	-11.6826
▁jos	-11.6828
▁thriller	-11.6828
▁dealer	-11.6831
▁plume	-11.6836
▁readers	-11.6838
▁spann	-11.6839
itive	-11.6839
ate	-11.6842
▁ferrar	-11.6846
▁composer	-11.6848
ility	-11.685
ano	-11.6851
ket	-11.6854
▁motivat	-11.686
▁extraditi	-11.6864
▁phu	-11.6869
▁coerc	-11.6876
▁applaud	-11.6879
▁jp	-11.6881
bin	-11.6884
▁alma	-11.6887
▁bleed	-11.6893
▁evans	-11.6898
▁vincen	-11.6902
▁scuffle	-11.6903
▁sid	-11.6904
▁keeper	-11.6911
▁bidd	-11.6913
▁arabian	-11.6917
▁explore	-11.6922
ulous	-11.6927
▁ravag	-11.694
▁wip	-11.6942
▁dodge	-11.695
▁dwindl	-11.6954
▁laute	-11.6957
otic	-11.6976
▁underscore	-11.698
▁homicide	-11.6981
rosa	-11.6982
ula	-11.6984
▁blockbuster	-11.6985
▁prizes	-11.6987
▁monte	-11.6997
▁cartel	-11.6999
sef	-11.7001
ito	-11.7008
▁perin	-11.701
▁tapes	-11.7013
▁swear	-11.7013
▁torrent	-11.7017
▁extremist	-11.7019
▁napoli	-11.7032
▁math	-11.7034
▁bend	-11.7034
▁bet	-11.7035
▁por	-11.7038
ap	-11.7041
stitution	-11.7049
▁owe	-11.705
▁underst	-11.7056
▁tam	-11.7061
▁lander	-11.7061
▁chased	-11.7065
▁folk	-11.7067
▁companion	-11.7067
▁fann	-11.707
▁passports	-11.7072
▁pub	-11.7076
uda	-11.7084
nbar	-11.709
▁bros	-11.7092
▁claus	-11.7096
▁intelligent	-11.7098
▁espi	-11.7099
▁avail	-11.71
▁discs	-11.71
ill	-11.7102
▁comet	-11.7106
▁cycl	-11.711
used	-11.7123
▁depos	-11.7123
▁mann	-11.7126
kto	-11.7127
▁gad	-11.7132
lash	-11.7134
tano	-11.7137
veral	-11.7141
lloy	-11.7147
▁kay	-11.7152
▁troubles	-11.7154
▁thoughts	-11.7155
fa	-11.7155
▁tun	-11.7158
gb	-11.7161
▁den	-11.7162
▁scratch	-11.7162
shed	-11.7176
▁wheels	-11.7177
▁galla	-11.7184
▁horrifi	-11.719
▁amo	-11.7199
▁cord	-11.72
▁tune	-11.7207
▁entr	-11.7208
▁disk	-11.721
▁julia	-11.7214
▁bol	-11.7228
esi	-11.7233
▁depriv	-11.724
▁cope	-11.7242
▁erect	-11.7256
▁shoulders	-11.7269
▁lag	-11.7274
▁absolute	-11.7276
grid	-11.7281
ef	-11.7281
▁fla	-11.7282
▁physic	-11.7283
▁psychiatr	-11.7283
▁borne	-11.7289
▁bern	-11.7295
made	-11.7303
afa	-11.7304
▁bor	-11.7306
udh	-11.7307
▁jamaica	-11.7313
▁stir	-11.7313
what	-11.7314
▁haniy	-11.7315
▁lakes	-11.7317
▁dot	-11.7318
cute	-11.7319
▁restrain	-11.7319
▁pois	-11.7319
▁ignit	-11.732
▁spen	-11.7329
▁devot	-11.7331
▁unconditional	-11.7331
▁convincing	-11.7331
▁embargo	-11.7331
▁emperor	-11.7331
▁external	-11.7331
▁gorbachev	-11.7331
▁hectare	-11.7331
▁kangaroo	-11.7331
▁mechanism	-11.7331
▁parallel	-11.7331
▁perspective	-11.7331
▁rwanda	-11.7331
▁unauthori	-11.7331
▁unlawful	-11.7331
▁eacute	-11.7331
▁evangelical	-11.7331
▁jacob	-11.7331
▁parachute	-11.7331
▁technician	-11.7331
▁spree	-11.7332
▁bipartisan	-11.7332
▁robust	-11.7332
▁solving	-11.7332
▁miracle	-11.7332
▁steroid	-11.7332
▁cameroon	-11.7332
▁antiquit	-11.7332
▁clerk	-11.7332
▁evasion	-11.7332
▁confederation	-11.7332
▁spiral	-11.7332
▁unofficial	-11.7332
▁forensic	-11.7332
▁thunder	-11.7332
▁monaster	-11.7332
▁helmet	-11.7332
▁storage	-11.7332
▁premise	-11.7332
▁proclaim	-11.7332
▁consulate	-11.7332
▁differ	-11.7332
▁furni	-11.7332
▁lugo	-11.7333
▁comparison	-11.7333
▁lifestyle	-11.7333
▁supermarket	-11.7333
▁constructive	-11.7333
▁cough	-11.7333
▁maneuver	-11.7333
▁rhino	-11.7333
▁spider	-11.7334
▁meteorologist	-11.7334
▁valuable	-11.7334
▁manual	-11.7334
▁chadian	-11.7334
▁trump	-11.7335
▁salary	-11.7335
▁plug	-11.7336
▁spiel	-11.7336
▁cream	-11.7336
▁garner	-11.7337
▁cure	-11.7337
▁uncomm	-11.7337
▁picket	-11.7338
▁unbeat	-11.7338
▁downplay	-11.7338
▁coastline	-11.7338
▁lobbyist	-11.7339
arov	-11.7339
▁kasp	-11.734
▁therapist	-11.734
▁favorites	-11.7342
▁soap	-11.7343
▁privilege	-11.7343
▁foil	-11.7344
▁leaf	-11.7344
▁mullah	-11.7345
▁courthouse	-11.7347
▁bare	-11.7349
▁rim	-11.7352
▁jang	-11.7352
▁drift	-11.7354
kia	-11.7354
▁swat	-11.7355
▁hyper	-11.7355
▁bubble	-11.7357
▁doom	-11.7357
▁policymaker	-11.7358
▁gram	-11.736
▁trek	-11.7361
▁vick	-11.7362
▁leather	-11.7362
course	-11.7364
▁usher	-11.7368
▁carla	-11.7369
▁pancreati	-11.7369
▁lyon	-11.7371
▁gh	-11.7374
spoke	-11.7376
▁cheat	-11.7378
▁warhead	-11.7382
▁bru	-11.7384
▁charr	-11.7385
▁persi	-11.739
▁beache	-11.739
▁tail	-11.739
▁buyout	-11.7392
and	-11.7398
ai	-11.7404
▁infringe	-11.7404
tha	-11.7405
▁qala	-11.7407
▁colomb	-11.7413
▁gust	-11.7413
▁craz	-11.7415
▁mai	-11.7415
▁blues	-11.7416
lary	-11.7417
nder	-11.7422
▁micke	-11.7428
uki	-11.7429
▁andrea	-11.7436
▁karim	-11.744
▁destabilize	-11.744
▁bamb	-11.7442
▁interfer	-11.7457
▁hostilit	-11.7458
bs	-11.7462
▁soda	-11.7462
rin	-11.7466
tel	-11.7467
▁doo	-11.7469
▁costa	-11.7483
▁infections	-11.7483
hem	-11.7488
▁brake	-11.7497
▁regulate	-11.7513
▁helen	-11.7515
van	-11.7517
tina	-11.752
eong	-11.752
asha	-11.7523
▁acquir	-11.7527
▁emotions	-11.7529
▁assassinate	-11.7532
▁conventional	-11.7534
▁unhapp	-11.7535
▁carve	-11.7535
▁kissing	-11.7537
▁hood	-11.7538
ique	-11.7542
▁scholar	-11.7553
▁bayer	-11.7555
▁bent	-11.7556
nese	-11.7556
▁towers	-11.7556
▁pill	-11.7558
▁ful	-11.7561
bright	-11.7562
▁ensur	-11.7563
▁mus	-11.7575
▁evolv	-11.7579
▁fu	-11.7583
▁ivanov	-11.7588
▁solo	-11.759
afford	-11.7592
▁clippe	-11.7595
ock	-11.7601
uma	-11.7606
▁slowing	-11.7612
att	-11.7613
▁rud	-11.7621
▁breathe	-11.7623
schne	-11.7631
capri	-11.7634
ature	-11.7637
kov	-11.7645
ndra	-11.7647
▁shaf	-11.7648
▁cliff	-11.7655
▁roj	-11.7659
▁sore	-11.7662
ries	-11.7664
bon	-11.7666
▁compos	-11.7669
▁separat	-11.7671
▁qualifi	-11.7673
▁metro	-11.7683
▁excite	-11.7689
▁outbreaks	-11.7691
ire	-11.7693
▁snatch	-11.7693
▁educat	-11.7695
iers	-11.7697
break	-11.7708
ab	-11.7709
rative	-11.7711
▁winston	-11.7714
▁hoi	-11.772
▁seeker	-11.7723
ories	-11.7734
dominant	-11.7736
▁frighten	-11.7743
▁hom	-11.7745
▁revenues	-11.7746
dwin	-11.7749
▁amuse	-11.7759
▁assum	-11.776
▁henri	-11.7761
▁improvements	-11.7776
play	-11.7778
▁glove	-11.7782
sterda	-11.7785
▁mos	-11.7785
▁exception	-11.7787
ology	-11.7788
▁accelerat	-11.7789
▁substanti	-11.7789
▁munic	-11.779
▁philosoph	-11.7791
▁volcani	-11.7799
▁hoon	-11.7799
▁billy	-11.78
▁kor	-11.7803
grade	-11.7804
gio	-11.7812
bali	-11.7813
jab	-11.7824
▁assure	-11.7825
▁chok	-11.7825
▁cu	-11.7827
box	-11.7829
▁tipp	-11.783
uous	-11.7837
ife	-11.7843
▁graves	-11.7843
▁dish	-11.7846
▁scam	-11.785
▁debat	-11.7851
▁dodg	-11.7851
eful	-11.7851
cover	-11.7853
▁christin	-11.7859
ci	-11.7869
▁nichols	-11.7872
▁loya	-11.7873
ox	-11.7878
▁kumar	-11.788
▁doubl	-11.7885
▁veterinar	-11.7886
▁blank	-11.7887
▁compatriot	-11.7887
▁crawford	-11.7887
▁fatigue	-11.7887
▁immense	-11.7887
▁messenger	-11.7887
▁precinct	-11.7887
▁ritual	-11.7887
▁subpoena	-11.7887
▁athletic	-11.7887
▁bahrain	-11.7887
▁machete	-11.7887
▁mismanage	-11.7887
▁tikrit	-11.7887
▁reprocess	-11.7887
▁heaven	-11.7887
▁pandemic	-11.7887
▁adjourn	-11.7887
▁translator	-11.7887
▁wholesale	-11.7887
▁staunch	-11.7887
▁ailment	-11.7887
▁fabio	-11.7887
▁splash	-11.7887
▁defence	-11.7887
▁litvin	-11.7887
▁appall	-11.7887
▁lehman	-11.7887
▁norris	-11.7887
▁abdel	-11.7887
▁gauge	-11.7887
▁baggage	-11.7888
▁translation	-11.7888
▁feud	-11.7888
▁horror	-11.7888
▁jerem	-11.7888
▁reservation	-11.7888
▁jefferson	-11.7889
lroo	-11.7889
▁embark	-11.7889
▁landfall	-11.789
▁lavish	-11.789
▁crippl	-11.789
▁brent	-11.789
▁ancestor	-11.789
▁centimeter	-11.789
▁orchestrat	-11.789
▁cigar	-11.7891
▁francois	-11.7891
▁considerably	-11.7892
▁outrageous	-11.7892
▁newborn	-11.7893
▁distributor	-11.7893
▁sadden	-11.7893
▁miserable	-11.7893
▁mobil	-11.7893
esco	-11.7894
jeon	-11.7895
▁vary	-11.7895
▁weird	-11.7897
▁cruz	-11.7898
▁nike	-11.7898
▁transformation	-11.7898
▁boot	-11.7899
▁hardship	-11.7899
▁chimp	-11.79
▁seminar	-11.79
▁complication	-11.79
▁alcoholic	-11.79
▁backward	-11.7901
▁marij	-11.7901
▁nh	-11.7902
▁tick	-11.7902
▁nichol	-11.7902
bane	-11.7903
▁sicken	-11.7904
thy	-11.7906
▁detector	-11.7908
▁hog	-11.7909
▁forgot	-11.791
▁festiv	-11.7916
▁spectators	-11.7917
dorf	-11.7921
▁jaw	-11.7924
▁temp	-11.7926
onda	-11.7929
▁dod	-11.793
yushch	-11.7931
▁liga	-11.7932
▁chau	-11.7934
▁inning	-11.7935
▁capitalist	-11.7937
▁stricke	-11.794
▁lynn	-11.7941
▁stair	-11.7947
mont	-11.7947
▁trainer	-11.7955
▁hook	-11.7956
▁collid	-11.7956
▁roller	-11.7958
mates	-11.7967
him	-11.7968
▁prop	-11.7971
▁liqu	-11.7976
rine	-11.7976
▁bart	-11.7987
▁pric	-11.799
▁kean	-11.7991
claren	-11.7992
▁graz	-11.801
▁irritat	-11.8016
▁smuggle	-11.8016
▁independents	-11.8017
▁prey	-11.8019
▁odi	-11.8023
▁skipp	-11.8033
lese	-11.8035
▁penguins	-11.8035
▁sai	-11.8053
ped	-11.8054
ision	-11.8055
▁detonate	-11.8056
phis	-11.8056
tting	-11.806
▁marin	-11.8068
ge	-11.807
eh	-11.8071
▁gamba	-11.8072
▁qud	-11.8076
▁snapp	-11.8079
▁chae	-11.8086
▁floren	-11.8088
▁doll	-11.8089
ks	-11.809
olmer	-11.8099
▁analyz	-11.81
▁serial	-11.8102
▁cred	-11.8106
▁trauma	-11.8111
▁dear	-11.8111
▁lashe	-11.8122
▁wise	-11.8127
jani	-11.8129
descent	-11.8129
▁donat	-11.8148
▁disc	-11.8154
▁toppl	-11.816
▁expose	-11.8161
▁sacred	-11.8163
▁gill	-11.8163
▁unifi	-11.8167
mun	-11.8177
▁relocate	-11.818
▁mour	-11.8182
▁outage	-11.8185
▁consolidat	-11.8193
▁lucian	-11.8202
▁bot	-11.8207
▁pak	-11.8207
▁hut	-11.8209
▁ivan	-11.8218
▁armis	-11.8218
▁brac	-11.8219
▁invade	-11.8226
▁clap	-11.8226
vich	-11.8226
tta	-11.8237
▁internationally	-11.8238
▁cancell	-11.8244
ise	-11.8252
tis	-11.8257
▁interfere	-11.8259
ize	-11.8263
▁facilitate	-11.8266
adic	-11.827
rous	-11.8273
print	-11.8277
▁lovers	-11.8289
▁kb	-11.8293
▁cott	-11.8295
▁dose	-11.8298
▁bre	-11.8305
▁barks	-11.8307
▁dissolve	-11.8307
▁juli	-11.8322
jo	-11.8327
ement	-11.833
▁distinct	-11.833
sud	-11.833
▁renounce	-11.8344
▁edg	-11.8345
nc	-11.8349
ac	-11.8356
eira	-11.8359
▁candle	-11.836
inous	-11.8363
atic	-11.8366
tech	-11.8376
▁kn	-11.8381
▁intimidat	-11.8388
▁sensation	-11.839
acas	-11.839
▁sci	-11.8403
ima	-11.8407
fi	-11.8412
▁char	-11.8412
▁concede	-11.8414
scale	-11.8417
trick	-11.8424
▁comput	-11.8425
▁chuck	-11.8426
aron	-11.8431
ide	-11.8432
▁valen	-11.8436
ky	-11.8447
▁hari	-11.8454
▁bruis	-11.8455
▁nominate	-11.8456
ecd	-11.8457
▁kh	-11.8458
mmy	-11.8461
▁bands	-11.8463
▁clemen	-11.8463
uana	-11.8465
▁serv	-11.8466
▁jams	-11.8467
▁distort	-11.847
▁porn	-11.847
▁dissatisf	-11.8475
▁archipelag	-11.8475
▁hamilton	-11.8475
▁integrity	-11.8475
▁jupiter	-11.8475
▁mbeki	-11.8475
▁reconsider	-11.8475
▁skyscraper	-11.8475
▁technological	-11.8475
▁dynast	-11.8475
▁firearm	-11.8475
▁pedestrian	-11.8475
▁quebec	-11.8475
▁cemeter	-11.8475
▁dormitor	-11.8475
▁tariff	-11.8475
▁improper	-11.8475
▁delicate	-11.8475
▁humpback	-11.8475
▁renown	-11.8475
▁dmitr	-11.8475
▁foreclosure	-11.8475
▁gloom	-11.8475
▁filipino	-11.8475
▁luft	-11.8475
▁definitive	-11.8475
▁clown	-11.8475
▁rhythm	-11.8476
▁ditch	-11.8476
▁noodle	-11.8476
▁safeguard	-11.8476
▁stint	-11.8476
▁slaying	-11.8476
▁theatre	-11.8476
▁globo	-11.8476
▁falter	-11.8476
▁armenian	-11.8476
▁adj	-11.8476
▁darling	-11.8476
▁commentator	-11.8476
▁disband	-11.8476
▁advertisement	-11.8477
orenst	-11.8477
▁hutchins	-11.8477
▁ste	-11.8477
▁yoko	-11.8478
▁forthcoming	-11.8478
▁jacket	-11.8478
▁peta	-11.8478
▁absorb	-11.8478
▁gangster	-11.8479
▁floodwater	-11.8479
▁feat	-11.848
▁fritz	-11.848
uver	-11.848
▁dignitar	-11.848
niste	-11.8481
▁persist	-11.8481
▁installment	-11.8482
▁alvar	-11.8482
▁davyd	-11.8482
▁waiver	-11.8482
▁kaka	-11.8483
▁xp	-11.8483
▁canyon	-11.8483
▁canoe	-11.8484
▁checkup	-11.8485
▁reef	-11.8485
vinen	-11.8485
▁zahi	-11.8485
▁liberia	-11.8486
▁sheik	-11.8486
▁defiant	-11.8486
▁memo	-11.8486
▁gripp	-11.8487
▁carriage	-11.8488
▁magnetic	-11.8489
acent	-11.849
▁sampl	-11.8491
▁scientolog	-11.8491
▁roland	-11.8493
▁sultan	-11.8495
▁scorch	-11.8495
▁homeowner	-11.8498
▁console	-11.8499
▁kook	-11.8499
rasmus	-11.85
zvo	-11.85
▁baton	-11.85
▁passionate	-11.8502
▁woke	-11.8502
▁cake	-11.8504
▁jem	-11.8504
▁boil	-11.8507
luster	-11.8511
▁pra	-11.8512
▁buffet	-11.8515
▁verifi	-11.8516
▁khala	-11.8518
bye	-11.8518
▁stranger	-11.8521
▁spat	-11.8522
▁sau	-11.8523
▁vanish	-11.8524
▁lawless	-11.8531
oi	-11.8536
▁depressed	-11.855
ochi	-11.8551
cent	-11.8552
▁samba	-11.8553
nnie	-11.8559
▁blackout	-11.8566
fax	-11.8567
▁perch	-11.8567
yuz	-11.8567
ailing	-11.8568
state	-11.8579
ix	-11.8588
▁inhal	-11.8596
ference	-11.8599
▁um	-11.86
vin	-11.8603
ulu	-11.8616
▁merit	-11.8617
▁orient	-11.862
▁masa	-11.8625
▁starv	-11.8625
▁snap	-11.8639
ink	-11.8643
pe	-11.8651
▁precedent	-11.8652
▁males	-11.8659
▁rem	-11.8659
aria	-11.8664
riel	-11.8667
▁vaccines	-11.8668
▁recommends	-11.8674
▁butter	-11.8674
▁rust	-11.8675
▁jud	-11.8675
▁rage	-11.8678
ua	-11.8682
▁bury	-11.8683
▁aut	-11.8687
lit	-11.8707
▁cre	-11.8709
napoli	-11.8716
wick	-11.8717
▁receiver	-11.8719
▁bounc	-11.8723
pate	-11.8726
▁sala	-11.8731
nnis	-11.8733
▁blade	-11.8739
▁pine	-11.8744
▁donate	-11.8748
▁rub	-11.8751
▁partisan	-11.8752
▁fuse	-11.8752
▁sue	-11.8753
▁provoke	-11.8755
▁credibl	-11.8755
ateur	-11.8757
▁manufacture	-11.8759
ram	-11.8763
▁suz	-11.8763
▁retract	-11.8764
ition	-11.8764
▁funn	-11.8766
▁pedr	-11.8771
▁mates	-11.8775
och	-11.8775
▁morocc	-11.8779
▁stabiliz	-11.8786
▁attribute	-11.8788
▁lighter	-11.8791
oria	-11.8793
▁corre	-11.8794
▁cris	-11.88
▁squeez	-11.8801
▁corpse	-11.8805
rwin	-11.8807
lan	-11.8809
riza	-11.8816
▁kyong	-11.8816
▁serie	-11.8818
ax	-11.8824
▁complicate	-11.8825
▁undermin	-11.8841
▁bash	-11.8848
▁elector	-11.8859
▁mari	-11.8859
▁entit	-11.8868
▁donation	-11.8876
▁iranians	-11.8883
zi	-11.8885
nstein	-11.8903
▁lett	-11.8904
▁holm	-11.8912
▁maru	-11.8917
▁arch	-11.8926
▁berk	-11.8932
awa	-11.8935
ngdu	-11.8939
hang	-11.8939
▁initiat	-11.8946
▁lunche	-11.8948
▁ruins	-11.8951
old	-11.896
gar	-11.8961
▁accessor	-11.8961
▁genom	-11.8964
sang	-11.8969
▁mario	-11.897
formed	-11.8977
▁kel	-11.8981
▁ruth	-11.8984
odor	-11.8992
▁levi	-11.9
▁blackmail	-11.9004
▁dip	-11.9009
▁default	-11.902
▁persuad	-11.9022
▁emm	-11.9025
▁gigg	-11.9026
▁intentional	-11.9027
▁arl	-11.9027
▁beard	-11.9034
beat	-11.9034
▁compil	-11.9035
▁boycotted	-11.9036
continent	-11.9039
constitutional	-11.9039
deal	-11.9042
▁correction	-11.9044
▁admitt	-11.9044
▁cana	-11.9047
▁skip	-11.9051
▁desir	-11.9057
nom	-11.906
stair	-11.9068
▁fundrais	-11.908
due	-11.9081
uart	-11.9082
▁capita	-11.9087
▁shower	-11.9089
anana	-11.9094
eval	-11.9096
▁conspir	-11.9097
▁archbishop	-11.91
▁azerbaijan	-11.91
▁centrifuge	-11.91
▁defensive	-11.91
▁diarrhea	-11.91
▁eagle	-11.91
▁explicit	-11.91
▁fragment	-11.91
▁mosquito	-11.91
▁nutrient	-11.91
▁paramilitar	-11.91
▁sanctuar	-11.91
▁temblor	-11.91
▁wizard	-11.91
▁corridor	-11.91
▁exaggerat	-11.91
▁sculpture	-11.91
▁surname	-11.91
▁unearth	-11.91
▁mogul	-11.91
▁vendor	-11.91
▁abnormal	-11.91
▁resurgen	-11.91
▁veer	-11.91
▁overheat	-11.91
▁standstill	-11.91
▁inherit	-11.91
▁submarine	-11.91
▁justify	-11.91
▁dynamic	-11.91
▁provocation	-11.91
▁reunion	-11.91
▁textile	-11.9101
▁chemist	-11.9101
▁roadblock	-11.9101
▁rooftop	-11.9101
▁skeleton	-11.9101
▁excellent	-11.9101
▁overshadow	-11.9101
▁siberia	-11.9101
▁elegan	-11.9101
▁annul	-11.9101
▁rebuke	-11.9101
▁heavyweight	-11.9101
▁abram	-11.9101
▁stump	-11.9101
▁felon	-11.9101
▁meltdown	-11.9101
▁facto	-11.9101
▁halloween	-11.9101
▁hanaro	-11.9102
atero	-11.9102
▁description	-11.9102
▁enron	-11.9102
▁feather	-11.9102
▁robinson	-11.9102
▁orientation	-11.9102
ew	-11.9102
▁estrange	-11.9102
▁leverage	-11.9102
▁courageous	-11.9103
▁overdose	-11.9103
▁rejoin	-11.9103
▁gerald	-11.9103
▁disturbance	-11.9103
▁notify	-11.9104
▁conner	-11.9104
▁interactive	-11.9104
▁cur	-11.9104
▁blacksburg	-11.9105
▁deterrent	-11.9105
▁shortfall	-11.9105
▁kirk	-11.9106
▁coloss	-11.9108
▁breakdown	-11.9109
▁foul	-11.911
▁moroccan	-11.9111
▁dismissal	-11.9111
▁nile	-11.9113
▁zambia	-11.9114
nam	-11.9114
▁ryo	-11.9115
▁reassure	-11.9116
▁crest	-11.9116
▁portrayal	-11.9117
▁reap	-11.9119
▁fledg	-11.912
▁yemeni	-11.912
▁anymore	-11.9123
▁budd	-11.9124
▁algerian	-11.9124
▁slapp	-11.9125
▁collide	-11.9127
▁fisheries	-11.9129
▁pleasure	-11.913
▁bris	-11.9133
▁horribl	-11.9142
▁assembl	-11.9142
▁plantation	-11.9143
▁mineral	-11.9148
▁bund	-11.9148
▁max	-11.9149
▁qara	-11.9151
▁patch	-11.9151
▁valentin	-11.9152
▁rever	-11.9152
▁wishes	-11.9156
▁ghan	-11.9159
idf	-11.9161
▁vera	-11.9161
▁showcase	-11.9166
▁moss	-11.9167
▁mint	-11.9168
▁motivation	-11.9171
shmi	-11.9171
▁maul	-11.9173
▁zay	-11.9182
▁valeri	-11.9183
▁walkout	-11.9186
▁reel	-11.9187
▁gue	-11.9195
rimp	-11.9196
▁yass	-11.9199
▁tackl	-11.9202
▁burk	-11.9206
uc	-11.9207
▁particles	-11.9208
▁klo	-11.9208
diaz	-11.9213
▁deb	-11.9222
▁forbidd	-11.9222
▁exceptional	-11.9236
vian	-11.9237
▁ros	-11.924
▁nano	-11.9243
▁cle	-11.9243
▁sabotage	-11.9249
▁inflammat	-11.9249
▁naf	-11.925
▁stoke	-11.9259
▁hilar	-11.9273
errill	-11.9274
▁emergenc	-11.9282
▁leaning	-11.9285
coni	-11.9291
we	-11.93
▁barb	-11.9307
▁zin	-11.9308
dson	-11.9312
uso	-11.9321
▁listing	-11.9322
▁cheon	-11.9338
▁dome	-11.9346
▁congratulate	-11.9348
▁sword	-11.9352
▁waterway	-11.936
cca	-11.9365
▁invad	-11.9377
▁tortur	-11.9384
nver	-11.9389
ilo	-11.9395
▁bernie	-11.9395
▁squeeze	-11.9409
▁fog	-11.9409
▁maure	-11.9409
▁tian	-11.9416
action	-11.9417
anda	-11.9419
ylan	-11.9426
▁pod	-11.9428
ken	-11.9433
▁clan	-11.9434
unt	-11.9437
▁relation	-11.9442
pi	-11.9444
▁robbe	-11.9444
▁zo	-11.9445
eparation	-11.9445
▁lap	-11.9451
▁outlet	-11.9457
▁pap	-11.9471
hk	-11.9471
▁tier	-11.9472
▁rand	-11.948
ik	-11.9487
rek	-11.9489
chen	-11.9495
▁pale	-11.9496
▁mandel	-11.9496
ali	-11.9503
▁reinforce	-11.9513
▁hano	-11.9514
▁recogniz	-11.9515
ovic	-11.9528
italia	-11.9532
take	-11.9536
▁tan	-11.9541
▁naga	-11.9541
teau	-11.9544
▁para	-11.9544
▁crumbl	-11.9545
▁dependenc	-11.9546
▁repli	-11.9546
▁tur	-11.9547
aiss	-11.9564
▁zi	-11.9572
▁arise	-11.9572
▁deer	-11.9578
▁reliev	-11.958
mble	-11.9583
zawa	-11.9583
▁eva	-11.9585
law	-11.9588
kawa	-11.9592
▁reliabl	-11.9597
▁todd	-11.961
earby	-11.9614
ica	-11.9617
▁wilder	-11.9618
▁za	-11.9619
▁motivate	-11.962
▁stabb	-11.9628
pping	-11.9632
related	-11.9635
▁pas	-11.9636
bes	-11.9647
ite	-11.9647
▁balk	-11.9652
▁crist	-11.9655
▁litter	-11.9656
ngue	-11.9659
alkati	-11.9662
are	-11.9675
abel	-11.9679
kind	-11.968
▁exo	-11.9687
▁wie	-11.9691
▁stre	-11.9691
secretary	-11.9706
▁killers	-11.9712
▁neuro	-11.9717
▁cy	-11.9719
▁hal	-11.9721
▁territori	-11.9723
▁hawkin	-11.973
reze	-11.9732
▁polit	-11.9741
▁papa	-11.9745
▁bless	-11.9748
▁bulgaria	-11.9748
▁drinker	-11.9755
rada	-11.976
▁heath	-11.9762
▁spawn	-11.9762
iquit	-11.9764
▁merc	-11.9765
▁orphan	-11.9765
lihood	-11.9765
▁aggravat	-11.9766
hansa	-11.9766
▁charisma	-11.9767
▁accumulate	-11.9767
▁affidavit	-11.9767
▁barclay	-11.9767
▁charlotte	-11.9767
▁malfunction	-11.9767
▁nephew	-11.9767
▁paraguay	-11.9767
▁precondition	-11.9767
▁sanchez	-11.9767
▁unleash	-11.9767
▁unnecessar	-11.9767
▁bystander	-11.9767
▁reshuffl	-11.9767
▁vomit	-11.9767
▁gorge	-11.9767
▁pneum	-11.9767
▁sherpa	-11.9767
▁thumb	-11.9767
▁vinci	-11.9767
▁johansson	-11.9767
▁minimiz	-11.9767
▁warlord	-11.9767
▁minimal	-11.9767
▁enlist	-11.9767
▁grocer	-11.9767
▁memoir	-11.9767
▁lawrence	-11.9767
▁redeployment	-11.9768
▁coffin	-11.9768
▁email	-11.9768
▁blacklist	-11.9768
▁clamp	-11.9768
▁orphanage	-11.9769
▁garrison	-11.9769
▁spacewalk	-11.9769
▁stroll	-11.9769
▁roam	-11.9769
▁spotlight	-11.9769
▁adolescent	-11.977
▁bennett	-11.977
▁swamp	-11.9771
▁verbal	-11.9771
▁derby	-11.9771
▁pilgrimage	-11.9772
▁peel	-11.9772
▁scal	-11.9772
▁scout	-11.9772
▁regiment	-11.9773
▁cramp	-11.9773
▁inevitabl	-11.9773
aah	-11.9773
▁martial	-11.9773
▁migration	-11.9774
wi	-11.9774
▁lenient	-11.9775
▁battlefield	-11.9775
▁luther	-11.9776
▁chopper	-11.9776
▁benoi	-11.9777
dysse	-11.9777
▁zeb	-11.9778
▁pur	-11.9778
▁hideout	-11.9779
▁nutrition	-11.978
▁hinder	-11.978
▁wagon	-11.9781
▁barney	-11.9781
▁matchup	-11.9781
▁farmland	-11.9782
▁rental	-11.9788
▁classmate	-11.9788
▁tenth	-11.9792
▁jogg	-11.9796
▁olive	-11.9796
▁brewer	-11.9797
▁swam	-11.9797
▁hugh	-11.9798
▁amber	-11.9798
▁outlin	-11.9802
▁masse	-11.9805
▁meyer	-11.9806
▁feli	-11.9806
▁fried	-11.9807
▁swarm	-11.9808
▁teach	-11.9809
eaten	-11.981
▁exercis	-11.981
▁pot	-11.981
▁thorn	-11.981
▁ameli	-11.9814
▁reiterate	-11.9815
▁cox	-11.982
▁devote	-11.9821
▁reminder	-11.9822
pisco	-11.9828
▁grove	-11.9829
▁extradit	-11.9833
▁rout	-11.9833
▁impressed	-11.9833
▁cove	-11.9834
▁stray	-11.9834
iko	-11.9835
▁eco	-11.9836
▁interviewer	-11.9836
▁rupe	-11.9838
▁compile	-11.9838
▁soak	-11.984
▁doming	-11.9841
▁wrestl	-11.9847
▁raft	-11.9851
▁provisional	-11.9851
▁reminiscen	-11.9852
ague	-11.9852
▁gra	-11.9853
▁freezer	-11.9853
▁reproducti	-11.9856
▁interven	-11.9859
▁gere	-11.9861
▁industrializ	-11.9862
▁nabi	-11.9863
▁mag	-11.9864
rgency	-11.9867
▁pesh	-11.987
maker	-11.9872
▁salam	-11.9879
aire	-11.9882
▁vip	-11.9884
▁nap	-11.9887
▁bri	-11.9887
▁stirring	-11.9889
▁refiner	-11.9889
crates	-11.9897
▁builder	-11.9899
▁stimulate	-11.9901
▁tide	-11.9902
yev	-11.9903
▁defuse	-11.9908
▁mobiliz	-11.991
▁bureaucrat	-11.991
▁ger	-11.9911
▁esta	-11.9912
▁raz	-11.9913
▁wei	-11.9916
▁mason	-11.9921
▁quota	-11.9923
ied	-11.9929
oval	-11.9929
irming	-11.9933
▁accommodate	-11.9935
▁ip	-11.9939
▁hijacker	-11.994
ji	-11.994
▁nett	-11.9945
thur	-11.9954
▁dash	-11.9957
diac	-11.996
iffe	-11.9961
ery	-11.9961
zemi	-11.9971
▁xi	-11.9971
▁resistan	-11.9974
agen	-11.9991
▁adel	-11.9994
▁rode	-12.0006
▁fey	-12.0011
▁machi	-12.0012
ires	-12.0014
nis	-12.0015
▁hen	-12.0016
▁rec	-12.0016
▁reviews	-12.0021
inal	-12.0025
▁gum	-12.0029
▁daw	-12.0036
▁pul	-12.0037
▁xian	-12.0039
▁hy	-12.004
▁destructi	-12.0041
bert	-12.0044
eigh	-12.0047
battle	-12.0063
sman	-12.0064
▁disciplin	-12.0066
eba	-12.0078
uz	-12.0079
▁clause	-12.008
▁kati	-12.0085
▁lago	-12.0086
sule	-12.0087
▁casp	-12.0088
▁fascinat	-12.0098
gue	-12.0098
▁suite	-12.01
▁zhu	-12.0106
nction	-12.0116
ti	-12.0119
▁spect	-12.012
acks	-12.0125
▁kan	-12.0131
hry	-12.0132
▁enabl	-12.0134
▁marco	-12.0135
▁hend	-12.014
▁concentrat	-12.0141
▁prosecut	-12.0144
▁viag	-12.0145
▁credi	-12.0146
sif	-12.0149
▁resource	-12.0153
▁seo	-12.0153
▁advisors	-12.0155
▁timo	-12.0157
▁crossings	-12.0175
tun	-12.0181
▁quantit	-12.0182
▁closet	-12.0184
op	-12.0192
▁sanit	-12.0198
chon	-12.0198
▁anticipate	-12.0203
▁periodic	-12.0204
▁kwan	-12.0207
lula	-12.0221
▁mm	-12.0221
yu	-12.0222
▁finn	-12.0222
▁casual	-12.0229
▁dav	-12.0239
▁yama	-12.0242
▁wil	-12.0242
▁lis	-12.0249
ft	-12.0249
▁fam	-12.0252
enna	-12.0253
lain	-12.0255
ark	-12.0267
▁roo	-12.0268
▁belly	-12.0268
reva	-12.027
▁sag	-12.0271
▁morale	-12.0271
▁calculate	-12.0281
hita	-12.0292
▁insider	-12.0302
▁appreciat	-12.0316
onso	-12.0316
▁supervisi	-12.0323
voi	-12.0324
▁duja	-12.0326
▁cal	-12.0327
▁jav	-12.0328
▁jess	-12.0332
▁trapp	-12.0333
▁translate	-12.0361
▁compensate	-12.0361
▁embezzl	-12.0365
▁clutch	-12.0366
▁vil	-12.0368
▁vacan	-12.0372
▁integrate	-12.0382
▁firefight	-12.0383
▁proportion	-12.0397
fan	-12.04
immer	-12.0404
▁von	-12.0405
tana	-12.0415
gate	-12.0416
drop	-12.0418
frame	-12.042
model	-12.042
together	-12.042
morning	-12.042
morgan	-12.0423
▁blend	-12.0428
▁banker	-12.0429
gomer	-12.0431
▁domini	-12.0433
▁continuous	-12.0433
▁prest	-12.0436
▁deserves	-12.0443
stability	-12.0446
▁shau	-12.0446
kins	-12.0447
▁extinguish	-12.0448
ologist	-12.0451
▁tele	-12.0452
▁heel	-12.0454
▁mediate	-12.0456
ffen	-12.0456
roads	-12.0464
▁reluctan	-12.0465
heim	-12.0466
▁envelope	-12.0468
▁ib	-12.0468
▁laund	-12.0474
▁buff	-12.0475
▁evacu	-12.0477
▁corrupt	-12.0478
▁abdulla	-12.0479
fo	-12.0479
▁pediatric	-12.048
has	-12.0481
▁acclaim	-12.0481
▁clarify	-12.0481
▁convenience	-12.0481
▁evident	-12.0481
▁fugitive	-12.0481
▁gondola	-12.0481
▁jaguar	-12.0481
▁jurisdiction	-12.0481
▁lithuania	-12.0481
▁mathematic	-12.0481
▁motorbike	-12.0481
▁ossuar	-12.0481
▁rainforest	-12.0481
▁rendition	-12.0481
▁ritchie	-12.0481
▁salvador	-12.0481
▁specify	-12.0481
▁curtain	-12.0481
▁fortunate	-12.0481
▁relegat	-12.0481
▁telegraph	-12.0481
▁dupre	-12.0481
▁erotic	-12.0481
▁superstar	-12.0481
▁muhammad	-12.0481
▁gilbert	-12.0481
▁blanchett	-12.0481
▁freud	-12.0481
▁hajj	-12.0481
▁envision	-12.0481
▁emmanuel	-12.0482
▁cyberspace	-12.0482
▁throng	-12.0482
▁expulsion	-12.0482
▁ceasefire	-12.0482
kin	-12.0482
▁eduard	-12.0482
▁hoop	-12.0482
▁crab	-12.0482
▁thieves	-12.0483
▁annoy	-12.0483
▁tread	-12.0483
▁physicist	-12.0483
▁imagination	-12.0483
▁exert	-12.0483
▁volley	-12.0483
misunderstanding	-12.0483
▁motel	-12.0483
▁frantic	-12.0483
▁perpetrator	-12.0483
▁footprint	-12.0483
▁elbow	-12.0483
▁imam	-12.0484
▁nickel	-12.0484
▁collaborator	-12.0484
▁phrase	-12.0484
▁zebra	-12.0484
▁shunn	-12.0485
▁ideological	-12.0485
▁invention	-12.0485
▁fool	-12.0485
▁racist	-12.0485
▁systematic	-12.0485
▁jihadist	-12.0486
▁thigh	-12.0487
▁aisle	-12.0487
▁adaptation	-12.0487
▁fundamentalist	-12.0487
▁pupp	-12.0488
▁swimmer	-12.0488
▁normalization	-12.0489
▁peek	-12.0489
▁interpretation	-12.049
▁nightmare	-12.049
▁multimillion	-12.049
▁billboard	-12.0491
▁deaf	-12.0491
▁tran	-12.0492
▁emitt	-12.0492
▁baptist	-12.0494
▁authoritarian	-12.0494
▁refineries	-12.0495
guet	-12.0496
▁foment	-12.0496
▁sulli	-12.0496
▁steelers	-12.0498
▁trench	-12.05
▁shootout	-12.0501
ritis	-12.0501
▁wrestler	-12.0501
▁spaceship	-12.0505
asso	-12.0505
▁jamaican	-12.0507
▁hogan	-12.051
▁colli	-12.0512
▁ridge	-12.0513
▁combatant	-12.0513
▁everton	-12.0514
una	-12.0515
▁oz	-12.0515
▁molest	-12.0516
▁irra	-12.0516
▁crane	-12.0516
▁versa	-12.0519
▁incit	-12.0519
▁conductor	-12.0521
▁adventurer	-12.0522
▁libi	-12.0522
▁skidd	-12.0529
▁governors	-12.0532
▁succession	-12.0535
▁decent	-12.0537
uez	-12.0541
▁seinfeld	-12.0543
▁defy	-12.0545
▁darre	-12.0546
▁indirect	-12.0547
▁mock	-12.0548
atus	-12.0549
text	-12.0552
▁dipped	-12.0554
▁philipp	-12.0562
▁enthusiastic	-12.0568
errez	-12.0573
▁wong	-12.0574
▁lexi	-12.0577
emptive	-12.0586
▁shre	-12.0588
ake	-12.0589
▁fosse	-12.0589
ore	-12.0595
▁charl	-12.0598
▁finalists	-12.0603
▁lah	-12.0604
▁paradi	-12.0611
▁humane	-12.0612
▁creditor	-12.0616
thic	-12.0616
▁geo	-12.0616
▁clone	-12.0618
▁hik	-12.0619
▁alme	-12.0621
▁packs	-12.0622
▁pir	-12.0622
lis	-12.0625
aewoo	-12.0627
▁stil	-12.0633
▁fend	-12.0634
▁slice	-12.0634
▁stam	-12.0638
▁offset	-12.064
▁minded	-12.0643
xis	-12.0644
safe	-12.0645
▁secretari	-12.0647
▁revers	-12.065
▁bir	-12.0654
▁bro	-12.0654
▁decorat	-12.066
▁tile	-12.0668
▁dancer	-12.067
toff	-12.0673
aved	-12.0674
nants	-12.0678
▁exhaust	-12.0698
▁bucking	-12.0699
ue	-12.0703
▁stevens	-12.0703
▁enforc	-12.0704
ico	-12.0712
▁slashing	-12.0719
▁audiences	-12.072
fraction	-12.072
▁gunfi	-12.0723
▁scho	-12.0723
ussi	-12.0725
▁sund	-12.0727
▁plagu	-12.0727
▁yun	-12.0728
▁uphold	-12.0731
▁sup	-12.0738
▁dori	-12.0739
▁lan	-12.074
awar	-12.0741
▁regrett	-12.0741
▁claudi	-12.0748
istic	-12.075
▁communicat	-12.075
ears	-12.0754
diane	-12.076
▁lal	-12.0761
▁mul	-12.0762
▁paw	-12.077
anxi	-12.0778
than	-12.0782
▁qui	-12.079
▁integrati	-12.0795
▁deplor	-12.0803
ehan	-12.0808
▁retaliat	-12.0809
pot	-12.0812
▁pett	-12.0816
pl	-12.0819
▁underline	-12.0826
▁kas	-12.0828
▁estra	-12.0844
abo	-12.0847
▁armi	-12.0851
▁robin	-12.0859
▁dive	-12.0862
bola	-12.0864
▁gard	-12.0866
▁pizz	-12.0877
▁interrogat	-12.0883
▁hatch	-12.0883
▁tumble	-12.0894
ersen	-12.0894
▁webb	-12.0901
▁gamble	-12.0904
▁hungar	-12.0905
▁kha	-12.0908
tte	-12.0909
illa	-12.0914
gs	-12.0918
▁participati	-12.0921
▁vent	-12.0924
▁jitter	-12.0939
▁fle	-12.094
zone	-12.094
▁burt	-12.0945
illy	-12.0949
▁shout	-12.0955
▁mcc	-12.0964
▁stat	-12.0964
▁forge	-12.0969
▁ic	-12.097
▁nawa	-12.0974
ites	-12.0986
horn	-12.0994
▁transmitt	-12.0995
▁malign	-12.0996
glasses	-12.0996
▁coaster	-12.1001
▁rocker	-12.1016
▁lang	-12.1021
▁gag	-12.1028
▁alg	-12.1042
tice	-12.1056
▁chatt	-12.1059
▁cro	-12.1061
▁log	-12.1065
egas	-12.1066
▁origins	-12.1066
▁patt	-12.1068
▁jab	-12.1075
▁harle	-12.1078
ahn	-12.108
▁prescrib	-12.1083
▁censor	-12.1086
▁dora	-12.1109
▁hans	-12.1121
ctic	-12.1123
▁render	-12.1126
erber	-12.1137
▁stirr	-12.1143
decent	-12.115
era	-12.1155
▁norm	-12.1156
liga	-12.1158
▁elde	-12.1162
▁boni	-12.1167
niya	-12.1177
▁deter	-12.1177
▁seeds	-12.1182
▁galax	-12.1185
around	-12.119
roll	-12.119
look	-12.1191
▁rug	-12.1193
four	-12.1195
▁logg	-12.1202
hurt	-12.1209
▁bibl	-12.121
▁boundar	-12.1212
▁freight	-12.1213
▁messag	-12.1214
▁ump	-12.1217
reau	-12.1234
iz	-12.1234
▁cull	-12.1237
life	-12.124
uster	-12.1241
▁emphasi	-12.1242
▁tribun	-12.1246
▁happi	-12.1249
▁administer	-12.125
▁aggregate	-12.125
▁bodlander	-12.125
▁chimpanzee	-12.125
▁eyewitness	-12.125
▁frequenc	-12.125
▁insufficient	-12.125
▁overflow	-12.125
▁plaintiff	-12.125
▁resurrect	-12.125
▁scooter	-12.125
▁scowcroft	-12.125
▁tarmac	-12.125
▁ultimatum	-12.125
▁upheaval	-12.125
▁adolf	-12.125
▁neglect	-12.125
▁voyage	-12.125
▁delinquent	-12.125
▁sporadic	-12.125
▁comrade	-12.125
ph	-12.1251
▁namdaemu	-12.1251
▁warrior	-12.1251
▁sindh	-12.1251
▁mauritania	-12.1251
▁ecosystem	-12.1251
▁jalal	-12.1251
▁embroi	-12.1251
▁leopard	-12.1251
▁identical	-12.1251
▁polanski	-12.1251
▁knox	-12.1251
▁smurf	-12.1251
▁refund	-12.1251
▁barroso	-12.1251
▁quadruple	-12.1251
▁sermon	-12.1251
▁delaware	-12.1251
▁bimbo	-12.1251
▁resemblance	-12.1251
▁anglican	-12.1251
▁vague	-12.1251
▁bulb	-12.1251
▁meghani	-12.1251
▁rope	-12.1251
▁cedar	-12.1251
▁faint	-12.1251
▁complicit	-12.1251
▁aggravate	-12.1252
▁analog	-12.1252
▁mixture	-12.1252
▁celtic	-12.1252
▁bachelor	-12.1252
▁discard	-12.1252
▁snowfall	-12.1253
▁salute	-12.1253
▁workshop	-12.1253
▁enrollment	-12.1253
eille	-12.1253
▁insight	-12.1254
▁bulldozer	-12.1254
▁ginger	-12.1254
▁characteristic	-12.1254
▁flatten	-12.1254
▁rabbit	-12.1254
▁primate	-12.1254
▁compell	-12.1254
▁elvi	-12.1254
▁marble	-12.1255
▁abdomen	-12.1255
▁psychiatrist	-12.1255
▁quinn	-12.1255
▁legitima	-12.1255
▁unfold	-12.1255
ussain	-12.1255
▁reptile	-12.1255
▁gown	-12.1256
▁calculation	-12.1256
▁purse	-12.1257
▁canister	-12.1257
▁feminin	-12.1257
ukov	-12.1258
▁viru	-12.1258
▁frenz	-12.1258
▁bite	-12.1259
▁intimate	-12.1259
▁gotte	-12.1259
▁kennel	-12.1261
▁heroic	-12.1261
▁roche	-12.1261
▁krug	-12.1262
▁downgrade	-12.1262
▁void	-12.1262
▁shotgun	-12.1263
▁thaw	-12.1263
▁weightless	-12.1263
▁burri	-12.1264
▁feast	-12.1264
▁disneyland	-12.1264
▁deliberation	-12.1264
tious	-12.1264
▁qin	-12.1265
kanit	-12.1265
▁braun	-12.1265
▁prohibition	-12.1265
▁assignment	-12.1265
▁chef	-12.1268
▁collector	-12.1268
▁cypr	-12.127
▁calder	-12.127
▁bun	-12.1272
▁sniff	-12.1272
▁rip	-12.1273
▁compris	-12.1276
▁strapp	-12.1277
▁motorist	-12.1278
heddin	-12.128
▁petrol	-12.128
▁hillside	-12.128
▁montrea	-12.1281
▁undern	-12.1286
▁coward	-12.1287
▁flies	-12.1287
▁modifie	-12.1288
▁startup	-12.1288
▁readi	-12.129
▁entertainer	-12.129
▁degrad	-12.1293
▁affection	-12.1293
▁realistic	-12.1295
▁balco	-12.1296
worth	-12.1297
▁reconn	-12.1299
▁myth	-12.1302
▁evaluate	-12.1302
▁hallway	-12.1308
▁lat	-12.131
▁stark	-12.1311
▁meal	-12.1311
▁overture	-12.1312
▁stack	-12.1312
▁dogged	-12.1313
▁prob	-12.1314
▁trev	-12.1314
▁viewing	-12.1315
lept	-12.1315
▁lament	-12.1316
▁cultivat	-12.1321
▁camill	-12.1322
ipped	-12.1326
rov	-12.1327
▁shall	-12.1328
res	-12.1334
▁lari	-12.1334
▁lynd	-12.1336
▁fax	-12.1341
caul	-12.1342
▁proportional	-12.1343
▁abn	-12.1345
ushi	-12.1346
▁berl	-12.1347
▁programme	-12.1347
▁schult	-12.1348
pb	-12.135
chemical	-12.1352
vo	-12.1352
▁cite	-12.1364
▁relian	-12.1364
▁laborer	-12.1372
▁downer	-12.1374
▁ounces	-12.1376
▁mona	-12.1376
bee	-12.1388
all	-12.139
enberg	-12.139
▁associates	-12.139
▁mali	-12.1391
▁munition	-12.1398
▁disapprov	-12.1402
rei	-12.1404
▁collud	-12.1404
▁pier	-12.1405
▁dill	-12.1407
▁cam	-12.1411
▁influen	-12.1422
▁commando	-12.1441
▁ann	-12.145
▁dresse	-12.1456
▁gam	-12.1456
▁seasons	-12.1457
▁shaky	-12.1472
▁popul	-12.1473
▁sake	-12.1476
▁hindus	-12.1478
trust	-12.1478
ines	-12.1482
sibility	-12.1486
▁publicize	-12.1487
wp	-12.1488
▁mili	-12.1493
▁normaliz	-12.1497
▁watt	-12.1503
pt	-12.1506
▁toshi	-12.1506
enza	-12.1511
▁lime	-12.1513
▁oman	-12.1514
▁allocat	-12.1514
▁flo	-12.1515
▁freeway	-12.1522
▁gase	-12.1525
▁confus	-12.1525
▁cling	-12.1532
nian	-12.1533
wn	-12.1533
▁pools	-12.1542
▁leno	-12.1546
▁mono	-12.1554
ncy	-12.1562
emory	-12.1567
▁qua	-12.1576
▁seon	-12.1583
elhof	-12.1583
▁ripple	-12.1591
▁cater	-12.1593
▁fetch	-12.1597
oc	-12.1599
oppo	-12.1604
▁usage	-12.1607
rgen	-12.1609
▁prosecute	-12.1616
▁reut	-12.1622
▁tightening	-12.1627
▁astonish	-12.1628
ouf	-12.1629
nsu	-12.1641
cb	-12.1645
grow	-12.1652
ame	-12.1655
workers	-12.1655
▁sights	-12.1664
matic	-12.1666
dell	-12.1669
▁thriv	-12.1669
▁taj	-12.1671
tikh	-12.1679
ski	-12.1684
▁biograph	-12.1686
kee	-12.169
eb	-12.1691
dero	-12.1694
▁fuji	-12.1698
▁finaliz	-12.1698
▁nim	-12.1702
▁notable	-12.1707
▁beak	-12.1718
▁discipline	-12.1723
clara	-12.1727
▁dim	-12.173
▁nts	-12.1732
▁vai	-12.1737
▁disclos	-12.1737
▁highland	-12.1746
▁opener	-12.1751
▁arrangement	-12.1758
▁dh	-12.176
saw	-12.1761
▁lips	-12.1764
▁rafi	-12.177
▁schum	-12.1779
bur	-12.1791
bury	-12.1797
▁shells	-12.1807
▁gabriel	-12.181
▁pol	-12.1811
▁nova	-12.1811
velt	-12.1813
▁tangib	-12.1819
▁bong	-12.1819
mother	-12.1824
▁leve	-12.1826
achi	-12.1827
▁dai	-12.1832
▁compuls	-12.1835
hwa	-12.184
unting	-12.184
▁hur	-12.184
onian	-12.1847
▁cp	-12.1847
dida	-12.1857
▁nasir	-12.1857
saki	-12.1864
zak	-12.1864
▁intentions	-12.1868
▁maid	-12.1872
▁tyrann	-12.1876
rap	-12.188
▁shatter	-12.1895
acio	-12.1905
▁albums	-12.1909
trophy	-12.1914
▁dian	-12.1916
umn	-12.1917
▁beg	-12.1918
▁flavor	-12.1928
yeh	-12.1933
▁cate	-12.1933
▁preach	-12.1935
dian	-12.1936
oke	-12.1937
ru	-12.1942
harmonic	-12.1945
▁admire	-12.1945
▁silic	-12.1954
▁jen	-12.1954
▁yeon	-12.1956
cker	-12.196
▁riches	-12.198
▁litera	-12.1986
iji	-12.1986
▁josh	-12.2004
zio	-12.2006
▁stockhol	-12.2009
▁wow	-12.2013
schle	-12.2019
log	-12.202
nutrition	-12.2021
conduct	-12.2023
sleep	-12.2023
▁revel	-12.2023
foot	-12.2025
ria	-12.2026
▁fab	-12.2028
taka	-12.2031
chai	-12.2031
▁integrat	-12.2032
▁advoca	-12.2035
avoid	-12.2036
▁mot	-12.2036
▁uncla	-12.2044
▁hyo	-12.2044
▁seale	-12.2048
eads	-12.205
▁hotte	-12.2051
▁roth	-12.2055
rose	-12.2058
marked	-12.2061
▁lava	-12.2061
▁saga	-12.2062
▁wend	-12.2065
▁albania	-12.2066
ork	-12.2067
▁mechanic	-12.207
▁bike	-12.2071
▁strategi	-12.2076
▁schn	-12.2077
▁clint	-12.2077
▁wacho	-12.2077
▁flip	-12.2077
mpact	-12.208
▁worship	-12.2083
▁palestin	-12.2084
▁panmunj	-12.2084
▁awkward	-12.2084
▁abolition	-12.2084
▁accomplice	-12.2084
▁alejandr	-12.2084
▁avalanche	-12.2084
▁brawl	-12.2084
▁cantaloupe	-12.2084
▁carnival	-12.2084
▁cockpit	-12.2084
▁constituenc	-12.2084
▁discontent	-12.2084
▁disqualifi	-12.2084
▁enclave	-12.2084
▁grylls	-12.2084
▁juventu	-12.2084
▁leisure	-12.2084
▁madagascar	-12.2084
▁memorandum	-12.2084
▁pavilion	-12.2084
▁rockefeller	-12.2084
▁trinidad	-12.2084
▁caesar	-12.2084
▁futurist	-12.2084
▁namibia	-12.2084
▁outnumber	-12.2084
▁skyrocket	-12.2084
▁unhcr	-12.2084
▁aurora	-12.2084
▁backpack	-12.2084
▁connor	-12.2084
▁specimen	-12.2084
▁thymus	-12.2084
▁cheetah	-12.2084
eutic	-12.2084
▁blackberr	-12.2084
▁morici	-12.2084
▁mujah	-12.2084
▁superjumbo	-12.2084
▁glory	-12.2084
▁paleontologist	-12.2084
▁desktop	-12.2084
▁flank	-12.2084
▁suitcase	-12.2084
▁prevail	-12.2084
▁creek	-12.2084
▁preview	-12.2084
▁unify	-12.2084
▁patern	-12.2084
▁intoxicat	-12.2084
▁unreasonabl	-12.2084
▁abdom	-12.2084
▁qualification	-12.2084
▁fertilizer	-12.2085
▁mcqu	-12.2085
▁cesar	-12.2085
omaha	-12.2085
▁forehand	-12.2085
▁crouch	-12.2085
▁refrigerator	-12.2085
▁cubic	-12.2085
▁resent	-12.2085
▁muddy	-12.2086
▁gym	-12.2086
▁revoke	-12.2086
▁columnist	-12.2086
▁patent	-12.2086
▁stalk	-12.2086
▁commemoration	-12.2087
▁boulo	-12.2087
▁headphone	-12.2087
▁ricard	-12.2087
▁straw	-12.2087
▁architecture	-12.2088
▁dynamit	-12.2088
▁zhe	-12.2088
▁guti	-12.2088
▁touchdown	-12.2088
▁feline	-12.2088
▁bradley	-12.2088
▁fabrication	-12.2089
▁marshall	-12.209
▁relate	-12.2091
▁abductee	-12.2091
▁iceberg	-12.2092
▁innovation	-12.2092
ollea	-12.2094
clusion	-12.2094
▁depiction	-12.2096
▁hopkin	-12.2096
▁ayres	-12.2097
▁windsor	-12.2097
▁balkan	-12.2098
▁compatible	-12.2098
▁lame	-12.2098
▁electorate	-12.2099
▁turkmen	-12.2099
▁dimensional	-12.2099
▁ung	-12.2099
▁colorful	-12.2099
iband	-12.21
▁barber	-12.21
▁admir	-12.21
steps	-12.2101
nica	-12.2101
▁cement	-12.2101
▁sniper	-12.2103
▁groom	-12.2103
▁counselor	-12.2103
▁diwa	-12.2104
▁mountainside	-12.2105
▁parliamentarian	-12.2105
ehr	-12.2106
▁woodland	-12.2106
▁downward	-12.2107
cer	-12.2107
wadd	-12.2109
▁flush	-12.2109
▁hoff	-12.2111
▁pegg	-12.2112
▁clement	-12.2112
▁betray	-12.2113
▁temper	-12.2114
▁wax	-12.2114
▁claw	-12.2115
▁stiff	-12.2117
▁xiao	-12.2118
▁sunny	-12.2119
▁affiliat	-12.2119
▁escalator	-12.212
▁hospitalization	-12.2123
sville	-12.2123
▁deflect	-12.2124
▁worm	-12.2125
ane	-12.2126
▁hernan	-12.213
▁endeavor	-12.213
▁flexibilit	-12.2133
▁upward	-12.2136
▁gins	-12.2138
lender	-12.2139
▁indicator	-12.2145
oir	-12.2145
▁cram	-12.2146
sour	-12.2147
nnah	-12.2151
▁ascend	-12.2156
fest	-12.2162
dah	-12.2163
libu	-12.2166
▁processor	-12.2171
▁optim	-12.2175
cheema	-12.2175
rc	-12.2176
▁heft	-12.2178
▁casa	-12.2178
▁candid	-12.2178
▁approache	-12.2184
▁cald	-12.2184
▁frig	-12.2186
▁mistaken	-12.2187
▁charm	-12.2189
▁saber	-12.2189
eur	-12.219
ging	-12.219
▁agrees	-12.2193
▁sreb	-12.2197
▁skeptical	-12.22
▁gaul	-12.22
hafi	-12.2202
▁oliver	-12.2202
▁kc	-12.2203
zan	-12.2204
▁nia	-12.2204
▁rajas	-12.2207
▁tsa	-12.2208
moto	-12.2211
▁eun	-12.2214
▁arche	-12.2215
rjee	-12.2218
▁biting	-12.2229
▁booster	-12.2229
▁verifiabl	-12.223
eem	-12.2231
▁rewrit	-12.2235
cini	-12.2236
▁hugg	-12.2237
▁jeon	-12.2241
abad	-12.2245
hu	-12.2249
▁pg	-12.2252
▁porter	-12.2254
▁educate	-12.2262
rup	-12.2264
ruz	-12.2268
▁shorten	-12.227
ott	-12.2272
tty	-12.2273
▁controller	-12.2277
▁bra	-12.2282
pache	-12.2282
▁eisen	-12.2283
bol	-12.2284
▁attendants	-12.2286
▁ent	-12.2288
▁exhausted	-12.2293
▁lied	-12.2299
▁initiate	-12.2299
vi	-12.2302
ating	-12.2307
▁fabr	-12.2311
▁consume	-12.2313
ahab	-12.2315
▁incorporate	-12.2315
yah	-12.2323
lett	-12.2325
▁egg	-12.2326
▁fr	-12.2333
▁gunn	-12.2335
▁shank	-12.2336
▁ana	-12.2338
wau	-12.2341
▁exchang	-12.2344
▁nuts	-12.2344
uci	-12.2349
of	-12.2352
▁georgian	-12.236
▁alexandr	-12.2362
▁pessimist	-12.2365
▁levee	-12.2372
▁ruba	-12.2372
▁wade	-12.2375
▁banda	-12.2378
▁pitcher	-12.2381
rugg	-12.2382
▁pie	-12.2386
oni	-12.2388
▁cr	-12.2391
▁shand	-12.2391
▁asha	-12.2394
▁moussa	-12.2398
▁heroin	-12.24
▁meteorolog	-12.2404
▁generators	-12.2407
▁predicts	-12.2407
cla	-12.2409
nso	-12.2411
▁solt	-12.2412
▁remed	-12.2416
▁tutori	-12.2416
▁naha	-12.2422
▁consolidate	-12.2428
ieu	-12.243
▁obstruct	-12.243
▁subsidi	-12.2431
▁justifi	-12.2436
bbie	-12.2436
▁vet	-12.2439
riq	-12.2441
▁dare	-12.245
metric	-12.2455
ob	-12.2459
stice	-12.246
say	-12.2473
▁covert	-12.2474
▁quant	-12.2477
ili	-12.248
itu	-12.2492
▁commute	-12.2504
▁eli	-12.2509
▁lip	-12.2509
▁kerch	-12.2513
▁notion	-12.2514
▁excavat	-12.2529
▁preced	-12.254
igat	-12.2541
tner	-12.2548
▁dedicate	-12.2552
▁mae	-12.2558
gne	-12.256
▁lars	-12.2579
▁joan	-12.2583
▁vill	-12.2595
▁emotion	-12.2598
▁preference	-12.2599
▁alba	-12.2603
▁chungchon	-12.2605
vani	-12.2606
▁disma	-12.2607
▁defian	-12.2608
wf	-12.2612
ttle	-12.2618
▁bearer	-12.2627
▁champ	-12.263
yar	-12.2631
▁syn	-12.2637
▁gal	-12.2637
▁grad	-12.2643
▁advocat	-12.2651
▁eurosta	-12.2652
▁generator	-12.2654
lumin	-12.2658
▁forci	-12.2662
▁athlete	-12.2665
▁whiske	-12.2679
agar	-12.2684
▁tri	-12.2692
▁lash	-12.2692
▁interfa	-12.2694
▁sting	-12.2694
mill	-12.2697
bal	-12.2698
▁intrigu	-12.2699
use	-12.2707
pinning	-12.2708
▁employer	-12.2711
rel	-12.2713
▁relat	-12.2717
▁saba	-12.2717
▁arabs	-12.272
▁mirr	-12.2721
▁bab	-12.2722
▁dece	-12.2724
▁trends	-12.2738
ndell	-12.2739
▁drac	-12.274
▁maps	-12.274
believ	-12.2745
lm	-12.2746
lines	-12.2747
lp	-12.2748
▁kana	-12.275
▁thrive	-12.2762
ven	-12.2765
cak	-12.2766
▁beta	-12.2779
dullah	-12.2785
▁plen	-12.279
▁convict	-12.2799
rat	-12.2806
▁kat	-12.2812
▁garri	-12.2817
▁unfit	-12.2825
▁purge	-12.2834
retz	-12.2835
anga	-12.2837
bun	-12.2838
▁gentle	-12.2841
▁tal	-12.2843
ghi	-12.2844
▁ele	-12.2847
cry	-12.2852
bul	-12.286
lynn	-12.2863
uck	-12.2865
▁infring	-12.2866
▁settlements	-12.287
▁nat	-12.2875
▁reads	-12.2879
▁recorder	-12.2879
▁seas	-12.2885
tract	-12.2892
uted	-12.2893
▁ironic	-12.2903
▁satisfact	-12.2904
lusive	-12.2909
trapped	-12.2917
phone	-12.2919
▁downsiz	-12.2925
fayette	-12.2926
week	-12.2928
gone	-12.293
taek	-12.293
▁sour	-12.2933
smith	-12.2933
▁def	-12.2934
media	-12.2934
position	-12.2935
league	-12.2936
▁intra	-12.2938
tu	-12.2939
▁suf	-12.2939
▁ramm	-12.2943
hallow	-12.2945
▁fayya	-12.2946
awful	-12.2947
hold	-12.2949
dog	-12.2949
▁invent	-12.2963
▁wrangl	-12.2964
▁server	-12.2965
▁sca	-12.2967
lana	-12.2968
▁profession	-12.2971
▁jeopard	-12.2975
rgis	-12.2975
oros	-12.2977
▁boon	-12.2978
▁bras	-12.2981
▁divisi	-12.2985
▁interact	-12.2986
▁innovati	-12.2988
▁albe	-12.299
▁obsess	-12.2992
▁buoy	-12.2993
▁kazakh	-12.2993
▁indiscriminate	-12.2993
▁appetite	-12.2993
▁audiotape	-12.2993
▁autobiograph	-12.2993
▁ayurved	-12.2993
▁berezovsky	-12.2993
▁crawl	-12.2993
▁culprit	-12.2993
▁demolish	-12.2993
▁disregard	-12.2993
▁djamena	-12.2993
▁erratic	-12.2993
▁fowler	-12.2993
▁gwen	-12.2993
▁jetliner	-12.2993
▁loophole	-12.2993
▁ordinance	-12.2993
▁outflow	-12.2993
▁portfolio	-12.2993
▁rebuff	-12.2993
▁rethink	-12.2993
▁swirl	-12.2993
▁tanzania	-12.2993
▁yugoslav	-12.2993
▁clergy	-12.2993
▁demographic	-12.2993
▁dreamliner	-12.2993
▁souvenir	-12.2993
▁snapshot	-12.2993
▁steadfast	-12.2993
▁mistreat	-12.2993
▁contagio	-12.2993
▁module	-12.2993
▁abstain	-12.2993
▁curtail	-12.2993
▁fraudulent	-12.2993
▁trunk	-12.2993
▁antenna	-12.2993
▁sleeve	-12.2993
▁encrypt	-12.2993
▁seismic	-12.2993
▁biometric	-12.2993
▁unwilling	-12.2993
▁grape	-12.2993
▁cowboy	-12.2993
▁cadet	-12.2993
▁minivan	-12.2993
▁ericsson	-12.2993
▁ansa	-12.2993
▁empower	-12.2993
▁grasp	-12.2993
▁juice	-12.2993
▁diaries	-12.2993
▁charismatic	-12.2993
▁mafia	-12.2993
▁categorical	-12.2993
▁bourse	-12.2993
▁jelly	-12.2993
▁furious	-12.2994
▁goddess	-12.2994
▁evict	-12.2994
▁ecsta	-12.2994
▁crescent	-12.2994
▁breez	-12.2994
▁tigr	-12.2994
▁tanner	-12.2994
▁arrow	-12.2994
▁infra	-12.2994
▁hedge	-12.2994
▁mimic	-12.2994
▁fetus	-12.2994
▁sophi	-12.2994
moon	-12.2994
atorium	-12.2994
▁edmund	-12.2994
▁hosseini	-12.2995
▁realign	-12.2995
▁tusk	-12.2995
▁anthropolog	-12.2995
▁protester	-12.2995
▁racket	-12.2996
▁recit	-12.2996
▁graduation	-12.2996
▁churn	-12.2996
▁airlift	-12.2996
▁lieber	-12.2996
▁birthrate	-12.2996
▁yuko	-12.2996
▁meadow	-12.2996
▁scoop	-12.2996
▁latitude	-12.2997
▁elliot	-12.2997
▁bandit	-12.2997
▁stoppage	-12.2998
▁jas	-12.2998
▁luke	-12.2998
▁freak	-12.2998
▁specialize	-12.2999
▁interceptor	-12.2999
▁marketplace	-12.2999
▁generous	-12.2999
▁thankful	-12.3
▁amass	-12.3
▁incur	-12.3001
▁thoms	-12.3001
▁artwork	-12.3001
▁educator	-12.3002
▁submerg	-12.3002
▁valve	-12.3002
▁elisa	-12.3002
▁cogniti	-12.3002
▁interruption	-12.3003
▁pew	-12.3004
▁adjustment	-12.3004
▁secularist	-12.3005
sha	-12.3005
▁jorge	-12.3006
▁esp	-12.3008
▁pierce	-12.3009
▁housekeeper	-12.3009
▁chew	-12.301
▁crusader	-12.3012
▁perez	-12.3014
▁mauric	-12.3014
▁terrifi	-12.3017
▁banana	-12.3018
▁commun	-12.3019
leet	-12.302
▁fein	-12.302
▁loung	-12.302
▁fundraiser	-12.3023
▁condon	-12.3025
▁kad	-12.3026
▁solicit	-12.3027
▁snu	-12.303
▁ngo	-12.303
▁airship	-12.3031
▁hammon	-12.3035
▁induce	-12.3039
▁carat	-12.304
▁mcle	-12.304
elli	-12.3043
▁pinn	-12.3043
▁equalise	-12.3044
▁som	-12.3046
▁clever	-12.3046
▁lapse	-12.3046
▁fabric	-12.3047
▁maldiv	-12.3048
▁aaa	-12.3049
▁flagg	-12.305
▁kinne	-12.3051
▁lagg	-12.3052
▁scann	-12.3052
▁loosen	-12.3053
▁kraus	-12.3054
▁mortal	-12.3054
▁violator	-12.3055
▁accompanie	-12.3058
▁dismay	-12.3059
kong	-12.3063
▁forceful	-12.3064
▁fist	-12.3065
▁capitalism	-12.3068
▁ratifi	-12.3068
▁blanc	-12.3069
▁reper	-12.3069
▁zane	-12.3076
▁iq	-12.3078
▁forgive	-12.3079
▁mcnam	-12.3082
▁reno	-12.3082
roy	-12.3083
▁kiku	-12.3083
▁messi	-12.3092
▁burre	-12.3093
lamin	-12.3095
▁syndicate	-12.3097
▁tablet	-12.3107
▁boob	-12.311
▁jonat	-12.3111
▁singaporean	-12.3116
▁brod	-12.312
▁simulate	-12.3124
tze	-12.3129
▁borg	-12.3131
▁incorporat	-12.3135
choles	-12.3138
▁garr	-12.3141
▁expir	-12.3146
▁porch	-12.3146
estero	-12.3147
▁cardiov	-12.3148
alban	-12.3153
▁blazer	-12.3153
▁samuel	-12.316
▁shui	-12.3168
zuma	-12.3173
bly	-12.3178
▁hydra	-12.3183
▁icr	-12.3191
hiko	-12.3194
▁helms	-12.3202
stable	-12.3213
lar	-12.3213
▁giro	-12.3215
▁imp	-12.3215
soon	-12.322
▁conciliat	-12.3223
▁painter	-12.3227
▁camel	-12.3228
▁intimidati	-12.3229
richt	-12.3229
stra	-12.3236
▁tro	-12.3241
▁jett	-12.3244
ryl	-12.3246
▁certifi	-12.3247
▁abilit	-12.3249
dic	-12.3253
▁calculat	-12.3259
pat	-12.3262
▁dissolv	-12.3263
▁withstand	-12.3271
▁barad	-12.3277
oda	-12.3277
▁eras	-12.3277
ama	-12.3278
▁giz	-12.3283
yongsan	-12.3288
▁jessi	-12.3289
▁julian	-12.3289
▁verge	-12.3289
wall	-12.3294
▁roos	-12.3295
sch	-12.3304
▁header	-12.3309
▁lai	-12.3309
▁ryd	-12.3312
▁supplements	-12.3314
▁kenne	-12.3317
ast	-12.3319
▁anton	-12.3321
▁tzi	-12.3321
dana	-12.3327
shu	-12.333
▁repressi	-12.3331
▁enroll	-12.3333
▁xia	-12.3336
▁mao	-12.3341
▁uneas	-12.3349
▁perish	-12.3353
ovi	-12.3354
▁directions	-12.3358
▁retriev	-12.3362
▁af	-12.3366
erous	-12.3371
▁hyde	-12.3372
▁displace	-12.3372
▁divin	-12.3374
▁tract	-12.3375
▁cosmo	-12.338
▁rile	-12.3383
nson	-12.3384
irna	-12.3387
dis	-12.3387
▁footballer	-12.3392
umi	-12.3401
▁frustrate	-12.3406
▁liberate	-12.341
▁flourish	-12.3413
▁bully	-12.3416
▁drops	-12.3421
jaf	-12.3423
▁sacking	-12.3425
pon	-12.3432
▁jamm	-12.3434
▁zealander	-12.3438
▁perceiv	-12.3444
llan	-12.3446
▁soli	-12.3448
▁poke	-12.3453
▁fen	-12.346
▁grill	-12.3461
▁printer	-12.3462
▁pi	-12.3464
▁gome	-12.3466
▁destroyer	-12.3467
▁gallu	-12.3468
▁stampede	-12.3471
▁relocat	-12.3472
ddy	-12.3474
sche	-12.3477
▁gall	-12.3483
▁birdie	-12.3506
▁bait	-12.3517
▁adventures	-12.3528
▁lav	-12.3536
▁zai	-12.3539
▁gir	-12.3541
▁tel	-12.3546
▁exclude	-12.3547
▁prai	-12.3548
▁snipe	-12.3549
▁sequel	-12.355
▁ferri	-12.3553
hart	-12.3556
▁sik	-12.3558
je	-12.356
▁gong	-12.3566
omi	-12.3568
cin	-12.3573
▁hamm	-12.3574
vac	-12.3576
▁gia	-12.3589
lley	-12.3598
▁vit	-12.3598
▁bald	-12.3599
▁verse	-12.3607
smo	-12.3612
▁bain	-12.3613
▁disguis	-12.3614
▁surrogate	-12.3619
▁regulat	-12.3622
inos	-12.3622
oom	-12.3622
cable	-12.3631
▁jeopardize	-12.3633
▁flowing	-12.3633
▁wis	-12.3636
▁drawings	-12.3636
▁mubar	-12.3643
▁duch	-12.3644
ically	-12.3645
▁underscor	-12.3646
▁smuggl	-12.3649
▁supplement	-12.365
▁missionar	-12.3651
▁physiolog	-12.3651
▁diver	-12.3652
▁shan	-12.367
▁attache	-12.3671
▁sto	-12.3675
▁dera	-12.3676
▁pont	-12.3677
▁sands	-12.3687
▁escalate	-12.3692
▁attitudes	-12.3693
▁equalize	-12.3694
▁reserv	-12.37
▁germ	-12.3702
asia	-12.3705
▁chic	-12.3718
▁replica	-12.3723
pc	-12.3725
▁earl	-12.3726
▁dott	-12.373
doch	-12.3733
▁carre	-12.3746
▁hay	-12.3747
iff	-12.375
▁tit	-12.3755
▁gwang	-12.3756
▁foray	-12.3757
ngal	-12.3764
▁greeting	-12.377
▁una	-12.3772
▁geographic	-12.3783
▁jee	-12.3783
▁shaha	-12.3791
▁yah	-12.3796
▁lonely	-12.3806
▁confiscat	-12.381
now	-12.3817
▁ober	-12.3817
▁deng	-12.3832
ure	-12.3834
dam	-12.3838
bre	-12.3844
▁preside	-12.3844
▁embrac	-12.3851
▁belts	-12.3853
▁normalize	-12.3857
hard	-12.3857
▁grind	-12.3868
▁mit	-12.3873
▁devi	-12.3881
▁stipulate	-12.3891
▁nikol	-12.3892
▁enthusiast	-12.3895
▁fonda	-12.3904
etz	-12.3904
terrestrial	-12.3906
jord	-12.3909
▁taka	-12.391
▁eld	-12.3911
▁yin	-12.3911
paste	-12.3911
rity	-12.3916
▁rebuil	-12.392
stands	-12.3923
sphere	-12.3928
▁astronom	-12.3929
adequate	-12.393
blaze	-12.3932
committee	-12.3932
parents	-12.3932
news	-12.3933
▁residenc	-12.3936
technology	-12.3937
▁entertain	-12.3938
▁sham	-12.3938
sense	-12.3941
watch	-12.3942
eth	-12.3943
ashi	-12.3944
jean	-12.3945
▁capitaliz	-12.3946
visibl	-12.3947
wanted	-12.3947
shot	-12.3951
▁shu	-12.3953
▁doug	-12.3968
▁restructure	-12.3969
▁ev	-12.3971
izing	-12.3971
▁magnet	-12.3971
▁sweat	-12.3972
▁patron	-12.3975
▁sar	-12.3975
▁prominen	-12.3978
▁pardo	-12.3978
▁hardline	-12.3978
▁snub	-12.398
▁horm	-12.3982
▁ensu	-12.3984
▁mobilize	-12.3985
list	-12.3985
▁bankrupt	-12.3987
▁distract	-12.3988
▁pharmac	-12.399
▁luz	-12.3992
▁precarious	-12.3993
▁absurd	-12.3993
▁blizzard	-12.3993
▁complement	-12.3993
▁disadvantage	-12.3993
▁dysfunction	-12.3993
▁matthew	-12.3993
▁netscape	-12.3993
▁pacify	-12.3993
▁recharge	-12.3993
▁revamp	-12.3993
▁soprano	-12.3993
▁spontaneous	-12.3993
▁surcharge	-12.3993
▁thirteen	-12.3993
▁alligator	-12.3993
▁belarus	-12.3993
▁cuisine	-12.3993
▁detach	-12.3993
▁inviting	-12.3993
▁tgv	-12.3993
▁transgender	-12.3993
▁rupture	-12.3993
▁basilica	-12.3993
▁cambridge	-12.3993
▁deforest	-12.3993
▁senegal	-12.3993
▁telecast	-12.3993
▁theoretical	-12.3993
▁gymnast	-12.3993
▁rutger	-12.3993
▁solemn	-12.3993
▁wrinkle	-12.3993
▁zhao	-12.3993
▁anorexi	-12.3993
▁landlord	-12.3993
▁cosmetic	-12.3993
▁wrack	-12.3993
▁itinerar	-12.3993
▁kashiwa	-12.3993
▁turbine	-12.3993
▁pelvi	-12.3993
▁twitter	-12.3993
▁purple	-12.3993
▁dispel	-12.3993
▁jockey	-12.3993
▁mitch	-12.3993
▁pharaoh	-12.3993
▁osbourne	-12.3993
▁relentless	-12.3993
▁emphatic	-12.3993
▁vigorous	-12.3993
▁disconnect	-12.3993
▁pinpoint	-12.3993
▁malicious	-12.3993
▁commend	-12.3993
▁arrowhead	-12.3993
▁stymie	-12.3993
▁newcomer	-12.3993
▁affirm	-12.3993
▁kirch	-12.3993
▁effig	-12.3993
▁mudslide	-12.3993
▁arraignment	-12.3993
▁sandbag	-12.3993
▁ravine	-12.3993
▁taunt	-12.3993
▁triang	-12.3994
▁lizard	-12.3994
▁reclaim	-12.3994
▁screw	-12.3994
▁unfreez	-12.3994
▁preemptive	-12.3994
▁shrunk	-12.3994
▁humid	-12.3994
▁screenplay	-12.3994
▁spew	-12.3994
▁bolivia	-12.3994
▁sitcom	-12.3994
▁pleasant	-12.3994
▁intermedia	-12.3994
▁czar	-12.3995
▁sidewalk	-12.3995
▁vigilant	-12.3995
▁ghost	-12.3995
▁temptation	-12.3995
ngchon	-12.3995
▁katz	-12.3995
▁hamza	-12.3995
▁condom	-12.3996
▁arsen	-12.3996
▁paek	-12.3996
▁drummer	-12.3996
▁reneg	-12.3996
▁cremation	-12.3996
▁haq	-12.3996
▁shrugg	-12.3996
▁unlock	-12.3997
▁narco	-12.3997
▁dumpling	-12.3997
rai	-12.3998
▁distraction	-12.3998
▁funnel	-12.3998
▁pinch	-12.3998
▁solace	-12.3999
▁compass	-12.4
▁newsweek	-12.4
▁derive	-12.4001
gon	-12.4001
▁booth	-12.4001
▁decoration	-12.4002
▁fluid	-12.4002
▁jamestown	-12.4003
▁waive	-12.4005
▁surgical	-12.4005
▁baek	-12.4005
kistan	-12.4005
▁elysee	-12.4005
▁feedback	-12.4006
▁chinook	-12.4006
werp	-12.4006
▁laurent	-12.4007
▁riddle	-12.4008
▁slap	-12.4008
▁slovakia	-12.4009
▁tasmania	-12.4009
▁complian	-12.4009
▁mansion	-12.4009
▁marx	-12.401
▁contributor	-12.401
quille	-12.401
▁intestin	-12.401
▁handset	-12.4011
mat	-12.4011
▁totalitarian	-12.4015
▁coo	-12.4016
▁ritz	-12.4017
▁playground	-12.4017
▁zahar	-12.4019
▁spectacle	-12.402
▁prevalen	-12.4021
tilin	-12.4022
▁siren	-12.4023
▁newsroom	-12.4023
eller	-12.4026
▁ignite	-12.4026
▁vonn	-12.4027
▁nobu	-12.4027
culty	-12.4029
▁taji	-12.4031
quet	-12.4031
▁heather	-12.4033
▁dweller	-12.4034
▁rhe	-12.4037
▁estonian	-12.4038
otherap	-12.4039
▁alban	-12.404
▁necessity	-12.4041
▁chiap	-12.4047
▁stain	-12.4051
▁offence	-12.4052
▁mold	-12.4052
▁abundan	-12.4054
▁rework	-12.4057
▁citation	-12.4062
▁directive	-12.4062
▁fluctuat	-12.4064
hni	-12.4064
mara	-12.4065
▁lb	-12.4067
nger	-12.4069
▁taek	-12.4071
▁shade	-12.4075
veh	-12.4081
pine	-12.4083
▁merv	-12.4087
▁biti	-12.4089
riano	-12.4091
▁angri	-12.4092
▁sneaker	-12.4092
▁jok	-12.4093
varna	-12.4097
▁shaw	-12.4097
▁tsuyo	-12.4097
fold	-12.4098
▁stoning	-12.4099
uman	-12.41
▁timeline	-12.4102
nsei	-12.4102
▁insurer	-12.4103
▁candles	-12.4104
▁shutter	-12.4104
▁unsur	-12.4104
▁merck	-12.4106
uro	-12.4113
▁khalil	-12.4113
▁pluck	-12.4114
habi	-12.4114
▁salvage	-12.4118
fann	-12.4122
▁bashir	-12.4125
▁beast	-12.4132
effer	-12.4135
▁kua	-12.414
▁lek	-12.414
▁swelling	-12.4141
ntana	-12.4141
▁lemon	-12.4143
▁navigat	-12.4143
bouc	-12.4143
ych	-12.4143
nate	-12.4149
▁meg	-12.4149
wich	-12.4152
▁cruiser	-12.4153
yak	-12.4154
▁shine	-12.4154
▁suck	-12.4154
▁nan	-12.4159
andel	-12.416
▁unfor	-12.4162
▁wonders	-12.4163
▁fond	-12.4163
▁haa	-12.4165
cyclist	-12.4169
▁explains	-12.4172
▁confiscate	-12.4179
▁bah	-12.419
▁gregor	-12.419
▁endless	-12.4191
▁ec	-12.4193
shin	-12.4194
oui	-12.4194
▁fractur	-12.4206
▁berg	-12.4212
tractor	-12.4213
▁reveren	-12.4216
▁couri	-12.4223
book	-12.4225
▁hush	-12.4236
▁marlboro	-12.4238
▁celesti	-12.424
lam	-12.4244
aux	-12.4248
▁distincti	-12.425
▁scarce	-12.4255
▁fluor	-12.4257
▁shaun	-12.4258
▁baba	-12.426
▁emb	-12.427
▁outsider	-12.4273
dez	-12.4275
▁merchandise	-12.4278
▁brisk	-12.428
▁burge	-12.4283
tenberg	-12.4287
▁branc	-12.4292
ched	-12.4298
pulsion	-12.4302
▁assumption	-12.4304
▁rama	-12.431
rdin	-12.4315
▁ull	-12.4316
amba	-12.4317
▁natali	-12.4319
inches	-12.4322
mert	-12.4325
▁behave	-12.4331
▁mesh	-12.4337
ii	-12.4341
▁barn	-12.4347
▁electro	-12.4348
▁py	-12.4353
▁vir	-12.4354
▁sara	-12.4357
thura	-12.4369
dler	-12.4369
▁mri	-12.4374
▁homer	-12.4376
▁espan	-12.4377
▁abd	-12.4377
▁disguise	-12.4386
nda	-12.4387
drome	-12.439
nie	-12.4393
▁mosle	-12.4395
▁deliberat	-12.4397
▁moderniz	-12.4401
gram	-12.4411
▁hijacking	-12.4417
▁exceeding	-12.4417
▁pause	-12.4417
dental	-12.442
▁flyer	-12.4422
▁grapple	-12.4426
bas	-12.4429
▁baa	-12.4433
▁inconvenience	-12.4439
tics	-12.4445
joy	-12.4448
▁conscript	-12.4449
ert	-12.4458
▁prag	-12.446
▁masha	-12.4461
oul	-12.4467
▁rational	-12.4467
ker	-12.449
rock	-12.449
gues	-12.4491
▁brace	-12.4492
ammar	-12.4494
▁ft	-12.4498
afe	-12.4499
holm	-12.4504
▁abound	-12.4505
▁tira	-12.4506
▁wm	-12.4506
▁robbi	-12.4508
▁lind	-12.4508
▁resettle	-12.4509
pun	-12.4511
▁undertake	-12.4513
tai	-12.4513
▁fri	-12.4517
enne	-12.4517
▁turki	-12.4518
▁dishe	-12.4521
▁loser	-12.4532
vara	-12.4534
▁qual	-12.4534
evic	-12.4545
chu	-12.4548
▁schu	-12.4551
▁fume	-12.4557
osa	-12.4561
avaro	-12.4561
lov	-12.4562
▁ira	-12.4563
mes	-12.4565
▁erode	-12.4567
elo	-12.4567
unker	-12.457
▁barre	-12.4571
▁discourage	-12.4574
▁smithson	-12.4578
▁trafficker	-12.4589
▁awe	-12.4591
usch	-12.4595
lab	-12.461
▁adrian	-12.461
mate	-12.4625
▁joo	-12.4626
▁lou	-12.4628
▁geno	-12.463
mmunity	-12.4632
ice	-12.4635
▁destruct	-12.4635
eij	-12.4638
rne	-12.4641
shan	-12.4641
▁allerg	-12.4642
hoe	-12.4648
▁fabricat	-12.4649
▁wald	-12.4649
▁refin	-12.465
ika	-12.4651
ellen	-12.4655
▁venet	-12.4662
imon	-12.4677
▁dart	-12.4678
▁gem	-12.4681
nz	-12.4686
▁lac	-12.469
▁dine	-12.4691
▁russ	-12.4697
oxid	-12.4698
tia	-12.4704
▁conceiv	-12.4708
▁kau	-12.4709
onym	-12.4712
▁blu	-12.4716
▁structur	-12.4717
▁adulter	-12.4719
▁duran	-12.4724
▁plague	-12.4727
▁claud	-12.4727
glio	-12.4738
gery	-12.474
▁skier	-12.4743
closure	-12.4747
▁pits	-12.4749
ff	-12.4749
▁spar	-12.4753
▁dj	-12.476
▁dri	-12.4763
ouad	-12.477
pinal	-12.4772
gaz	-12.4773
▁casting	-12.4774
▁detainee	-12.4779
▁phon	-12.4781
▁corpora	-12.4781
▁abba	-12.4784
kova	-12.4784
ariya	-12.4786
▁mend	-12.4789
▁jol	-12.4802
owed	-12.4803
gay	-12.4816
▁graduat	-12.482
▁disabilit	-12.4827
mega	-12.4829
▁retiree	-12.4831
▁cheese	-12.4835
▁licens	-12.4837
▁characterize	-12.4837
▁repatriat	-12.4842
▁alga	-12.4856
▁toddlers	-12.4858
▁gat	-12.4862
etcher	-12.4866
▁fracture	-12.4871
▁activate	-12.4872
▁duo	-12.4878
ole	-12.4884
ameter	-12.489
▁frankl	-12.4896
▁extradite	-12.4897
▁fruits	-12.4898
▁tame	-12.4898
leban	-12.4899
▁tha	-12.49
▁natal	-12.4901
tian	-12.4903
zad	-12.4906
▁toleran	-12.4918
▁jian	-12.4919
▁sunda	-12.4921
mosh	-12.4923
word	-12.4924
ducat	-12.4925
▁caffe	-12.4926
comfortabl	-12.4928
▁boo	-12.493
▁atom	-12.4931
▁ruben	-12.4932
▁lid	-12.4932
▁appreciati	-12.4934
▁conceive	-12.4934
▁fade	-12.4935
cock	-12.4942
▁scarf	-12.4945
▁nois	-12.4946
▁satisfy	-12.4949
boy	-12.4949
cat	-12.4951
▁cio	-12.4954
▁beneficia	-12.4955
badi	-12.4959
garve	-12.4961
aimi	-12.4966
wha	-12.4972
▁elevat	-12.4973
▁ego	-12.4978
▁piro	-12.4978
▁lens	-12.4981
▁parr	-12.4981
lift	-12.4988
raged	-12.4988
▁alp	-12.499
▁sneak	-12.4994
▁imagin	-12.4994
▁decreas	-12.4998
▁wh	-12.5002
tsuo	-12.5007
▁bois	-12.5009
mitag	-12.5018
▁blacks	-12.502
oven	-12.5024
diari	-12.5025
igan	-12.5029
▁circu	-12.503
lein	-12.5033
ready	-12.5034
cube	-12.5038
walk	-12.5039
convenient	-12.5039
predictabl	-12.5041
accurate	-12.5042
▁equ	-12.5042
effective	-12.5043
economic	-12.5043
government	-12.5043
affected	-12.5043
daughter	-12.5044
season	-12.5045
fox	-12.5048
▁sel	-12.5048
▁psycho	-12.5049
spring	-12.5049
▁defer	-12.505
help	-12.5051
accessib	-12.5052
match	-12.5056
roar	-12.5056
▁nativ	-12.5057
▁vik	-12.5057
▁suicid	-12.506
asahi	-12.5061
▁comprise	-12.5067
brew	-12.5071
heard	-12.5073
yub	-12.5074
▁godd	-12.5075
▁glamo	-12.5075
money	-12.5075
▁enthusias	-12.5078
▁americ	-12.5088
▁iz	-12.5089
▁numb	-12.5091
▁wolfe	-12.5091
▁cripple	-12.5098
▁yoshi	-12.5099
▁flour	-12.5099
▁exploitati	-12.5101
▁eavesdropp	-12.5101
▁distr	-12.5104
▁daimler	-12.5104
▁consequent	-12.5104
▁entrepreneur	-12.5104
▁involuntar	-12.5104
▁liechtenstein	-12.5104
▁susceptib	-12.5104
▁aeronautic	-12.5104
▁apprehend	-12.5104
▁boulevard	-12.5104
▁demolition	-12.5104
▁grizzl	-12.5104
▁handcuff	-12.5104
▁immoral	-12.5104
▁kilowatt	-12.5104
▁microwave	-12.5104
▁occupy	-12.5104
▁recipient	-12.5104
▁remittance	-12.5104
▁straddl	-12.5104
▁unravel	-12.5104
▁uruguay	-12.5104
▁vicinity	-12.5104
▁banteng	-12.5104
▁detergent	-12.5104
▁friction	-12.5104
▁avatar	-12.5104
▁derelict	-12.5104
▁manhunt	-12.5104
▁mcclinto	-12.5104
▁whirl	-12.5104
▁pundit	-12.5104
▁classify	-12.5104
▁octopus	-12.5104
▁graveyard	-12.5104
▁lodging	-12.5104
nthia	-12.5104
▁magoni	-12.5104
▁smear	-12.5104
▁conspirator	-12.5104
▁hemorrhag	-12.5104
▁marriot	-12.5104
▁indigen	-12.5104
▁turtle	-12.5104
▁wilkins	-12.5104
▁discord	-12.5104
▁imbalance	-12.5104
▁pupil	-12.5104
▁dissent	-12.5104
hygien	-12.5104
▁aviv	-12.5104
▁entail	-12.5104
▁quirk	-12.5104
▁nonviolen	-12.5104
▁acquaintance	-12.5104
▁procure	-12.5104
▁essay	-12.5104
▁gaffe	-12.5104
▁polygam	-12.5104
▁organisation	-12.5105
▁gharial	-12.5105
▁masterpiece	-12.5105
▁snowstorm	-12.5105
▁idris	-12.5105
▁roast	-12.5105
▁grievance	-12.5105
▁minibus	-12.5105
▁chipmaker	-12.5105
▁nongovernment	-12.5105
▁accommodation	-12.5105
▁graff	-12.5105
▁butterfl	-12.5105
▁scour	-12.5106
▁attire	-12.5106
▁overreact	-12.5106
▁clover	-12.5106
▁luxurious	-12.5106
▁entice	-12.5106
▁barbour	-12.5106
emic	-12.5107
orrow	-12.5107
▁haircut	-12.5107
▁wiretapp	-12.5107
rogba	-12.5107
▁termination	-12.5107
ilja	-12.5107
▁toxin	-12.5107
▁dangl	-12.5108
▁hague	-12.5108
▁exemption	-12.5108
imeter	-12.5108
▁corral	-12.5108
▁sift	-12.5108
▁curricul	-12.5108
▁gigabyte	-12.5108
▁aspiration	-12.5108
▁elevation	-12.5108
▁cair	-12.5108
▁rainbow	-12.5108
▁fringe	-12.5108
▁flawless	-12.5108
▁tamper	-12.5109
▁gartner	-12.5109
▁marvel	-12.511
▁carving	-12.511
▁downpour	-12.511
▁novelist	-12.5111
▁sunlight	-12.5111
▁anthr	-12.5111
tisa	-12.5111
▁depot	-12.5111
▁doctrine	-12.5111
▁chick	-12.5111
▁organism	-12.5111
▁milos	-12.5111
choa	-12.5112
▁vander	-12.5112
▁yuri	-12.5113
▁admiral	-12.5113
▁carli	-12.5113
▁walt	-12.5113
▁summar	-12.5113
wire	-12.5114
okou	-12.5114
▁subscriber	-12.5114
▁premeditat	-12.5116
▁cynical	-12.5116
▁runaway	-12.5116
▁tenet	-12.5116
▁mound	-12.5117
ohn	-12.5117
▁injustice	-12.5117
▁jabal	-12.5118
▁filter	-12.5118
▁fiance	-12.5118
midt	-12.5118
▁holz	-12.5118
▁mccle	-12.5118
▁audition	-12.5119
▁adorn	-12.512
▁respectful	-12.512
▁composition	-12.512
▁hoard	-12.5121
▁unsc	-12.5121
kfa	-12.5121
span	-12.5122
▁sauer	-12.5122
▁mongolia	-12.5123
▁fioren	-12.5124
▁galv	-12.5126
▁obeid	-12.5126
▁jolt	-12.5127
▁maggi	-12.5127
nberg	-12.5129
▁sixteen	-12.5129
▁appa	-12.513
▁tani	-12.5132
▁ventilat	-12.5133
▁weiss	-12.5133
▁prim	-12.5134
▁fiji	-12.5135
▁heller	-12.5136
▁worshipper	-12.5136
▁lux	-12.5137
▁worthless	-12.5137
▁corona	-12.5137
▁overpower	-12.5137
▁nye	-12.5137
▁lax	-12.5139
▁congregation	-12.5139
▁cache	-12.514
▁milita	-12.514
▁oba	-12.5142
▁smol	-12.5142
▁inability	-12.5143
▁kisses	-12.5144
▁transformers	-12.5144
▁borough	-12.5147
▁vulnerabilit	-12.5149
▁veil	-12.5152
▁mukas	-12.5152
▁earnest	-12.5153
▁shann	-12.5153
▁polite	-12.5155
▁okay	-12.5155
▁deteriorate	-12.5155
▁covet	-12.5156
▁satan	-12.5156
▁nouri	-12.5161
▁institutional	-12.5161
iena	-12.5162
nant	-12.5162
▁mwan	-12.5164
▁gravitation	-12.5164
▁latino	-12.5166
▁ashes	-12.5166
▁bolsh	-12.5168
▁alessandr	-12.5171
▁bombard	-12.5175
▁sphere	-12.5177
▁bugg	-12.5178
▁stutt	-12.5178
▁scanner	-12.5178
▁pil	-12.5179
▁widower	-12.5179
▁mok	-12.518
▁rightful	-12.518
▁tao	-12.518
nova	-12.518
▁spite	-12.5182
▁trinit	-12.5182
▁rightist	-12.5182
rief	-12.5183
▁designation	-12.5186
guel	-12.519
environmentalist	-12.5191
thle	-12.5191
▁rubin	-12.5196
suit	-12.5196
▁zhi	-12.5198
▁indecen	-12.5198
▁hallow	-12.52
▁sharpen	-12.5202
▁meddl	-12.5204
▁bragg	-12.5207
rome	-12.5211
▁pressur	-12.5214
▁examples	-12.5216
▁emitter	-12.5216
▁calib	-12.5222
egan	-12.5223
▁dom	-12.5224
doo	-12.5224
▁unha	-12.5225
▁lankan	-12.5226
▁lick	-12.5229
▁qur	-12.5232
▁satisfactor	-12.5234
niels	-12.5234
▁tactical	-12.5243
pick	-12.5246
▁qing	-12.5246
▁llc	-12.5247
▁wit	-12.5247
▁kristin	-12.5249
▁santos	-12.525
ased	-12.5252
▁beneficiar	-12.5255
▁lombard	-12.5258
▁glea	-12.5261
▁matri	-12.5266
▁registr	-12.5266
▁scarlet	-12.5267
▁thu	-12.5268
slaughter	-12.5268
yung	-12.5269
riyad	-12.5271
▁fury	-12.5272
▁skylin	-12.5273
▁knot	-12.5278
▁wol	-12.5278
▁hiker	-12.528
▁lauren	-12.5281
ecker	-12.5285
▁yuca	-12.5285
▁corte	-12.5287
▁penetrat	-12.5289
▁brew	-12.5289
▁arter	-12.5292
▁legg	-12.5294
▁twister	-12.5294
▁tee	-12.5297
▁ancest	-12.5299
robe	-12.5299
▁embed	-12.5302
▁bonsa	-12.5307
gie	-12.5314
roz	-12.5317
▁kup	-12.5325
▁mut	-12.5327
▁accessib	-12.5327
▁downside	-12.5329
▁hashim	-12.533
▁slick	-12.5332
▁curv	-12.5334
lastic	-12.5337
jid	-12.5338
▁visitation	-12.5341
mise	-12.5342
▁dictate	-12.5344
enay	-12.5345
▁kampu	-12.5346
▁hil	-12.5348
▁parish	-12.5348
▁dp	-12.5353
▁bells	-12.5354
▁slate	-12.5357
▁consultati	-12.5357
pears	-12.536
▁skirt	-12.5364
▁sali	-12.5366
▁wink	-12.5371
▁dayton	-12.5372
▁mod	-12.5375
rough	-12.5376
▁goul	-12.5376
▁wealthie	-12.5379
slow	-12.5382
▁hoy	-12.5382
▁fest	-12.5389
▁mun	-12.5391
vision	-12.5393
▁sander	-12.5393
▁legislat	-12.5396
▁rok	-12.54
▁tat	-12.54
▁ellis	-12.5404
▁moai	-12.5406
▁lonel	-12.5411
▁judd	-12.5414
▁distinguish	-12.5417
▁coupons	-12.542
▁yachts	-12.5421
▁dominan	-12.5427
▁equaliz	-12.5428
▁santor	-12.543
▁campo	-12.543
▁yush	-12.5431
▁mello	-12.5434
pal	-12.5435
afsha	-12.5438
▁damp	-12.544
bei	-12.5447
▁fig	-12.5448
▁confuse	-12.5455
lissa	-12.5456
▁pontif	-12.546
rani	-12.546
dka	-12.5461
gu	-12.5464
▁maur	-12.5466
▁likeness	-12.5467
ians	-12.5468
▁disposa	-12.5474
▁ichi	-12.5475
▁malt	-12.5475
▁pha	-12.5477
▁councilor	-12.5477
rage	-12.5481
▁jaip	-12.5482
escent	-12.5486
noble	-12.5486
prk	-12.5491
▁cheng	-12.5492
▁qualifie	-12.5496
dolph	-12.5496
ollen	-12.5496
▁utilize	-12.5497
▁robes	-12.5498
▁hum	-12.5506
ichi	-12.5512
ema	-12.5513
wage	-12.5516
▁jar	-12.5523
▁gaill	-12.5524
▁rotte	-12.5526
▁jia	-12.5531
cchi	-12.5531
▁matur	-12.5537
hor	-12.5538
▁sarco	-12.554
▁spik	-12.5542
▁perk	-12.5543
▁avian	-12.5555
aq	-12.5564
▁eclipse	-12.5564
young	-12.5569
▁chai	-12.5572
▁servers	-12.5577
elipe	-12.5581
▁marul	-12.5581
zhn	-12.5582
napped	-12.5588
▁humble	-12.5588
az	-12.5589
oslo	-12.5592
▁defamat	-12.5593
▁kaz	-12.5599
▁poet	-12.56
▁abductions	-12.56
kka	-12.5604
iar	-12.5618
▁misus	-12.5624
▁stretche	-12.5624
▁chon	-12.5628
souf	-12.5628
etsk	-12.563
▁breeder	-12.5632
poly	-12.5634
▁unsee	-12.5634
▁abide	-12.5635
haria	-12.5637
heng	-12.564
▁tracker	-12.5641
issan	-12.5643
▁gert	-12.5658
▁terminate	-12.5658
▁oral	-12.5659
▁clima	-12.5664
▁stitche	-12.5673
iba	-12.5675
▁frederic	-12.5678
lem	-12.5688
▁trooper	-12.5693
▁unnerv	-12.5703
▁prof	-12.5705
rshad	-12.5707
▁renam	-12.5709
▁tallie	-12.571
▁washing	-12.5723
▁attende	-12.5732
▁toast	-12.5735
▁commons	-12.574
▁perceive	-12.5755
arat	-12.5755
medic	-12.576
▁activat	-12.5771
▁aston	-12.5777
▁mute	-12.5784
▁alleviate	-12.5787
▁holi	-12.5801
▁robe	-12.5803
▁colo	-12.5803
sam	-12.5808
vp	-12.5812
▁kazu	-12.5814
bach	-12.5814
▁lange	-12.5818
keeper	-12.5833
erno	-12.5833
▁afar	-12.5836
onic	-12.5837
▁deco	-12.5839
mps	-12.584
▁alta	-12.5841
▁relie	-12.5843
▁outfield	-12.5844
osan	-12.5855
▁dona	-12.5856
▁marian	-12.5856
▁wastes	-12.5859
▁dair	-12.5859
▁cosm	-12.5861
▁dail	-12.5862
ska	-12.5867
endo	-12.5869
tri	-12.5869
▁mutilat	-12.5875
▁kab	-12.5876
▁zub	-12.5877
▁skid	-12.5889
low	-12.5889
cu	-12.5893
ain	-12.5896
achel	-12.59
▁blockbusters	-12.5902
▁desp	-12.5903
▁stranding	-12.5904
▁levin	-12.5918
eston	-12.5921
apolis	-12.5927
▁sock	-12.5931
▁kal	-12.5931
▁updat	-12.5937
fusion	-12.5945
▁christo	-12.5946
▁swell	-12.5956
▁gila	-12.5958
▁meri	-12.5961
▁duc	-12.5962
ech	-12.5962
▁mani	-12.5964
▁impersonat	-12.5965
athan	-12.5966
▁intern	-12.5967
▁stri	-12.5967
science	-12.5969
pur	-12.5971
▁insert	-12.5974
▁facilitat	-12.5975
uni	-12.5976
▁cas	-12.5981
roid	-12.5986
▁stimulat	-12.5987
gh	-12.5988
▁atta	-12.5989
▁jenn	-12.5994
▁piz	-12.6002
▁tremor	-12.6004
▁hurdle	-12.6005
rou	-12.6006
▁yacht	-12.6007
▁oppress	-12.601
▁accomplishment	-12.601
▁penguin	-12.6017
poon	-12.6018
▁arc	-12.6019
▁roadway	-12.6022
xi	-12.603
▁pillar	-12.6033
▁proteins	-12.6035
dder	-12.6043
▁hono	-12.6049
▁unt	-12.6051
▁idi	-12.6054
fe	-12.6058
nne	-12.6075
▁marker	-12.6076
▁mariner	-12.6095
▁victori	-12.6098
▁defus	-12.6098
comm	-12.6099
▁coma	-12.6103
▁solan	-12.6112
▁forbid	-12.6119
▁coupon	-12.6125
lf	-12.613
▁aspir	-12.613
rail	-12.6135
▁samp	-12.6137
▁kma	-12.6148
▁assemble	-12.6148
oise	-12.6151
▁mara	-12.6155
▁stab	-12.6155
lee	-12.6157
▁pear	-12.6161
▁confe	-12.6162
▁aq	-12.6164
▁guse	-12.6171
▁lik	-12.6172
omo	-12.6174
▁tama	-12.6175
iti	-12.6175
ender	-12.6182
▁spotte	-12.6187
▁chil	-12.6189
ratt	-12.619
▁liberaliz	-12.6194
fia	-12.62
tent	-12.6201
▁stereo	-12.6205
▁encircl	-12.6207
▁berger	-12.6209
▁yasuhi	-12.6227
yud	-12.6233
▁rb	-12.6233
ppe	-12.6237
▁yul	-12.6244
▁suppressi	-12.6245
▁robb	-12.6246
idge	-12.6253
▁tub	-12.6254
load	-12.6254
▁logic	-12.6262
nix	-12.6263
▁dipp	-12.6265
zine	-12.6266
▁flore	-12.6267
▁whaler	-12.6272
▁thrust	-12.6275
uddin	-12.6278
embe	-12.6279
▁manipulate	-12.6279
nourishe	-12.628
▁demo	-12.6281
▁mau	-12.6282
gher	-12.6284
case	-12.629
realistic	-12.629
bridge	-12.6291
tooth	-12.6292
stroke	-12.6293
historic	-12.6293
brook	-12.6293
hawk	-12.6293
graduate	-12.6293
pour	-12.6295
style	-12.6296
▁euthan	-12.6298
ister	-12.6298
swam	-12.6298
▁secre	-12.63
gawa	-12.6301
reason	-12.6302
fried	-12.6302
▁spoil	-12.6303
▁euph	-12.6304
siege	-12.6305
▁expo	-12.6307
▁kum	-12.631
▁lieutenants	-12.631
▁paralysi	-12.6311
▁legalize	-12.6311
osu	-12.6313
▁infuriate	-12.6319
kaya	-12.632
iah	-12.632
▁emer	-12.6321
master	-12.633
trayal	-12.6331
▁olympia	-12.6332
▁emir	-12.6333
▁disast	-12.6334
thma	-12.6336
lom	-12.6338
▁lenien	-12.6339
▁scrub	-12.6344
▁morris	-12.6345
▁beau	-12.6346
▁eject	-12.6347
▁snag	-12.6348
▁homo	-12.6348
▁bug	-12.6349
▁spam	-12.635
▁reconstruct	-12.635
slaught	-12.6352
▁bjor	-12.6352
cussion	-12.6354
▁clarifi	-12.6354
▁dharams	-12.6354
▁incorrect	-12.6354
▁bikini	-12.6354
▁brazen	-12.6354
▁chechnya	-12.6354
▁dilemma	-12.6354
▁encroach	-12.6354
▁fountain	-12.6354
▁kiosk	-12.6354
▁mishandl	-12.6354
▁modify	-12.6354
▁montenegr	-12.6354
▁nanotube	-12.6354
▁orangutan	-12.6354
▁pablo	-12.6354
▁permafrost	-12.6354
▁pesticide	-12.6354
▁prejudice	-12.6354
▁remorse	-12.6354
▁reprimand	-12.6354
▁rheumato	-12.6354
▁scapegoat	-12.6354
▁semiconductor	-12.6354
▁stupid	-12.6354
▁subtitle	-12.6354
▁torchbearer	-12.6354
▁tumult	-12.6354
▁uninhabit	-12.6354
▁unpleasant	-12.6354
▁arrogan	-12.6354
▁blatant	-12.6354
▁linguistic	-12.6354
▁nullify	-12.6354
▁scully	-12.6354
▁entrench	-12.6354
▁glorify	-12.6354
▁mahmud	-12.6354
▁oleg	-12.6354
▁qantas	-12.6354
▁sapien	-12.6354
funct	-12.6354
▁glitch	-12.6354
▁shroud	-12.6354
▁tweak	-12.6354
▁conversion	-12.6354
▁ernest	-12.6354
▁piercing	-12.6354
▁archeologist	-12.6354
▁horizontal	-12.6354
▁thirst	-12.6354
▁scourge	-12.6354
▁outsourc	-12.6354
▁snoop	-12.6354
▁vivid	-12.6354
▁halper	-12.6354
▁electrocut	-12.6354
▁bookstore	-12.6354
▁picnic	-12.6354
▁ivanko	-12.6354
▁blunder	-12.6355
▁irreversibl	-12.6355
▁reschedul	-12.6355
▁eradicat	-12.6355
▁assailant	-12.6355
▁tirade	-12.6355
▁fabian	-12.6355
▁chechen	-12.6355
▁timber	-12.6355
▁slaughterhouse	-12.6355
▁humbert	-12.6355
▁ovation	-12.6355
▁bombardier	-12.6355
▁zem	-12.6355
▁gunbattle	-12.6355
▁undervalue	-12.6355
▁perennial	-12.6356
▁regroup	-12.6356
▁bancroft	-12.6356
▁calif	-12.6356
▁grue	-12.6356
▁pervasive	-12.6356
▁mulia	-12.6356
▁sunset	-12.6357
▁payroll	-12.6357
▁orchard	-12.6357
▁playboy	-12.6357
▁pharmacist	-12.6358
▁financier	-12.6358
▁dealership	-12.6358
▁niece	-12.6358
▁neural	-12.6358
▁exhaustive	-12.6358
▁turbulence	-12.6358
▁tailor	-12.6358
▁eros	-12.6358
▁eldor	-12.6358
▁rehearsal	-12.6358
▁giovan	-12.6358
▁livelihood	-12.6359
lobo	-12.6359
▁appliance	-12.6359
▁annex	-12.6359
osexual	-12.6359
▁trumpet	-12.6359
▁rapper	-12.6359
▁hoax	-12.6359
usnes	-12.636
▁precis	-12.636
▁mountaineer	-12.636
▁cylinder	-12.636
▁wolve	-12.636
▁mattress	-12.636
▁excavation	-12.6361
▁deception	-12.6361
▁imperialist	-12.6361
▁realtor	-12.6361
▁crusade	-12.6362
▁persecut	-12.6362
▁contamination	-12.6362
▁socialite	-12.6363
▁lauder	-12.6363
▁neat	-12.6363
▁poach	-12.6363
▁microbe	-12.6363
▁feasibl	-12.6364
▁audi	-12.6365
▁snagg	-12.6365
▁appointee	-12.6365
▁lurk	-12.6365
▁partition	-12.6365
▁postcard	-12.6365
guide	-12.6366
▁plow	-12.6366
▁reversal	-12.6366
▁distortion	-12.6366
▁monro	-12.6366
ternate	-12.6367
ourage	-12.6368
▁keyboard	-12.6368
▁alternate	-12.6369
▁trampled	-12.6369
mela	-12.6369
▁cjd	-12.6369
▁witch	-12.637
▁shave	-12.6371
▁bachel	-12.6371
▁huang	-12.6371
▁harmless	-12.6372
▁stride	-12.6372
▁sitter	-12.6373
▁walton	-12.6373
▁hoist	-12.6374
▁relic	-12.6375
▁selloff	-12.6377
nott	-12.6378
▁pedophile	-12.6378
▁acquittal	-12.6378
▁liar	-12.6379
▁stave	-12.6379
▁defection	-12.638
▁reeves	-12.6381
▁surre	-12.6381
▁clogg	-12.6381
▁baile	-12.6382
▁tasting	-12.6382
▁loft	-12.6383
▁schoolgirl	-12.6385
▁evangelist	-12.6386
▁haunt	-12.6387
▁wobble	-12.6388
gia	-12.6389
▁cutback	-12.6389
▁cristi	-12.639
▁spillway	-12.6391
▁yank	-12.6392
▁astro	-12.6393
▁protestant	-12.6393
▁cervi	-12.6395
gam	-12.6395
▁cellar	-12.6398
▁backhand	-12.6398
▁beekeeper	-12.6398
▁parma	-12.64
▁bundle	-12.6401
▁limon	-12.6401
ulsan	-12.6402
▁pow	-12.6403
▁polk	-12.6405
ality	-12.6405
alai	-12.6407
▁lobbie	-12.641
▁pag	-12.6412
▁euthanize	-12.6412
▁makeover	-12.6413
▁recreation	-12.6416
▁curti	-12.6418
▁torri	-12.6421
▁kiln	-12.6421
max	-12.6422
▁kilo	-12.6422
▁freighter	-12.6422
▁etc	-12.6426
aikon	-12.6426
▁tempt	-12.6426
▁reput	-12.6427
▁convenient	-12.6428
▁ponder	-12.6428
▁showroom	-12.643
▁spurt	-12.6431
▁cabo	-12.6433
▁prudent	-12.6435
kham	-12.6437
▁bids	-12.6437
▁bestsell	-12.6439
▁insur	-12.6439
▁grader	-12.6444
▁gonu	-12.6444
ingles	-12.6445
hall	-12.6447
lic	-12.6449
rash	-12.6455
iman	-12.6455
▁mum	-12.6456
▁subversi	-12.6457
▁alegr	-12.6459
▁compromis	-12.6459
▁culminate	-12.6459
▁illustrate	-12.646
▁leon	-12.6461
pag	-12.6464
extraterrestrial	-12.6465
▁shortcoming	-12.6465
▁lent	-12.6467
▁midland	-12.6468
▁suff	-12.647
▁hendri	-12.6471
hamel	-12.6472
▁honduras	-12.6474
▁eyebrows	-12.6474
▁balanc	-12.6475
ucinic	-12.6476
▁bac	-12.6476
▁chamb	-12.6476
▁francesc	-12.6481
▁allowance	-12.6485
uli	-12.6487
▁cav	-12.649
▁shum	-12.6493
kar	-12.6494
▁conrad	-12.6495
ttered	-12.6497
▁mama	-12.6498
raped	-12.65
▁denn	-12.65
cott	-12.6505
agong	-12.6506
ere	-12.6507
▁afl	-12.6507
▁roan	-12.651
▁nico	-12.6511
▁suffocat	-12.6513
tter	-12.6513
▁salad	-12.6514
ehead	-12.6514
▁allah	-12.652
▁lith	-12.6521
▁defaulter	-12.6521
mid	-12.6524
▁keller	-12.6526
▁smog	-12.653
▁coral	-12.6531
imo	-12.6533
▁krist	-12.6541
ile	-12.6544
▁refuel	-12.6545
▁lar	-12.6545
▁curl	-12.6552
ex	-12.6556
▁spru	-12.6557
▁homi	-12.6558
wind	-12.6558
▁shuk	-12.656
weight	-12.656
▁haas	-12.656
▁marty	-12.6561
▁molecul	-12.6565
hue	-12.6565
▁gasp	-12.6565
agliar	-12.6566
▁patter	-12.6566
▁implicat	-12.6571
net	-12.6574
▁countrymen	-12.6576
▁bidders	-12.658
▁amir	-12.6581
pr	-12.6582
ced	-12.6592
▁piled	-12.6595
illo	-12.6597
eppel	-12.66
▁tas	-12.6601
for	-12.6605
▁bao	-12.6605
rang	-12.6607
▁hacke	-12.6612
tui	-12.6616
▁rhon	-12.6617
agh	-12.6623
lli	-12.6624
▁gut	-12.6628
▁locke	-12.6638
epp	-12.6639
▁kins	-12.664
▁glid	-12.6644
▁labe	-12.6645
▁neutralize	-12.6647
▁adhere	-12.6655
ashkar	-12.6656
▁bloodie	-12.6657
▁maximize	-12.6657
▁siddiq	-12.6662
andra	-12.6664
ough	-12.6666
▁insects	-12.6667
passionate	-12.6671
▁fc	-12.6676
▁qata	-12.6686
▁hai	-12.669
▁nou	-12.6691
ving	-12.6693
link	-12.6694
▁functional	-12.6695
gura	-12.6696
▁billow	-12.6697
▁frightening	-12.6699
▁consula	-12.6712
▁tremors	-12.6716
▁hurdles	-12.6716
▁hemi	-12.6729
▁hasten	-12.6742
▁sule	-12.6745
▁fraz	-12.6746
▁converter	-12.6748
▁ike	-12.6748
ps	-12.6749
▁hos	-12.676
ssels	-12.6762
▁wada	-12.6766
mas	-12.6767
isch	-12.6767
▁stephens	-12.6769
▁rin	-12.677
▁rena	-12.6774
▁chilling	-12.6775
qi	-12.678
nage	-12.6795
uto	-12.6801
▁sheer	-12.6809
▁strat	-12.6811
▁whisk	-12.682
▁kost	-12.6825
▁illuminat	-12.6835
▁naka	-12.6842
▁median	-12.6844
▁lookout	-12.6846
ption	-12.6846
▁extort	-12.6856
ols	-12.6857
▁chery	-12.6859
▁isabell	-12.6862
▁inundate	-12.6868
aj	-12.6874
▁tab	-12.6878
elman	-12.688
▁ventur	-12.6883
isman	-12.6884
eef	-12.6886
knesse	-12.6889
lix	-12.6895
erick	-12.69
▁crand	-12.6903
rie	-12.6904
▁tep	-12.6904
▁hale	-12.6907
▁glue	-12.6907
▁glamor	-12.6908
table	-12.6908
▁nong	-12.6909
▁divulge	-12.691
▁karr	-12.6913
fm	-12.6914
▁eater	-12.6924
▁shir	-12.6924
kill	-12.6928
▁acr	-12.6936
▁murderer	-12.6939
pper	-12.6942
▁swede	-12.6944
▁tripp	-12.6944
icker	-12.6964
▁seb	-12.6967
▁akh	-12.697
lice	-12.6971
jin	-12.698
▁chem	-12.698
▁hatha	-12.6986
▁shahr	-12.6987
▁commut	-12.6989
▁idle	-12.6989
fid	-12.6993
▁tenzin	-12.6996
▁arr	-12.6996
rum	-12.7003
iku	-12.7005
isse	-12.7015
ib	-12.7024
uchi	-12.7032
▁revitaliz	-12.7036
▁vern	-12.7037
▁foresee	-12.7038
▁pains	-12.7041
▁marcos	-12.7057
user	-12.7063
ifa	-12.7064
▁hubb	-12.7069
▁angle	-12.7073
▁alto	-12.7074
▁mol	-12.7079
▁begg	-12.708
▁handler	-12.7081
▁teres	-12.7081
▁yasa	-12.7082
▁muha	-12.7082
▁politicize	-12.7083
▁hab	-12.7084
▁basa	-12.7089
▁tarnish	-12.7094
▁benit	-12.7097
▁dor	-12.7098
mp	-12.7099
▁terminat	-12.7101
liot	-12.7113
▁congesti	-12.7113
▁clai	-12.7121
mir	-12.7126
tour	-12.713
▁cau	-12.7131
▁inju	-12.7134
aden	-12.7137
▁importer	-12.7137
▁hashem	-12.7138
▁askari	-12.714
▁incon	-12.7149
mb	-12.7149
oto	-12.7153
xa	-12.7164
▁corners	-12.7169
▁grappl	-12.7182
ides	-12.7183
▁rah	-12.72
rus	-12.7201
oya	-12.7202
▁ador	-12.7205
▁tyle	-12.7209
nch	-12.7212
▁riche	-12.7215
▁hp	-12.7219
▁crowe	-12.722
rance	-12.7222
ien	-12.7231
▁demi	-12.7234
▁sac	-12.7247
▁salvati	-12.7248
▁hiroshi	-12.7249
▁slamme	-12.7265
ety	-12.7268
utt	-12.7272
▁hayd	-12.7275
▁zaina	-12.7275
gas	-12.7278
▁caste	-12.7278
▁brow	-12.728
hei	-12.7284
sco	-12.7293
▁menac	-12.7293
▁carne	-12.7302
illian	-12.7303
itzer	-12.7303
fu	-12.7305
▁socio	-12.7309
aries	-12.7312
▁gravel	-12.7323
ency	-12.7323
▁huddl	-12.733
▁chul	-12.7334
▁carol	-12.7338
▁worrying	-12.7338
▁gwa	-12.7339
▁lau	-12.734
▁dou	-12.7348
usted	-12.7354
▁kla	-12.7356
oper	-12.7363
▁conven	-12.7367
▁compassion	-12.7371
▁originat	-12.7371
▁petra	-12.7374
zer	-12.7384
enez	-12.7386
flation	-12.7394
zar	-12.7396
▁huddle	-12.74
▁underlin	-12.7403
▁obi	-12.7406
terres	-12.7407
acher	-12.7408
▁variation	-12.741
py	-12.7419
asco	-12.7426
▁helm	-12.7429
▁hander	-12.743
▁insect	-12.7434
uchov	-12.7435
reach	-12.7437
▁gorilla	-12.7447
▁integra	-12.7448
▁antibiotic	-12.7449
▁stephan	-12.745
▁tang	-12.7451
lion	-12.7451
▁semiti	-12.7451
▁marti	-12.7457
▁attendant	-12.7459
▁migrat	-12.7464
rick	-12.7467
ellwe	-12.747
rafa	-12.748
▁unrel	-12.7488
nier	-12.7488
zy	-12.749
▁gha	-12.7493
▁helsin	-12.7498
▁spi	-12.7504
▁puzzle	-12.7505
lude	-12.7509
lander	-12.7513
▁garro	-12.7524
▁inflat	-12.7525
▁baku	-12.7528
▁stok	-12.7528
▁grani	-12.7531
▁seab	-12.7531
▁overtake	-12.7535
▁flam	-12.7541
eu	-12.7543
▁bam	-12.7546
▁kuo	-12.7557
▁hoe	-12.7557
lson	-12.7561
lb	-12.7564
logy	-12.7566
glo	-12.7568
pression	-12.7573
▁evacuat	-12.7574
▁storie	-12.7577
▁reset	-12.7578
▁surprises	-12.758
▁tow	-12.7581
dou	-12.7586
halifa	-12.7588
▁exhibited	-12.7591
▁insure	-12.7592
▁clu	-12.7592
osis	-12.7596
hbo	-12.7603
▁gur	-12.7607
tle	-12.7611
▁entitle	-12.762
speak	-12.7621
mple	-12.7623
erner	-12.7624
▁paddle	-12.7624
may	-12.7625
ldp	-12.7637
mur	-12.7643
▁transmit	-12.7656
▁lex	-12.7665
▁heli	-12.7668
▁advers	-12.7672
▁slavi	-12.7672
▁upgrad	-12.7674
gart	-12.7676
▁trim	-12.7678
otti	-12.7679
▁yam	-12.7681
▁lamb	-12.7682
▁halle	-12.7683
▁underse	-12.7684
make	-12.7688
▁const	-12.7688
ratify	-12.7694
▁imag	-12.7698
bras	-12.77
announc	-12.7703
▁revol	-12.7706
▁necessit	-12.7713
girls	-12.7718
pleasure	-12.772
blood	-12.7721
meyer	-12.7721
▁pino	-12.7721
account	-12.7721
electric	-12.7721
drift	-12.7721
first	-12.7722
proof	-12.7722
fair	-12.7722
chrys	-12.7722
complete	-12.7723
▁destin	-12.7723
stopp	-12.7724
storm	-12.7724
boat	-12.7725
broken	-12.7726
famous	-12.7729
doubted	-12.7729
lund	-12.7733
▁faw	-12.7734
tight	-12.7737
ep	-12.7739
▁bolivar	-12.774
izer	-12.774
kma	-12.7741
▁reassur	-12.7744
tub	-12.7745
assa	-12.7746
▁wrest	-12.7746
elho	-12.775
▁sc	-12.775
tical	-12.775
▁reunite	-12.7751
wenge	-12.7753
▁adm	-12.7755
linda	-12.7756
▁lyn	-12.7756
finger	-12.7757
einfeld	-12.7758
▁identi	-12.7759
▁exclusi	-12.776
bard	-12.7762
▁dimension	-12.7762
▁allergi	-12.7764
▁automat	-12.7765
▁terroriz	-12.7767
ratchet	-12.7769
mulate	-12.7772
▁seren	-12.7773
▁enlarge	-12.7774
cuz	-12.7774
▁galler	-12.7774
▁hunke	-12.7775
▁exempt	-12.7778
▁manifest	-12.7779
cken	-12.778
▁surroga	-12.778
▁lace	-12.7782
▁disgr	-12.7782
found	-12.7782
nuptial	-12.7783
▁aberdeen	-12.7783
▁abstention	-12.7783
▁allegiance	-12.7783
▁anaconda	-12.7783
▁ascertain	-12.7783
▁avocado	-12.7783
▁caricature	-12.7783
▁constituent	-12.7783
▁contaminant	-12.7783
▁curiosit	-12.7783
▁dungeon	-12.7783
▁dwarf	-12.7783
▁elicit	-12.7783
▁embolden	-12.7783
▁etiquette	-12.7783
▁expenditure	-12.7783
▁geopolitic	-12.7783
▁greyhound	-12.7783
▁imperative	-12.7783
▁instinct	-12.7783
▁leicester	-12.7783
▁limousine	-12.7783
▁maverick	-12.7783
▁nostalgi	-12.7783
▁overcrowd	-12.7783
▁pamphlet	-12.7783
▁piccolo	-12.7783
▁python	-12.7783
▁shockwave	-12.7783
▁succumb	-12.7783
▁trespass	-12.7783
▁unfavorabl	-12.7783
▁unmistakabl	-12.7783
▁unwelcome	-12.7783
▁uproot	-12.7783
▁vegetarian	-12.7783
▁vegetation	-12.7783
▁blasphem	-12.7783
▁blissitt	-12.7783
▁cochran	-12.7783
▁insomnia	-12.7783
▁stylish	-12.7783
▁cocktail	-12.7783
▁culver	-12.7783
▁disparit	-12.7783
▁handshake	-12.7783
▁incarcerat	-12.7783
▁jealous	-12.7783
▁mothball	-12.7783
▁neighbour	-12.7783
▁questionnaire	-12.7783
▁schwartz	-12.7783
▁vehement	-12.7783
▁disgust	-12.7783
▁newsletter	-12.7783
▁whisper	-12.7783
▁anguish	-12.7783
▁encompass	-12.7783
▁inherent	-12.7783
▁necklace	-12.7783
▁wreath	-12.7783
▁astrophysic	-12.7783
▁lobster	-12.7783
▁wreak	-12.7783
▁magellan	-12.7783
▁parcel	-12.7783
▁songwriter	-12.7783
▁diagnosis	-12.7783
▁futile	-12.7783
▁thunderstorm	-12.7783
▁proficien	-12.7783
▁siphon	-12.7783
▁galile	-12.7783
▁xavi	-12.7783
▁ardent	-12.7783
▁commence	-12.7783
▁homepage	-12.7783
▁horizon	-12.7783
▁shantytown	-12.7783
▁mortem	-12.7783
▁hotspot	-12.7783
▁sororit	-12.7783
▁waheed	-12.7783
▁minaret	-12.7783
▁zogb	-12.7783
▁habitual	-12.7783
▁megawatt	-12.7783
▁conquer	-12.7783
▁rookie	-12.7783
▁boutique	-12.7783
▁bracket	-12.7783
▁soundtrack	-12.7783
▁franz	-12.7783
▁discredit	-12.7783
▁kindergarten	-12.7783
▁ransack	-12.7783
▁enslav	-12.7783
shep	-12.7783
▁silk	-12.7783
▁hippo	-12.7783
▁sculptor	-12.7783
▁headscar	-12.7783
▁intersection	-12.7783
▁hinck	-12.7783
▁macedonia	-12.7783
▁texture	-12.7783
iyad	-12.7783
▁trouser	-12.7783
▁exonerat	-12.7783
▁peddl	-12.7783
▁drench	-12.7783
▁auctioneer	-12.7784
▁sparse	-12.7784
▁notebook	-12.7784
▁fissi	-12.7784
▁lafa	-12.7784
▁reorganize	-12.7784
▁simmon	-12.7784
▁mujahid	-12.7784
▁improvis	-12.7784
venir	-12.7784
▁harrod	-12.7784
▁mcew	-12.7784
▁stockhausen	-12.7784
▁oxf	-12.7784
▁schill	-12.7784
▁horde	-12.7784
▁irving	-12.7784
▁anthropologist	-12.7784
▁pediatrician	-12.7784
▁arbitrat	-12.7784
▁cereal	-12.7785
▁backyard	-12.7785
▁roberson	-12.7785
▁clump	-12.7785
▁ferment	-12.7785
▁subdue	-12.7785
▁poetry	-12.7785
pena	-12.7785
▁hungarian	-12.7785
▁adamant	-12.7785
▁wig	-12.7786
▁snarl	-12.7786
▁koala	-12.7786
▁siem	-12.7786
▁dividend	-12.7786
▁outburst	-12.7786
▁spearhead	-12.7786
▁stringent	-12.7786
▁variable	-12.7786
▁spacesuit	-12.7786
▁platini	-12.7787
▁pumpkin	-12.7787
▁gersh	-12.7787
▁ventilator	-12.7787
▁guitarist	-12.7787
▁streamline	-12.7787
▁marque	-12.7787
▁subtle	-12.7787
▁inexperience	-12.7787
▁quail	-12.7787
▁niche	-12.7788
▁censure	-12.7788
▁magdalen	-12.7788
grass	-12.7788
▁angola	-12.7788
tacean	-12.7788
▁seafar	-12.7788
▁repay	-12.7788
▁dampen	-12.7788
▁zhong	-12.7788
▁foam	-12.7789
egis	-12.7789
▁cheek	-12.7789
▁vertical	-12.7789
▁earmark	-12.7789
▁doctorate	-12.7789
▁crossfire	-12.779
▁latif	-12.779
▁coax	-12.779
blanc	-12.779
dience	-12.779
▁flagship	-12.779
▁paranoi	-12.779
▁vaccinat	-12.779
wan	-12.7791
▁lexus	-12.7791
▁unload	-12.7791
▁meditation	-12.7791
▁loch	-12.7791
ellin	-12.7791
▁pristin	-12.7792
▁kolk	-12.7792
▁impatient	-12.7792
kagi	-12.7792
▁rapist	-12.7792
▁baham	-12.7793
▁cali	-12.7793
▁occurrence	-12.7793
▁accura	-12.7793
▁morrison	-12.7794
▁medina	-12.7794
▁blockade	-12.7794
▁pelt	-12.7794
▁underdog	-12.7794
▁slur	-12.7794
▁delete	-12.7794
▁breathtaking	-12.7795
▁strive	-12.7795
▁trove	-12.7795
▁potts	-12.7796
▁reposition	-12.7796
▁kurt	-12.7796
▁myeong	-12.7796
▁hollow	-12.7796
ogury	-12.7798
▁dani	-12.7798
▁aguil	-12.7799
▁holling	-12.7799
▁intruder	-12.78
▁adversari	-12.78
▁raven	-12.78
▁peril	-12.78
▁trimm	-12.7801
▁swee	-12.7801
mund	-12.7801
▁pix	-12.7801
▁flopp	-12.7801
▁upload	-12.7802
tomed	-12.7802
▁grassland	-12.7802
▁zombie	-12.7803
▁agitat	-12.7803
▁whip	-12.7803
▁wrongful	-12.7803
▁interception	-12.7803
▁saucer	-12.7804
stage	-12.7804
▁ferre	-12.7804
▁waterboard	-12.7804
▁equator	-12.7805
▁sanja	-12.7805
▁gadda	-12.7806
▁chronicle	-12.7807
▁align	-12.7807
ktra	-12.7807
▁efp	-12.7807
▁privatiz	-12.7807
▁quo	-12.7807
▁notori	-12.7808
▁cramm	-12.7808
▁saeed	-12.7808
▁donggu	-12.781
▁ghana	-12.781
▁trio	-12.7811
▁mukh	-12.7811
▁limitations	-12.7812
▁hypothes	-12.7812
ynov	-12.7813
▁sober	-12.7813
▁cavaliers	-12.7814
▁christen	-12.7814
▁decry	-12.7814
▁tilt	-12.7815
▁badge	-12.7816
▁optical	-12.7817
▁kingsto	-12.7817
▁boj	-12.782
▁knockout	-12.782
xter	-12.7823
irelessly	-12.7823
ui	-12.7823
▁infuriat	-12.7824
▁resonat	-12.7824
▁sagg	-12.7824
▁fogg	-12.7824
▁bolivarian	-12.7825
▁roberts	-12.7826
▁kwak	-12.7827
croft	-12.7829
▁bono	-12.7829
▁cont	-12.783
vasive	-12.783
▁dumb	-12.7832
▁chua	-12.7833
▁analys	-12.7833
▁svet	-12.7834
fication	-12.7835
▁rhy	-12.7836
▁brighten	-12.7836
▁bruise	-12.7839
▁mcde	-12.784
▁crematori	-12.7843
▁bode	-12.7844
▁olli	-12.7845
▁gand	-12.7847
▁scribe	-12.7848
istani	-12.7848
▁tril	-12.7849
ip	-12.7849
▁colom	-12.785
▁tata	-12.7851
▁abductor	-12.7851
▁validate	-12.7851
▁kuwaiti	-12.7852
▁ecolog	-12.7856
▁kiri	-12.7858
▁divo	-12.7858
▁reggi	-12.7858
bagh	-12.7858
▁loath	-12.7861
▁bumper	-12.7862
▁hurried	-12.7862
▁sesh	-12.7863
dine	-12.7864
▁communiqu	-12.7867
acle	-12.7867
▁withhold	-12.7874
▁haze	-12.7874
▁motorway	-12.7875
▁parasite	-12.7876
▁ral	-12.7876
▁poise	-12.7878
▁villain	-12.7879
▁brandish	-12.788
▁nutritional	-12.788
▁gani	-12.788
▁jali	-12.7881
▁toughen	-12.7883
▁bangladeshi	-12.7883
▁cola	-12.789
▁imply	-12.789
▁wesley	-12.7896
▁tram	-12.7897
du	-12.7899
▁kap	-12.7901
▁digest	-12.7902
guo	-12.7903
▁nang	-12.7905
nts	-12.7908
▁commemorat	-12.7909
▁continuously	-12.7909
▁burger	-12.7909
cesc	-12.791
▁consolidati	-12.791
▁durham	-12.791
ads	-12.7911
▁hopeless	-12.7911
▁fraternit	-12.7911
slav	-12.7915
▁arlen	-12.7918
▁kaise	-12.7919
▁ter	-12.7921
uca	-12.7923
▁pend	-12.7924
▁atkins	-12.7926
alph	-12.7927
baz	-12.7929
▁caul	-12.7933
▁pian	-12.7934
▁idiot	-12.7939
zburg	-12.7942
▁soba	-12.7942
hamble	-12.7943
▁mik	-12.7943
▁elevate	-12.7949
▁propeller	-12.7952
▁sellout	-12.7955
▁peni	-12.7959
▁moderat	-12.7963
▁dior	-12.7964
▁yaki	-12.7964
▁graphi	-12.7965
▁rene	-12.7966
▁shedd	-12.7966
▁sprinter	-12.7968
▁joking	-12.7972
suke	-12.7972
▁khaz	-12.7974
▁mast	-12.7975
▁inscription	-12.7976
alo	-12.7978
▁salem	-12.798
sworth	-12.7984
▁specifi	-12.7988
▁hana	-12.799
▁lebr	-12.7991
▁fink	-12.7996
opoul	-12.8001
▁postur	-12.8004
▁mayo	-12.8007
otto	-12.8007
▁buckle	-12.8008
babil	-12.8008
eiffe	-12.8009
face	-12.801
▁wanna	-12.8012
leak	-12.8016
▁padd	-12.8016
desta	-12.8018
allest	-12.8019
▁khu	-12.8021
▁smoothly	-12.8022
▁slipper	-12.8027
cragg	-12.8027
hofst	-12.8032
▁unionist	-12.8032
▁porto	-12.8036
assi	-12.8036
▁narrat	-12.8039
uku	-12.8041
▁grey	-12.8045
▁payout	-12.8046
▁replie	-12.8047
▁shrive	-12.8055
▁rex	-12.8063
nmen	-12.8065
efe	-12.8065
▁puzzl	-12.8068
▁billionaires	-12.8069
▁hanky	-12.8071
magh	-12.8074
▁airb	-12.8077
▁alaskan	-12.8079
▁marcia	-12.8081
untle	-12.8083
mitt	-12.8084
▁busi	-12.8084
▁rica	-12.8087
tive	-12.8089
zhu	-12.8089
mission	-12.809
▁reside	-12.8092
rko	-12.8099
▁harden	-12.8102
▁refine	-12.8102
umu	-12.8104
▁abou	-12.8104
▁getty	-12.8105
▁ponte	-12.8113
▁kwa	-12.8115
▁oppressi	-12.8115
▁tarant	-12.812
▁rott	-12.8124
▁cato	-12.8125
▁lease	-12.8128
zzy	-12.8133
vuit	-12.8137
currence	-12.8139
▁gye	-12.814
▁glance	-12.8143
hara	-12.8145
▁smiley	-12.815
shiro	-12.8153
▁polariz	-12.8155
▁belated	-12.8156
▁reconvene	-12.8158
stick	-12.817
▁jima	-12.8181
usa	-12.8182
▁repress	-12.8184
uil	-12.8187
▁favorabl	-12.8189
▁strick	-12.8192
▁rancher	-12.8204
dahn	-12.8204
arro	-12.8204
▁pillars	-12.8205
illionaire	-12.8205
▁accomplishments	-12.8206
▁genital	-12.8209
▁fak	-12.8214
▁abb	-12.8216
byl	-12.8216
mposition	-12.8228
hat	-12.8232
ugh	-12.8234
▁info	-12.8237
▁dole	-12.8243
▁slop	-12.8247
▁zal	-12.8251
ridge	-12.8253
rkus	-12.8256
gro	-12.8257
▁sab	-12.8258
▁subsidiz	-12.8259
▁alerts	-12.8262
ahi	-12.8262
iyan	-12.8264
np	-12.8266
▁bach	-12.8268
tick	-12.8272
▁intrigue	-12.8276
inne	-12.8278
errone	-12.8278
▁volk	-12.8289
▁herman	-12.8292
▁gol	-12.8294
▁bucha	-12.8294
▁cruis	-12.8296
▁responsibl	-12.8297
▁cer	-12.8298
urance	-12.8298
▁lud	-12.8298
mphan	-12.8307
iki	-12.8311
yanni	-12.8314
▁youn	-12.8315
▁rai	-12.8315
rw	-12.8321
▁bustl	-12.8329
▁liner	-12.8333
▁conditional	-12.8347
▁mach	-12.836
fill	-12.8365
yong	-12.8371
▁batt	-12.8372
▁sol	-12.8375
▁kah	-12.8378
▁gloss	-12.8379
▁hosh	-12.8379
▁weave	-12.8386
▁crisscross	-12.8388
▁notic	-12.839
▁riv	-12.8395
▁loren	-12.8396
tiana	-12.8399
iable	-12.8401
▁ridde	-12.8405
gye	-12.8406
oga	-12.841
▁cube	-12.8413
lla	-12.8415
▁merg	-12.8416
▁sig	-12.8421
▁proceeding	-12.8421
▁ble	-12.8421
▁stra	-12.8427
▁calve	-12.8432
▁lark	-12.8442
▁azim	-12.8444
▁fah	-12.8446
served	-12.8448
▁vindicat	-12.8451
▁circl	-12.8452
▁tung	-12.8454
▁vari	-12.8455
▁vas	-12.8459
▁stein	-12.8462
▁patrioti	-12.8469
ebol	-12.847
▁whi	-12.8471
▁promoter	-12.8482
▁brass	-12.8483
▁rive	-12.8484
▁amal	-12.8484
▁baron	-12.8486
azar	-12.8487
▁aft	-12.849
▁choke	-12.849
scription	-12.8491
▁hasti	-12.8493
zing	-12.8495
▁gale	-12.8496
▁nai	-12.8506
▁hyp	-12.8509
▁aches	-12.8511
▁beards	-12.8513
esha	-12.8522
▁disco	-12.8524
▁workout	-12.8527
hel	-12.8527
▁hats	-12.8532
▁lew	-12.8535
▁depress	-12.8536
▁rus	-12.8541
shop	-12.8544
▁graf	-12.8545
▁shard	-12.8557
▁strangl	-12.8561
ssi	-12.8562
took	-12.8565
▁harrie	-12.8575
[...]
