<pad>	0
<s>	0
</s>	0
<unk>	0
▁.	-3.21652
을	-3.60212
는	-3.73273
의	-3.77075
은	-3.99523
▁	-4.00924
를	-4.08286
가	-4.35317
에	-4.42304
▁,	-4.42836
이	-4.47153
고	-4.72814
에서	-5.1533
한	-5.1667
로	-5.20324
▁이	-5.26155
▁일	-5.27804
인	-5.31284
▁그	-5.35921
으로	-5.45413
▁있다	-5.46359
과	-5.50029
▁고	-5.57474
와	-5.58448
도	-5.6449
▁수	-5.66201
▁밝혔다	-5.71542
▁말했다	-5.73858
할	-5.80956
▁년	-5.89456
▁있는	-5.91787
하고	-5.98444
지	-6.04344
다	-6.10586
▁전	-6.18938
▁대한	-6.22033
▁위해	-6.23724
했다	-6.25094
하는	-6.26586
▁이번	-6.29271
▁미국	-6.3054
▁한	-6.31007
▁전했다	-6.31627
▁월	-6.32473
▁지난	-6.39161
▁현지시간	-6.42047
▁정부	-6.43052
며	-6.4388
▁대해	-6.49357
던	-6.53047
▁며	-6.53109
▁미	-6.53546
된	-6.55172
▁중	-6.55194
해	-6.57006
▁것으로	-6.57328
▁명	-6.59084
▁것	-6.59239
나	-6.5925
기	-6.59932
▁명이	-6.60946
에게	-6.61142
▁것이라고	-6.62334
▁있다고	-6.69295
으며	-6.69417
▁그러나	-6.71144
▁것을	-6.71894
▁더	-6.76227
히	-6.76471
▁이라크	-6.77955
s	-6.81457
스	-6.83388
▁다른	-6.84702
게	-6.87793
▁명의	-6.88254
자	-6.90495
▁대통령	-6.90747
하게	-6.92483
▁중국	-6.92553
운	-6.94208
▁한편	-6.96244
이다	-6.96522
▁북한	-6.98467
▁이라고	-6.99397
▁또	-6.99461
▁약	-6.99922
▁오바마	-7.00211
▁만	-7.00396
지만	-7.00962
▁주	-7.01811
▁경찰	-7.03974
▁등	-7.04578
▁에	-7.04673
▁대변인	-7.07382
들이	-7.07408
▁후	-7.07797
▁총리	-7.08458
▁많은	-7.11449
▁위한	-7.11647
하기	-7.12115
▁우리	-7.12525
▁부시	-7.12668
▁통해	-7.12839
▁이후	-7.13497
하지	-7.15478
▁대통령은	-7.16434
▁내	-7.16873
적인	-7.17097
▁세	-7.17352
▁영국	-7.17974
리	-7.18132
▁가장	-7.18566
하며	-7.1885
만	-7.18954
▁두	-7.20377
▁동안	-7.20661
했으며	-7.20981
▁같은	-7.21105
들	-7.2161
까지	-7.22343
▁것이다	-7.22705
▁않았다	-7.24814
▁한국	-7.25698
될	-7.26033
▁말	-7.30701
▁개	-7.33352
▁세계	-7.33587
▁할	-7.33659
▁주장했다	-7.33681
▁가	-7.3401
시	-7.34312
▁한다	-7.35303
▁될	-7.35573
▁이들	-7.36383
▁현재	-7.36603
▁달러	-7.36693
트	-7.36822
▁있	-7.37184
▁문제	-7.37386
▁것은	-7.38007
라	-7.38173
▁관련	-7.38279
▁또한	-7.38432
드	-7.39272
▁바	-7.39971
▁때	-7.40821
▁일부	-7.43246
▁이상	-7.43403
으나	-7.43565
▁알	-7.43694
▁the	-7.43812
▁보도했다	-7.43887
▁대	-7.44287
▁했다	-7.44444
▁시	-7.44598
상	-7.44629
▁덧붙였다	-7.44837
▁최근	-7.45017
및	-7.45091
면	-7.45153
서	-7.45481
▁지역	-7.4625
어	-7.46348
▁경우	-7.46619
▁있었다	-7.4685
▁영화	-7.4918
▁자신의	-7.50252
사	-7.50378
▁모든	-7.50753
했다고	-7.50988
▁것이	-7.51935
▁후보	-7.5241
했던	-7.53219
▁새로	-7.53603
▁함께	-7.54928
▁당시	-7.55426
수	-7.55542
▁라고	-7.55837
▁시간	-7.57393
▁미군	-7.57998
▁일본	-7.58897
▁그리고	-7.59771
거	-7.59858
일	-7.60113
▁조사	-7.60684
에따르면	-7.61233
주	-7.61468
▁로	-7.61553
됐다	-7.6164
▁계획	-7.61868
▁뒤	-7.62343
▁경제	-7.63073
▁cnn	-7.63229
야	-7.63777
▁s	-7.65652
▁예정이다	-7.657
▁수도	-7.66227
▁모두	-7.66821
▁결과	-7.66846
▁설명했다	-7.66936
▁에서	-7.67474
▁있습니다	-7.67803
▁to	-7.68058
▁있으며	-7.68515
▁러시아	-7.6974
▁의	-7.70001
▁몇	-7.70154
▁처음	-7.70504
▁프랑스	-7.70705
라고	-7.71202
도록	-7.72156
▁아직	-7.72182
▁유엔	-7.72851
▁당국	-7.73021
성	-7.73686
▁공격	-7.74153
보다	-7.74245
▁하는	-7.74298
▁큰	-7.7447
▁없다	-7.74541
▁사실	-7.75405
▁이란	-7.75664
▁파키스탄	-7.75746
▁위	-7.7595
▁이스라엘	-7.76555
간	-7.76737
▁계속	-7.77036
▁경기	-7.77835
▁사고	-7.7912
해야	-7.79551
▁회담	-7.80077
진	-7.8026
▁그녀	-7.80281
니	-7.80557
▁지난해	-7.80593
▁국가	-7.80767
▁분	-7.80962
▁올해	-7.81053
▁제	-7.81116
▁나	-7.81623
▁라	-7.81627
▁대통령이	-7.81637
▁지	-7.8167
르	-7.82642
▁민주당	-7.8309
▁사건	-7.83462
들을	-7.83745
▁않을	-7.83955
▁클린턴	-7.84677
이라고	-7.84759
▁열린	-7.84884
▁차	-7.84958
▁억	-7.85168
비	-7.85816
▁사람들	-7.85923
▁이날	-7.85981
하다	-7.86345
▁성명	-7.86801
▁비	-7.87654
한다	-7.88573
아	-7.88693
했	-7.88907
했습니다	-7.89412
▁번째	-7.89632
▁발표했다	-7.90235
▁하고	-7.90799
▁발생한	-7.90935
▁받고	-7.91756
▁받았다	-7.91997
▁테러	-7.92199
면서	-7.92269
▁존	-7.93
적	-7.9324
부	-7.93629
크	-7.93798
▁달	-7.94002
▁미국의	-7.94038
▁다시	-7.94205
▁지원	-7.94649
선	-7.94858
때문에	-7.94886
하	-7.95499
▁그들	-7.95618
▁된다	-7.95713
▁여성	-7.95814
▁사	-7.95955
▁이라	-7.95973
▁of	-7.96113
▁관계자	-7.96464
▁가운데	-7.97268
▁a	-7.97272
치	-7.97384
▁핵	-7.97707
▁발표	-7.97852
즈	-7.98809
▁반	-7.98832
하여	-7.98842
▁사람들이	-7.98901
▁있을	-7.99096
▁사망했다	-7.99117
입니다	-7.99184
장	-7.99185
▁주요	-8.00249
▁해	-8.00408
당	-8.0043
▁이에	-8.0062
었다	-8.00904
▁의해	-8.00968
화	-8.01184
▁오	-8.01443
▁됐다	-8.01571
부터	-8.02249
대	-8.02826
▁사람	-8.03617
▁국제	-8.03962
▁초	-8.04027
▁장관	-8.04118
▁조	-8.04242
적으로	-8.04284
▁데	-8.04289
▁인해	-8.04463
에따라	-8.04865
▁대부분	-8.05609
▁자	-8.05626
에도	-8.05728
이나	-8.06013
소	-8.06208
습니다	-8.06342
▁아	-8.06744
▁첫	-8.06822
▁사망	-8.06895
▁선거	-8.07301
▁않은	-8.07353
▁채	-8.07403
▁관계	-8.0783
▁조치	-8.07866
하지만	-8.08058
▁보고	-8.08427
▁시위	-8.08616
처럼	-8.09093
▁때문	-8.09751
▁tv	-8.10017
▁혐의로	-8.10288
▁아프간	-8.10353
▁거	-8.10481
▁지금	-8.10916
▁결정	-8.10942
▁이미	-8.11029
용	-8.11626
▁기록	-8.11971
▁안	-8.122
전	-8.12467
이며	-8.12648
세	-8.12698
▁승리	-8.12839
길	-8.13417
하면서	-8.13855
▁연구	-8.14504
▁위치한	-8.15112
▁군	-8.15297
▁매우	-8.15328
▁번	-8.15707
▁있었	-8.15833
▁원	-8.161
▁마	-8.16465
▁이슬람	-8.16958
였	-8.17262
타	-8.17623
▁총	-8.18621
로부터	-8.18641
▁없는	-8.1876
에서는	-8.18771
▁?	-8.19023
원	-8.19052
▁정보	-8.19324
▁피해	-8.19489
▁방문	-8.19498
▁비난	-8.19615
▁줄	-8.19631
▁km	-8.19798
e	-8.19851
▁팔레스타인	-8.19919
▁노	-8.20065
le	-8.20357
▁추가	-8.2072
▁살	-8.20757
되어	-8.20972
▁회사	-8.21039
▁오늘	-8.21377
▁in	-8.21478
▁뉴욕	-8.21648
▁않고	-8.21667
보	-8.2173
레	-8.21801
▁의원	-8.21877
▁한다고	-8.22122
▁강	-8.22229
▁기자	-8.22351
마	-8.22383
▁조지	-8.22938
▁탈레반	-8.23014
프	-8.23085
▁대선	-8.23167
됐	-8.23187
▁있다는	-8.23479
▁아이	-8.23496
▁기	-8.23531
▁부	-8.23682
▁지지	-8.23684
우	-8.23828
▁호주	-8.24124
▁인도	-8.2428
▁유럽	-8.24785
ing	-8.2483
▁년간	-8.2485
▁joins	-8.24956
▁어떤	-8.24956
▁다	-8.24961
▁정도	-8.25014
▁잘	-8.25133
▁지적했다	-8.25571
▁활동	-8.25828
식	-8.26149
였다	-8.26841
▁점	-8.26947
▁혐의	-8.27017
▁소속	-8.27326
▁인터넷	-8.27356
명	-8.27457
▁원문기사보기	-8.27667
▁포함	-8.27826
▁하지	-8.27838
▁시장	-8.27859
▁간	-8.27968
▁새	-8.28206
▁독일	-8.28222
돼	-8.28266
▁개의	-8.28603
했지만	-8.28681
▁감독	-8.28682
▁대표	-8.28712
▁내용	-8.28852
질	-8.29045
디	-8.29048
▁협상	-8.29085
▁우려	-8.2943
▁프로그램	-8.29615
▁구	-8.29698
라는	-8.30093
▁대학	-8.30169
▁예정	-8.30219
티	-8.30817
d	-8.30958
▁부상	-8.31342
▁w	-8.31526
▁없다고	-8.31828
미	-8.32109
y	-8.32156
▁여러	-8.32254
▁않는다	-8.32604
▁최고	-8.32623
함	-8.32857
▁성	-8.32916
▁받은	-8.32961
바	-8.33136
▁보고서	-8.33233
안	-8.33257
파	-8.33262
려	-8.33337
▁m	-8.33368
▁못했다	-8.33526
▁발생했다	-8.33593
제	-8.33709
▁상원의원	-8.34256
▁입장	-8.34261
▁하	-8.34304
▁주장	-8.34732
▁매케인	-8.34879
▁요구	-8.35264
▁사용	-8.35308
코	-8.35876
▁관리	-8.35918
▁상	-8.35962
합니다	-8.36017
되었다	-8.36112
▁의회	-8.36131
ed	-8.36415
린	-8.36694
되는	-8.36864
▁박사	-8.37044
▁개월	-8.37061
▁올림픽	-8.37093
▁도	-8.37215
▁많	-8.37303
▁오후	-8.3736
▁폭탄	-8.37783
▁시작	-8.3782
▁카	-8.3825
구	-8.38492
▁판매	-8.38521
▁북한이	-8.39352
▁전쟁	-8.3957
▁모습	-8.39595
▁발생	-8.4017
▁보	-8.4023
▁보도	-8.40286
▁된	-8.40322
권	-8.40402
▁언론	-8.41293
▁단체	-8.41534
▁인터뷰에서	-8.41547
▁남자	-8.41671
▁자동차	-8.41941
러	-8.4204
▁준비	-8.42429
토	-8.42762
산	-8.42889
오	-8.43036
▁컴퓨터	-8.43131
관	-8.43201
되지	-8.43381
▁앞으로	-8.43447
▁이러	-8.43448
▁있어	-8.43503
▁나는	-8.43889
▁기술	-8.43912
▁곳	-8.43983
▁것에	-8.4418
▁터키	-8.44425
▁생각	-8.44444
▁갖고	-8.44599
▁현지	-8.4489
▁공화당	-8.4511
카	-8.45117
▁차량	-8.45138
▁마지막	-8.45214
▁미얀마	-8.45428
▁강조했다	-8.45507
되고	-8.45569
▁ap	-8.45802
▁배	-8.45876
▁병원	-8.45916
▁변화	-8.4613
▁경찰이	-8.4619
▁무	-8.46397
▁합의	-8.46653
▁개발	-8.46662
▁인쇄	-8.46865
▁떨어진	-8.46972
▁물	-8.46985
▁가진	-8.47135
▁앞서	-8.47728
▁교수	-8.47754
▁석방	-8.47841
▁반대	-8.4785
▁우주	-8.47973
▁방송	-8.48434
▁오전	-8.48608
▁힐러리	-8.48773
▁남부	-8.4884
▁폭발	-8.48865
국	-8.48923
▁사이	-8.49038
차	-8.49091
▁비난했다	-8.49117
▁주지사	-8.49217
▁지도자	-8.49333
▁오는	-8.49411
▁정책	-8.49435
하는데	-8.4948
▁미국과	-8.49612
이었다	-8.49667
내	-8.49678
▁독해	-8.49787
▁차례	-8.49888
▁평화	-8.49898
▁여	-8.49961
▁않았	-8.50391
▁규모	-8.50438
▁자신이	-8.50479
▁버락	-8.505
설명	-8.50692
었던	-8.5075
▁검찰	-8.50786
▁정	-8.51001
▁백악관	-8.51305
▁상태	-8.51607
▁피	-8.51903
▁상황	-8.51935
▁증가	-8.51994
▁아시아	-8.5201
▁다음	-8.52336
모	-8.52408
▁이어	-8.52514
는데	-8.52626
▁미국이	-8.52701
▁노력	-8.52859
▁해결	-8.53225
▁원문	-8.53266
▁지난달	-8.53293
▁의사	-8.53399
들에게	-8.53524
릴	-8.53701
▁없었다	-8.53783
물	-8.54054
▁도시	-8.54109
▁않	-8.54192
▁스페인	-8.54243
▁좋은	-8.55038
▁무샤라프	-8.55296
▁인근	-8.55477
▁지역에서	-8.5549
법	-8.55783
노	-8.55873
▁관한	-8.55984
▁볼	-8.56018
▁있지만	-8.56148
▁연방	-8.56207
▁이를	-8.56233
▁집	-8.56239
▁이용	-8.56519
▁타	-8.56613
▁안전	-8.56681
▁날	-8.57006
▁아무	-8.57141
▁마리	-8.57168
브	-8.57218
▁와	-8.57234
▁없이	-8.57446
▁전문가들	-8.57486
▁가지	-8.57625
▁파	-8.57644
▁보인다	-8.5785
▁리	-8.57925
▁투표	-8.5799
al	-8.5799
▁이런	-8.58062
▁영향	-8.58095
▁저	-8.58221
▁치료	-8.58323
단	-8.58474
▁까지	-8.5854
▁야당	-8.58884
▁여행	-8.589
으로부터	-8.59089
▁장	-8.59111
▁이름	-8.59147
▁이탈리아	-8.59214
정	-8.59697
▁김	-8.59701
직	-8.5978
▁보다	-8.59964
▁최소	-8.60006
▁불	-8.60159
들의	-8.60387
▁않다	-8.60461
▁생산	-8.6054
▁모	-8.60669
▁금융	-8.60931
조	-8.60985
▁사망자	-8.6111
▁가족	-8.61132
▁불법	-8.6114
▁미국은	-8.61226
▁가능성	-8.61235
하기로	-8.61354
호	-8.61441
난	-8.61634
▁미사일	-8.61774
▁산	-8.62017
▁이전	-8.62193
▁행사	-8.62399
▁연기	-8.62577
▁밤	-8.62625
▁중요한	-8.62655
▁재	-8.62666
c	-8.62728
▁하나	-8.62762
▁위협	-8.62798
▁상승	-8.62822
온	-8.62853
▁년에	-8.62965
▁공식	-8.63088
▁역사	-8.63249
▁for	-8.63547
▁artic	-8.63658
▁당	-8.63703
▁검사	-8.63732
▁최초	-8.63748
▁만에	-8.63842
▁신	-8.63843
씨	-8.64107
▁논의	-8.64181
▁주둔	-8.64485
▁없	-8.64735
중	-8.64906
▁알카에다	-8.6498
▁인	-8.65105
▁매	-8.65153
데	-8.65299
▁알려졌다	-8.65376
▁양	-8.65497
▁사태	-8.65621
▁유	-8.65951
박	-8.65991
▁포인트	-8.65999
▁비행기	-8.66128
▁외	-8.6628
했었다	-8.6646
▁발언	-8.66623
▁대통령과	-8.67148
▁정치적	-8.67359
하도록	-8.67405
▁돈	-8.67451
▁팀	-8.6765
▁가격	-8.67769
▁씨	-8.6778
▁말했습니다	-8.6812
▁법원	-8.6821
▁용의자	-8.68216
▁이야기	-8.68265
▁필요	-8.68378
터	-8.68381
▁은행	-8.68459
▁방법	-8.68627
▁관심	-8.68633
▁반면	-8.68675
▁주민들	-8.68727
▁것입니다	-8.69129
피	-8.69135
▁부토	-8.69483
▁사망한	-8.69493
점	-8.69909
신	-8.70176
루	-8.70271
▁코리아	-8.70351
▁무기	-8.70449
u	-8.70621
▁자신들	-8.70651
▁대해서	-8.7072
▁불구하	-8.70858
▁자금	-8.70862
▁런던	-8.70869
▁전에	-8.70997
▁조직	-8.71126
▁서비스	-8.7114
▁일간	-8.71143
▁정치	-8.71154
▁위험	-8.71184
▁회장	-8.71295
▁살해	-8.71453
▁학교	-8.71798
포	-8.71891
▁반군	-8.71939
▁자신	-8.71987
▁최대	-8.72019
체	-8.72289
측	-8.7246
▁골	-8.72474
▁공	-8.72608
▁인질	-8.72688
▁e	-8.72944
계	-8.7295
들과	-8.73034
▁관계자들	-8.73263
발	-8.73273
더	-8.73351
▁한나라당	-8.73399
▁열	-8.73418
▁것이라는	-8.73514
▁출신	-8.73666
▁높은	-8.7371
력	-8.73765
▁인용	-8.73875
▁뉴스	-8.74054
▁벌이	-8.74205
▁지난주	-8.7424
▁북부	-8.74379
▁언급	-8.74531
▁바그다드	-8.74637
▁의하면	-8.74727
▁올	-8.74769
▁군사	-8.74888
▁공급	-8.75024
▁역할	-8.75106
▁가능성이	-8.7522
▁강력	-8.75305
▁발	-8.75389
해서	-8.75492
사전	-8.75583
▁자살	-8.75604
▁천	-8.75643
▁수사	-8.7572
▁게임	-8.75825
방	-8.75848
▁선	-8.76051
▁으로	-8.76108
▁소식	-8.76136
▁만명	-8.76176
▁중단	-8.76202
▁더욱	-8.76234
▁뜻	-8.76244
임	-8.76285
▁소	-8.76296
▁심	-8.76301
▁건물	-8.76369
츠	-8.76606
▁왔다	-8.7676
▁못	-8.76779
됐다고	-8.76855
▁지역에	-8.76953
▁알고	-8.7703
위	-8.77169
▁특	-8.77278
▁선수	-8.77435
▁공동	-8.77512
▁n	-8.77698
▁것이며	-8.77709
▁국경	-8.77822
▁우승	-8.78131
▁아버지	-8.78174
▁지구	-8.78214
▁호	-8.78424
▁서울	-8.78486
시킬	-8.78535
요	-8.78815
▁고위	-8.78842
▁거래	-8.79503
▁적	-8.79532
▁운동	-8.79566
o	-8.79572
▁아니다	-8.7968
▁필요한	-8.7978
▁어제	-8.79837
▁핵무기	-8.80133
▁이와	-8.80162
군	-8.80225
▁앞	-8.80348
▁되는	-8.80461
▁나라	-8.80462
▁병력	-8.80528
▁기업	-8.80805
▁코	-8.80819
▁korea	-8.80948
이자	-8.81029
여	-8.81066
t	-8.8107
▁법안	-8.81166
▁하루	-8.81216
▁부족	-8.81249
동	-8.81379
형	-8.81391
▁시작했다	-8.81454
▁확인	-8.81459
▁사르코지	-8.81468
▁감소	-8.8151
▁금지	-8.81529
▁아이들	-8.81538
▁포	-8.81746
키	-8.81759
▁com	-8.81789
▁법	-8.81899
▁어	-8.82015
▁위기	-8.82059
▁하마스	-8.82098
▁티베트	-8.82143
▁라이스	-8.82176
▁않는	-8.82179
▁행위	-8.82221
▁결국	-8.82491
▁요청	-8.82574
▁충돌	-8.82617
▁스	-8.82668
▁투자	-8.8268
▁독립	-8.82813
▁아들	-8.82824
▁만달러	-8.82836
▁폭탄테러	-8.82883
▁시위대	-8.82902
▁보호	-8.83163
▁아침	-8.83169
▁전화	-8.83174
▁이제	-8.8329
▁관련된	-8.83431
▁각	-8.83487
er	-8.83554
▁그것	-8.83698
▁기자회견에서	-8.83748
하겠다고	-8.838
회	-8.83835
▁콜롬비아	-8.83849
든	-8.83857
▁동영상	-8.84069
▁국방부	-8.84279
▁공항	-8.84327
▁행동	-8.84349
▁아니라	-8.84384
▁직접	-8.8443
▁건강	-8.84589
▁보였다	-8.84707
▁표	-8.84838
문	-8.85045
▁이같	-8.85126
▁브라운	-8.85245
이라는	-8.85302
자들	-8.85336
하면	-8.85405
▁남성	-8.85436
▁노무현	-8.85585
▁캘리포니아	-8.85618
런	-8.85636
▁워싱턴	-8.85725
▁여부	-8.85762
▁사람이	-8.8581
▁위해서	-8.85919
▁and	-8.85953
▁부인	-8.85953
▁la	-8.85975
위원회	-8.85991
시켰다	-8.85997
▁레	-8.86084
▁억원	-8.8638
▁타고	-8.86461
▁받을	-8.86818
▁있고	-8.87077
실	-8.87118
▁비행	-8.87277
▁eu	-8.87394
▁서	-8.87416
된다	-8.88034
▁자유	-8.88177
▁주택	-8.88256
▁건설	-8.88397
날	-8.88464
▁발견	-8.88537
▁보안	-8.88567
유	-8.88678
▁역시	-8.88814
친	-8.88881
▁대화	-8.88931
n	-8.89102
감	-8.89221
란	-8.89349
▁특별	-8.89383
종	-8.89391
▁어떻게	-8.89514
▁회의	-8.90093
▁이유	-8.90189
▁년까지	-8.90257
▁열리는	-8.9034
▁음악	-8.90378
▁시신	-8.90438
▁받았	-8.90582
▁기간	-8.90775
▁이유로	-8.90801
▁빌	-8.90954
▁베이징	-8.91014
▁p	-8.91111
▁협력	-8.91143
한다고	-8.91284
▁곧	-8.91404
▁폴	-8.91447
▁연설	-8.91492
▁문제에	-8.91522
▁판결	-8.91684
▁폐쇄	-8.9177
▁철수	-8.91783
다고	-8.91826
▁년대	-8.91902
▁문	-8.91973
▁사건에	-8.91999
▁국무부	-8.92102
▁손	-8.92123
하자	-8.92324
▁숨졌다	-8.92707
▁에너지	-8.9292
▁석유	-8.93166
▁데이비드	-8.93226
b	-8.93261
급	-8.93276
▁한국인	-8.9333
울	-8.93447
▁박	-8.93649
긴	-8.93675
▁아프가니스탄	-8.93706
▁신문	-8.94001
▁월에	-8.94004
▁드	-8.94299
네	-8.9451
공	-8.9465
▁기회	-8.94793
▁체포	-8.94873
▁호텔	-8.94893
▁있게	-8.94968
▁진행	-8.95102
▁대선후보	-8.95137
▁말하는	-8.95345
▁대사	-8.95403
▁변호사	-8.95473
▁과학자들	-8.95642
▁종	-8.95733
하던	-8.95818
▁공개	-8.95837
혀	-8.95883
▁같다	-8.9598
▁도로	-8.9608
▁증거	-8.96095
하려	-8.96175
▁범죄	-8.96191
▁현	-8.96216
져	-8.96231
설	-8.96254
▁남	-8.96313
▁수술	-8.96337
▁승인	-8.96351
▁있기	-8.96398
▁생활	-8.9648
▁내년	-8.96484
그	-8.96536
▁우	-8.96595
버	-8.96705
▁양국	-8.96712
▁구조	-8.96725
▁상원	-8.96869
▁전망	-8.96999
속	-8.97067
▁전세계	-8.97076
▁사회	-8.9709
▁발견했다	-8.97143
▁발사	-8.97216
▁주변	-8.97292
▁너무	-8.97336
▁교육	-8.97337
▁납치	-8.97475
▁눈	-8.9748
▁대규모	-8.97483
▁통신	-8.9752
▁요구했다	-8.97563
▁입	-8.97636
▁아니	-8.97704
▁수준	-8.97813
▁생각한다	-8.97992
▁길	-8.98058
▁훈련	-8.98179
병	-8.98534
▁타임즈	-8.99084
▁인구	-8.99162
▁온	-8.99201
경	-8.99334
▁비디오	-8.99469
▁어린이	-8.99488
▁개인	-8.99491
▁동물	-8.99596
▁의견	-8.99635
▁저장	-8.99648
▁만원	-8.99678
반	-8.99678
▁co	-8.99683
▁재개	-8.99795
▁성공	-8.99935
하려는	-8.99998
▁재판	-9.00036
▁실	-9.00119
▁화재	-9.0022
▁위원회	-9.00269
▁경고	-9.00269
▁나타났다	-9.0032
▁결혼	-9.00336
▁했다고	-9.00344
▁정상	-9.00394
▁이동	-9.00486
▁전투	-9.00579
▁힘	-9.00666
▁약어표	-9.0068
▁앞두고	-9.00682
▁목표	-9.00695
▁대사관	-9.0089
심	-9.0091
▁포함한	-9.00924
▁예정이라	-9.01017
▁비롯	-9.01092
▁하락	-9.01261
▁통	-9.01449
지는	-9.01683
▁성장	-9.01696
▁d	-9.01707
▁심각한	-9.0171
재	-9.01859
▁레바논	-9.01871
▁로버트	-9.01918
▁딸	-9.01992
▁관할	-9.0205
▁민간인	-9.02097
▁전체	-9.02185
▁사진	-9.0219
▁억달러	-9.0233
▁인간	-9.02428
▁사업	-9.02448
▁난	-9.02458
▁방	-9.02529
▁아닌	-9.02744
▁g	-9.02798
▁것이라	-9.02864
▁태국	-9.02966
▁안에	-9.03025
▁판사	-9.03145
영	-9.03145
▁여전	-9.03205
▁해외	-9.03385
으로써	-9.03586
▁출전	-9.03683
▁경선	-9.03712
▁방안	-9.03825
▁못하	-9.04244
▁멕시코	-9.0449
▁여객기	-9.04494
▁경기에서	-9.04601
되었	-9.04611
a	-9.04896
st	-9.05144
스트	-9.05184
▁제안	-9.05355
▁임무	-9.05411
m	-9.05562
▁국민	-9.05601
▁인도네시아	-9.05644
▁들	-9.05645
▁대신	-9.0567
량	-9.05694
▁수치	-9.05727
학	-9.05744
▁명과	-9.05813
▁친	-9.059
▁작전	-9.05905
▁촉구했다	-9.05935
민	-9.0595
▁수입	-9.05961
▁애	-9.06228
▁작은	-9.06246
▁f	-9.06417
▁네	-9.06459
▁스타	-9.06472
▁퍼센트	-9.06552
▁밝혀졌다	-9.06578
▁가지고	-9.06725
슨	-9.06727
▁항	-9.06833
▁시도	-9.06883
청	-9.06903
▁그들의	-9.07019
▁예	-9.07191
▁입은	-9.07281
로서	-9.0733
하라	-9.07351
▁인정	-9.07359
▁친구	-9.07362
▁마이클	-9.0742
▁이상이	-9.07424
▁헬기	-9.07467
▁푸틴	-9.07857
▁최종	-9.07863
▁지도자들	-9.07932
▁규정	-9.07935
연	-9.07943
▁마을	-9.07948
▁열차	-9.07993
▁대회	-9.08055
r	-9.08134
▁국민들	-9.08168
▁온라인	-9.08195
판	-9.08302
▁제재	-9.08334
▁안보	-9.08521
▁경쟁	-9.08529
▁선택	-9.08549
역	-9.08593
▁입었다	-9.08759
▁아기	-9.08812
▁예상	-9.08936
▁바로	-9.08939
▁폭력	-9.09177
▁us	-9.09182
▁c	-9.09229
▁시설	-9.09293
▁b	-9.09498
▁막	-9.09512
▁un	-9.09559
▁당신	-9.09646
▁이라크에서	-9.09657
▁받아	-9.09714
▁돌	-9.09905
▁증시	-9.10086
▁환경	-9.10492
▁낮	-9.10728
▁행정부	-9.10758
▁말한다	-9.10867
▁얼마	-9.10913
▁인권	-9.10929
▁메시지	-9.10984
▁부대	-9.1099
▁라디오	-9.11065
행	-9.11095
▁연합	-9.11099
▁본	-9.11214
▁살고	-9.11254
▁그들이	-9.11316
▁무장	-9.11477
▁배우	-9.11596
▁밝힌	-9.11874
▁측	-9.11978
▁이것	-9.11985
▁대의원	-9.12011
▁여자	-9.12086
▁아프리카	-9.12121
▁중인	-9.12196
▁경고했다	-9.12268
▁대만	-9.12293
▁필요하다	-9.12396
▁만약	-9.12408
▁관리들	-9.12439
▁그런	-9.12614
▁개선	-9.12638
▁보내	-9.1267
론	-9.12691
▁속	-9.12789
교	-9.128
▁팔	-9.12803
▁치	-9.12939
▁도움	-9.12958
▁힐	-9.13085
▁서로	-9.13195
▁외국	-9.13225
▁미국인	-9.13238
▁운영	-9.13514
▁남편	-9.1356
▁출연	-9.13572
▁즉	-9.13616
▁화요일	-9.13844
▁책임	-9.13875
▁발표한	-9.13946
▁비해	-9.14181
후	-9.14215
▁계약	-9.14227
▁항공	-9.14254
▁의장	-9.14367
▁시스템	-9.14399
▁지수	-9.14622
▁외국인	-9.14635
너	-9.14643
▁산업	-9.14826
▁벌였다	-9.14844
▁밝혔	-9.14849
▁주식	-9.14909
▁건	-9.1497
▁담	-9.15031
▁관계자가	-9.15127
▁세금	-9.15191
복	-9.15228
▁홍콩	-9.15232
▁원인	-9.15755
▁가치	-9.15812
▁광고	-9.15899
▁알리	-9.15982
▁지방	-9.15999
▁없을	-9.16035
▁스미스	-9.16061
▁소송	-9.16175
▁시즌	-9.16329
▁약속	-9.16357
▁여명	-9.16512
▁짐바브웨	-9.16537
▁과거	-9.16605
졌다	-9.16657
▁on	-9.16715
있는	-9.16786
▁미국에서	-9.16841
▁부부	-9.16892
금	-9.16934
▁얻	-9.16959
건	-9.1698
▁같이	-9.16987
▁기록했다	-9.17063
▁중동	-9.17133
▁공연	-9.17178
▁경	-9.17284
▁상당	-9.1745
강	-9.17479
▁사무총장	-9.17497
▁내렸다	-9.17687
▁브라질	-9.17694
▁시아파	-9.1798
▁연료	-9.18031
▁걸	-9.181
▁거리	-9.18143
▁빈	-9.18209
▁베	-9.18292
p	-9.18314
▁밖에	-9.184
▁만나	-9.18662
었다고	-9.18782
i	-9.18931
▁사임	-9.19037
▁일본의	-9.19152
▁유지	-9.19259
▁총선	-9.19292
▁일정	-9.19366
de	-9.19415
▁각각	-9.19453
▁권리	-9.19497
▁평균	-9.19557
워	-9.19581
엔	-9.19592
▁앤	-9.19697
▁년부터	-9.19844
▁부통령	-9.199
▁제작	-9.19937
▁정권	-9.19989
▁해군	-9.20141
▁감시	-9.20151
▁작품	-9.20172
출	-9.20221
▁웹사이트	-9.20222
▁비용	-9.2028
▁기대	-9.2041
팀	-9.20448
▁파업	-9.20466
▁통과	-9.20633
▁수단	-9.20705
▁확보	-9.20736
▁합의했다	-9.20855
▁않아	-9.20919
▁가스	-9.20923
▁이수지	-9.20935
▁시험	-9.20935
▁나오	-9.20962
▁국내	-9.21182
▁h	-9.21207
▁다양	-9.21276
▁개최	-9.21511
무	-9.2168
▁텍사스	-9.2168
▁처리	-9.21682
▁사이에	-9.21739
▁환자	-9.21775
▁하기	-9.21982
▁놓	-9.21984
▁구성	-9.22013
▁소식통	-9.22041
▁사건이	-9.22173
▁위원장	-9.22217
▁주말	-9.22381
▁대가	-9.22468
▁암	-9.22479
▁케냐	-9.22496
▁과정에서	-9.22518
▁국영	-9.22529
▁회	-9.22797
래	-9.22807
▁내무부	-9.22943
▁여름	-9.22953
▁걸쳐	-9.22958
▁학생	-9.22962
▁발견됐다	-9.22975
증	-9.23024
▁반응	-9.23044
▁인상	-9.23151
했을	-9.23273
▁담당	-9.23294
▁키	-9.23363
▁메	-9.23644
▁상황이	-9.23841
▁완전	-9.23913
▁것과	-9.24095
작	-9.24104
▁결정했다	-9.24307
시켜	-9.24344
석	-9.24501
▁be	-9.24608
▁강제	-9.24698
▁선고	-9.24863
▁동부	-9.24913
▁몸	-9.24964
▁갈	-9.24981
▁그룹	-9.25008
▁유일	-9.25092
k	-9.25141
▁주민	-9.25167
▁이곳	-9.25185
▁동	-9.25226
▁부상했다	-9.25227
▁벌	-9.25276
앞서	-9.25292
통	-9.25387
품	-9.25557
▁대상으로	-9.25729
▁단	-9.25884
▁온몸	-9.26044
▁후세인	-9.26046
▁주재	-9.26071
▁되었다	-9.26086
▁디	-9.26264
▁캐나다	-9.26359
▁촬영	-9.26853
음	-9.27042
▁바이러스	-9.27101
▁바란다	-9.27107
▁어머니	-9.27251
es	-9.27365
▁페	-9.27556
▁베네수엘라	-9.27632
▁익명	-9.27632
▁야후	-9.27641
▁알려진	-9.27649
▁서부	-9.28102
▁해안	-9.28128
▁곳에서	-9.28153
▁k	-9.28195
▁맞	-9.2821
▁발견된	-9.28223
▁제공	-9.28285
었습니다	-9.2831
▁루	-9.28607
▁상대로	-9.28623
▁기상캐스터	-9.28704
해왔다	-9.28836
줄	-9.2888
▁누	-9.28938
▁마치	-9.29215
▁파병	-9.29242
▁차베스	-9.29251
▁로마	-9.29277
▁통제	-9.29363
▁다리	-9.29423
▁집단	-9.29467
▁남한	-9.29505
▁일까지	-9.29507
두	-9.29528
▁인기	-9.29612
약	-9.29707
▁여론조사	-9.29725
▁북핵	-9.29775
▁이래	-9.29822
▁민주주의	-9.29858
기도	-9.29863
▁경찰에	-9.29886
▁희망	-9.29899
▁대변인이	-9.29937
▁플로리다	-9.29992
▁지명	-9.30075
▁왕자	-9.30078
▁요청했다	-9.30142
▁패	-9.3033
▁추	-9.30418
▁회복	-9.3042
▁받는	-9.3044
▁항공사	-9.30609
기구	-9.30695
▁책	-9.30753
▁논쟁	-9.30876
▁진압	-9.30879
▁유권자들	-9.30883
▁크게	-9.30972
▁자료	-9.31033
▁소녀	-9.31035
▁받지	-9.31265
하였다	-9.31294
▁되고	-9.31408
▁밝혔습니다	-9.31474
▁예상된다	-9.31505
▁제품	-9.31581
▁하원	-9.31592
▁총격	-9.31633
▁사과	-9.31667
▁때까지	-9.31736
▁위성	-9.31851
▁무장세력	-9.31893
▁접근	-9.31913
▁사는	-9.3194
▁버스	-9.31992
▁변호사는	-9.32114
▁편	-9.32167
▁사망하	-9.32167
류	-9.32413
▁연	-9.32573
▁별	-9.32657
▁수출	-9.3277
▁있지	-9.32868
저	-9.32971
케	-9.33008
▁발전	-9.33073
▁인터뷰	-9.33094
▁탑승	-9.3311
한다는	-9.33132
f	-9.33135
▁쿠바	-9.33151
중인	-9.33176
▁강한	-9.33326
▁사퇴	-9.33365
▁밝히	-9.33498
▁거대	-9.33544
▁적이	-9.33578
많은	-9.33579
록	-9.33626
▁최악	-9.33679
▁무장단체	-9.33696
▁나온	-9.33738
▁수상	-9.33772
되기	-9.33886
▁백	-9.3397
▁마크	-9.33985
▁전국	-9.34066
▁암살	-9.34101
▁토	-9.34169
색	-9.34192
▁따른	-9.34251
▁u	-9.34268
▁의료	-9.34289
▁실험	-9.34348
▁국회	-9.34398
▁머리	-9.34565
▁일부터	-9.3457
갈	-9.34589
▁제한	-9.34637
▁도움이	-9.34649
▁아니라고	-9.34653
▁음식	-9.34705
▁되어	-9.34748
▁평가	-9.34756
▁세력	-9.34757
힌	-9.34816
▁사실이	-9.34882
하겠다	-9.34987
▁수색	-9.35136
▁성폭행	-9.35386
▁받게	-9.35478
▁커	-9.35482
▁임기	-9.35538
▁직원	-9.35593
▁의미	-9.35692
▁한다는	-9.35757
▁주간	-9.35762
▁상원의원이	-9.35925
▁필리핀	-9.3597
처	-9.36106
▁차이	-9.36156
▁질문	-9.36201
▁적어	-9.36273
▁명령	-9.36332
았다	-9.36512
▁nasa	-9.36552
▁매년	-9.36564
▁거부	-9.366
었	-9.36611
테	-9.36625
▁파리	-9.3689
▁월요일	-9.36922
▁동료	-9.3695
▁과	-9.37
층	-9.37035
▁시간이	-9.37067
▁있음	-9.37206
▁압력	-9.37212
▁중국은	-9.37226
▁정부와	-9.37229
▁달리	-9.37245
기로	-9.37268
▁확인했다	-9.37322
▁기사	-9.37353
▁북한에	-9.37365
▁주도	-9.37402
▁선수들	-9.37505
▁이집트	-9.37513
▁못한	-9.37536
▁가능한	-9.37575
▁학생들	-9.37627
▁가자지구	-9.37629
▁사우디	-9.37728
▁들어	-9.37761
▁비밀	-9.37799
등	-9.37803
▁무역	-9.37838
▁시리아	-9.37979
▁가졌다	-9.38032
대로	-9.38067
▁불만	-9.38124
▁감염	-9.38171
▁칸	-9.38174
▁파괴	-9.38186
▁항공기	-9.38204
▁두고	-9.38222
료	-9.38286
▁고통	-9.38313
▁어느	-9.3832
▁언급했다	-9.3839
▁자세	-9.38434
▁나왔다	-9.38495
▁인수	-9.38519
▁인질들	-9.38569
본	-9.38613
▁공격으로	-9.38735
▁기소	-9.38825
▁중에	-9.38828
분	-9.38932
▁뇌	-9.38948
▁개혁	-9.39112
▁밝히지	-9.39182
지역	-9.39263
▁찾아	-9.39387
▁여론	-9.3952
▁후에	-9.39521
▁외교	-9.3969
▁보냈다	-9.39713
▁국가들	-9.39743
▁사람들을	-9.39765
업체	-9.3984
▁명으로	-9.39926
동안	-9.40079
▁나머지	-9.40112
▁이끄는	-9.40114
▁영어	-9.40202
생	-9.40354
다면	-9.40382
▁사랑	-9.4039
▁인물	-9.4066
▁구체적	-9.40724
▁권력	-9.40743
▁사형	-9.4078
▁향해	-9.40817
▁긴장	-9.40843
▁부상자	-9.40917
▁사람들에게	-9.40943
▁개국	-9.40982
▁병	-9.40997
▁살인	-9.41063
▁t	-9.41249
른	-9.41253
▁지진	-9.41266
▁관해	-9.4128
▁신고	-9.41284
▁식량	-9.4132
▁병사	-9.41346
▁전시	-9.41455
▁올랐다	-9.41541
▁아내	-9.4164
▁군대	-9.41764
▁안정	-9.41775
튼	-9.41895
▁희생자	-9.41911
탄	-9.41939
▁제임스	-9.4194
▁공습	-9.41955
▁장면	-9.41974
▁지나	-9.41976
▁일자리	-9.42076
인한	-9.42092
▁국무장관	-9.42213
개	-9.4223
h	-9.42289
▁업체	-9.4232
▁싶다	-9.42559
▁잘못	-9.4256
▁소재	-9.42583
시키는	-9.42642
▁허가	-9.42785
▁의원들	-9.42946
▁센터	-9.43184
▁다음달	-9.43193
▁참석	-9.4321
▁흑인	-9.43213
▁미군이	-9.43273
▁막기	-9.43362
▁되지	-9.43405
▁위반	-9.43474
▁사령관	-9.43492
▁만큼	-9.43526
▁질	-9.43594
▁전기	-9.43678
▁강화	-9.43723
업	-9.43768
▁목숨	-9.43805
커	-9.43812
▁자회담	-9.43853
▁기관	-9.44192
▁해야	-9.44205
▁예측	-9.44397
쉬	-9.44409
▁오른	-9.44451
▁팬들	-9.44477
▁숨지고	-9.44555
▁주장하고	-9.44556
센터	-9.44612
▁맥	-9.44633
▁설치	-9.44643
▁부모	-9.44766
베	-9.45001
▁나이	-9.45041
으로서	-9.45049
근	-9.45059
▁허리케인	-9.45067
▁국방장관	-9.4507
▁자체	-9.45104
▁수천명	-9.45108
▁질문에	-9.4522
▁고용	-9.45251
▁만들어	-9.45288
▁위로	-9.45541
▁제기	-9.45573
▁죽음	-9.45588
▁소말리아	-9.45704
▁어떠한	-9.45704
▁소리	-9.4574
▁임시	-9.45777
▁복귀	-9.45781
▁비판	-9.45902
▁쇼	-9.4614
▁잡	-9.46184
▁게	-9.4628
▁달러에	-9.46322
▁왜	-9.46373
▁마음	-9.4638
▁일반	-9.46457
▁기지	-9.46582
▁마련	-9.46632
▁끝에	-9.46669
▁파견	-9.46787
쳐	-9.46834
양	-9.46846
▁시기	-9.46881
▁야	-9.46959
▁삶	-9.4699
▁확대	-9.4699
▁헌법	-9.46994
▁마약	-9.47017
▁물론	-9.4702
▁계획이	-9.4709
▁자리	-9.47217
하기도	-9.47279
▁곳에	-9.47292
▁당선인	-9.4743
망	-9.47447
▁따라	-9.47528
▁j	-9.47558
▁유로	-9.47562
▁시카고	-9.47585
▁선출	-9.47631
▁외무부	-9.47665
▁사장	-9.47691
▁중앙	-9.47719
▁작업을	-9.47749
▁문화	-9.47756
▁수요일	-9.4776
▁사원	-9.47794
▁석	-9.47805
▁여성이	-9.47836
▁정부에	-9.47849
▁갖	-9.47857
▁넘는	-9.47992
▁되	-9.48006
▁섬	-9.48008
▁설명	-9.48055
▁실시	-9.48092
▁직원들	-9.48203
락	-9.483
▁칼	-9.48319
▁시민	-9.4833
▁붕괴	-9.48332
▁뿐	-9.48466
en	-9.48678
g	-9.48683
▁움직임	-9.48766
거리	-9.48989
▁접촉	-9.4903
▁입고	-9.49124
l	-9.49226
들에	-9.493
▁이라크에	-9.49383
▁해리	-9.4943
▁유명한	-9.49489
▁이란이	-9.49576
▁베컴	-9.49615
▁경제적	-9.49622
▁찰스	-9.4963
▁금	-9.49669
ar	-9.49706
▁양측	-9.4974
▁추진	-9.49954
▁참가	-9.49956
▁이달	-9.49994
▁목적	-9.5
▁도착	-9.50008
▁선언	-9.50011
되	-9.50057
v	-9.5006
회사	-9.50122
▁종교	-9.50152
▁북	-9.50174
▁fbi	-9.50282
▁혼란	-9.50354
▁내려	-9.50406
▁교전	-9.50452
▁심장	-9.50473
▁제조	-9.50481
▁존스	-9.50536
▁발생해	-9.5058
리자	-9.50786
▁출마	-9.50969
▁추락	-9.51021
▁아베	-9.51025
▁전력	-9.51079
▁수익	-9.51245
▁대중	-9.51247
▁사상	-9.51275
▁사진을	-9.51382
▁아주	-9.51401
▁전문가	-9.51465
▁교통	-9.51496
▁관련해	-9.51596
메	-9.51606
▁나가	-9.51616
▁좀	-9.51627
▁구매	-9.51628
▁긴급	-9.51629
▁미래	-9.51658
▁넘	-9.51681
▁일요일	-9.51787
▁자녀	-9.51793
▁샤	-9.51982
▁korean	-9.52001
ion	-9.5205
▁사항	-9.52053
단체	-9.52056
▁상대	-9.52098
▁귀	-9.52189
▁피해자	-9.52234
▁진	-9.52328
마다	-9.52332
▁지도자인	-9.52332
림	-9.52424
▁병원에	-9.52451
▁진출	-9.52462
퍼	-9.5249
▁부분	-9.52552
▁최고의	-9.52658
▁잠	-9.52695
▁자국	-9.52705
▁비슷	-9.52785
▁신원	-9.52895
▁시상식	-9.52992
▁국제사회	-9.53003
▁경험	-9.53165
▁결의안	-9.53328
▁누구	-9.5338
인들	-9.53385
▁검토	-9.53537
▁고문	-9.53603
▁착륙	-9.53657
▁유권자	-9.53674
▁선두	-9.53699
주의	-9.53705
▁총재	-9.53728
▁충격	-9.5378
▁주가	-9.5378
▁여명이	-9.53795
▁주민들이	-9.53815
▁집중	-9.53903
▁거주하	-9.54056
▁교회	-9.54178
▁일이	-9.54281
▁감	-9.54323
▁게이츠	-9.54379
▁현장	-9.54381
▁로켓	-9.54385
▁절차	-9.54388
▁작년	-9.54412
▁정당	-9.54481
▁공군	-9.54508
▁것인지	-9.5453
▁승객	-9.5468
▁가질	-9.54688
만이	-9.54797
▁그리스	-9.55029
▁젊은	-9.55044
시키고	-9.55082
▁선거에서	-9.55112
▁체포됐다	-9.55145
▁카운티	-9.55152
tal	-9.55191
▁유명	-9.55352
▁폭력사태	-9.5539
▁엘	-9.55421
▁순간	-9.55496
장을	-9.55513
▁인사	-9.55582
▁항의	-9.55649
▁이전에	-9.55654
각	-9.55732
▁목표로	-9.55741
▁빨	-9.55845
▁월부터	-9.55908
▁쿠	-9.55949
▁받	-9.55953
▁목요일	-9.55983
▁정상회담	-9.55984
▁is	-9.56002
▁위치	-9.56011
▁해제	-9.56037
▁여사	-9.56081
▁위에	-9.56203
▁구속	-9.56225
▁노조	-9.56263
▁관광	-9.56294
▁보기	-9.56304
▁반대하는	-9.56339
▁선정	-9.56481
▁숨진	-9.56521
이었	-9.56627
▁정말	-9.56655
▁방문한	-9.56656
▁크	-9.56768
▁id	-9.56949
▁수석	-9.56968
▁배치	-9.57058
▁군인	-9.57159
▁연속	-9.5722
▁표현	-9.57268
▁시행	-9.5733
▁대응	-9.57379
▁판	-9.57459
▁단지	-9.57811
▁퍼	-9.5786
▁코소보	-9.57922
▁동결	-9.57931
▁총기	-9.57938
▁모델	-9.57951
▁남북	-9.57967
▁이라크전	-9.57985
▁전략	-9.58139
▁가까	-9.58145
▁보여주	-9.58145
있다	-9.58218
▁연장	-9.58293
▁임명	-9.58317
▁추정	-9.58341
▁실패	-9.58417
▁나타나	-9.58647
▁스위스	-9.58676
협회	-9.58895
▁여성들	-9.58928
▁패배	-9.59003
▁올라	-9.59013
투	-9.59062
▁변	-9.59091
▁가량	-9.59149
▁약간	-9.59214
▁국립	-9.59361
▁잉글랜드	-9.59377
▁몇몇	-9.59377
▁신화통신	-9.59379
렸다	-9.59459
▁있는지	-9.59474
▁매일	-9.59507
▁지지자들	-9.5952
▁전달	-9.59548
▁들고	-9.59626
아니라	-9.59785
정부	-9.59805
▁보이는	-9.59893
▁불리	-9.59906
▁당했다	-9.59984
렌	-9.60094
▁사이트	-9.60097
▁판단	-9.60136
▁차기	-9.60169
▁도중	-9.60233
▁피트	-9.60302
▁마일	-9.60339
▁회담에서	-9.60358
▁도전	-9.60364
액	-9.60472
or	-9.60551
▁윌리엄	-9.60708
▁버지니아	-9.60744
▁조건	-9.6076
▁걱정	-9.6076
▁작업	-9.60785
▁bbc	-9.60856
▁고양이	-9.60861
▁감사	-9.60892
▁밝혀지지	-9.60894
▁유죄	-9.60894
▁카메라	-9.60936
▁대형	-9.60984
▁연합군	-9.61029
되었습니다	-9.61111
▁압박	-9.61145
장관	-9.61158
▁약물	-9.61259
센	-9.61263
▁re	-9.61297
▁결	-9.61319
▁작성	-9.61333
했는데	-9.61371
남	-9.61373
배	-9.61511
▁다이애나	-9.6156
▁블레어	-9.61599
▁도쿄	-9.61601
▁스포츠	-9.61675
▁나토	-9.61685
▁소비자	-9.6169
▁연구소	-9.61697
▁급	-9.61744
on	-9.61774
▁주의	-9.61796
▁자주	-9.61849
▁체포했다	-9.61889
▁휴대폰	-9.61908
▁영	-9.62005
▁여당	-9.62032
쿠	-9.62038
▁세기	-9.62064
▁허용	-9.62204
자인	-9.62255
an	-9.62307
▁어려움	-9.62321
▁효과	-9.62324
▁됐	-9.62337
▁올메르트	-9.62351
▁스스로	-9.62353
▁전까지	-9.62363
▁노래	-9.62393
로써	-9.62481
▁탄	-9.62503
▁군부	-9.62564
▁관광객	-9.62666
ly	-9.62668
▁연설에서	-9.62957
▁오래	-9.62967
턴	-9.62975
시키기	-9.62978
▁분기	-9.63088
▁오랫동안	-9.63109
▁탁신	-9.63109
▁할리우드	-9.63109
▁핵심	-9.63173
▁노동	-9.63196
▁만든	-9.63235
▁실수	-9.63245
▁영국의	-9.63293
집	-9.63393
지도	-9.63472
▁취소	-9.63481
▁한반도	-9.63501
초	-9.6354
▁병원에서	-9.63616
▁아마	-9.63747
▁가능	-9.63763
▁대비	-9.63864
▁빠른	-9.63873
▁비상사태	-9.63874
▁확실히	-9.63937
▁공장	-9.6398
▁옷	-9.64006
▁장기	-9.64007
▁분석	-9.64018
▁주에서	-9.64192
▁외무장관	-9.64233
▁이와같	-9.64297
▁참여	-9.6433
리아	-9.64435
▁내부	-9.64458
▁전통	-9.64545
▁집회	-9.64637
▁겪고	-9.64641
▁그렇게	-9.64641
▁직후	-9.6465
▁높이	-9.64848
▁극	-9.64889
▁성적	-9.6492
▁뉴	-9.64942
하다고	-9.65016
▁굴	-9.65032
▁문서	-9.65133
▁운행	-9.65183
▁new	-9.65313
▁사기	-9.6532
▁홍보	-9.654
▁담배	-9.65428
▁테	-9.65431
▁마무리	-9.65451
▁개봉	-9.6546
▁구호	-9.65471
▁수백명	-9.65472
▁동시	-9.65516
▁실제	-9.65691
회의	-9.65763
▁프로젝트	-9.65822
▁유세	-9.65865
스러운	-9.65869
▁하며	-9.65944
▁글	-9.66063
tp	-9.66157
▁기억	-9.66164
▁없어	-9.66172
▁크리스토퍼	-9.66198
▁감축	-9.66203
▁산불	-9.6621
▁오랜	-9.66216
▁조작	-9.66247
자들이	-9.66314
▁투입	-9.66381
▁맞아	-9.6639
▁대법원	-9.66469
링	-9.66652
▁이밖에	-9.66985
▁처벌	-9.66988
▁샤리프	-9.66989
▁원자로	-9.67008
▁조금	-9.67039
▁단계	-9.67058
절	-9.67076
▁제출	-9.67086
▁분쟁	-9.67117
▁의심	-9.67133
름	-9.67154
▁알게	-9.67161
▁능력	-9.67232
▁북한과	-9.67468
▁차지했다	-9.67473
▁사무실	-9.67477
▁완화	-9.67484
▁버	-9.67484
▁생	-9.67538
▁넣	-9.67591
▁여왕	-9.67597
▁실시된	-9.67603
▁애플	-9.67609
▁중심	-9.67689
▁일에	-9.67729
표	-9.67748
▁크리스마스	-9.67775
▁민병대	-9.67779
▁우크라이나	-9.67779
▁ms	-9.67784
▁스피어스	-9.67808
▁알려지	-9.67848
▁내각	-9.67867
▁증가했다	-9.67874
▁빠르	-9.67893
▁cat	-9.67894
▁수천	-9.67898
▁윌리엄스	-9.67934
▁집행	-9.68027
▁끝	-9.68067
▁집에서	-9.68097
▁수행	-9.68136
▁가족들	-9.68136
▁망명	-9.68219
▁둔	-9.68232
년	-9.68353
▁고래	-9.68402
▁만명이	-9.68404
매	-9.68417
▁청와대	-9.68495
▁폭풍	-9.68554
▁난민	-9.68568
▁지배	-9.68574
▁iaea	-9.68579
니다	-9.68582
▁보이고	-9.68589
▁대책	-9.6861
▁나타냈다	-9.68642
▁한국은	-9.68664
▁주년	-9.6867
▁그러	-9.68715
▁수정	-9.68733
▁목사	-9.68775
▁후보에	-9.68776
▁위기에	-9.68795
▁소장	-9.68856
▁보좌관	-9.68951
왔다	-9.6906
▁제거	-9.69078
▁의원이	-9.69079
▁넘어	-9.69172
페	-9.69176
▁부인했다	-9.69223
▁속에	-9.69272
▁보건	-9.6929
▁따	-9.69311
▁말레이시아	-9.69367
▁높다	-9.69385
▁무가베	-9.69386
▁일어난	-9.69386
▁배럴	-9.69391
▁cia	-9.69395
▁수백	-9.69395
▁날씨	-9.69441
▁받기	-9.69446
▁영상	-9.69453
▁시작된	-9.69541
하길	-9.69578
담	-9.69662
▁발생할	-9.69669
인지	-9.69713
▁보안관	-9.69726
▁보장	-9.69737
▁블로그에	-9.69738
▁상황에서	-9.69763
승	-9.69897
▁그중	-9.6992
▁가수	-9.69953
▁현대	-9.69958
▁법률	-9.70059
▁이미지	-9.70082
▁법적	-9.70166
▁네덜란드	-9.70198
▁찾기	-9.70198
▁치안	-9.70266
▁고려	-9.703
▁말하고	-9.70346
▁r	-9.7044
▁없었	-9.70456
▁중이다	-9.70512
w	-9.70655
입	-9.70698
족	-9.70701
▁월까지	-9.70711
▁그에게	-9.70722
싼	-9.70823
랑	-9.70866
번	-9.70907
▁부정	-9.70941
▁세르비아	-9.71002
▁약속했다	-9.71019
▁먼저	-9.71022
▁스티브	-9.71023
태	-9.71066
자가	-9.71257
▁중국이	-9.71269
▁않겠다	-9.71271
▁목소리	-9.71285
하였	-9.71418
▁밀	-9.71446
▁확산	-9.71453
▁마감	-9.71473
▁구성된	-9.71481
▁보낸	-9.71579
▁장소	-9.71596
▁듯	-9.71618
▁어려	-9.7162
▁경찰과	-9.71636
▁위험한	-9.71751
▁등록	-9.71792
▁하워드	-9.71851
▁엄마	-9.71851
▁kg	-9.71856
▁작가	-9.71857
▁ht	-9.71873
▁기후	-9.71895
▁나무	-9.71961
▁고든	-9.71968
다른	-9.72011
▁프라이머리	-9.72046
▁의혹	-9.7209
▁기자회견	-9.72097
만한	-9.72102
▁최신	-9.72132
▁술	-9.72145
▁이용해	-9.72168
▁비상	-9.72216
▁보이지	-9.72265
▁과학	-9.72351
▁수가	-9.72423
▁떠나	-9.72427
겠다	-9.72476
냐	-9.72536
▁협의	-9.72583
▁north	-9.72678
▁규제	-9.72679
▁네팔	-9.72682
▁asp	-9.72686
▁사례	-9.727
▁대표팀	-9.72738
▁나섰다	-9.72754
▁지급	-9.72777
▁시민들	-9.72782
▁마드리드	-9.72812
▁사용하는	-9.72831
▁폐	-9.72867
▁남성이	-9.72973
▁전자	-9.73058
▁긴	-9.73085
▁수니파	-9.73131
▁사상자	-9.73235
이지만	-9.73286
씩	-9.73322
▁머물	-9.73512
▁찾는	-9.73518
▁노대통령	-9.73523
▁후보로	-9.73557
▁미국인들	-9.73568
기간	-9.7361
▁떨어져	-9.73693
▁대단	-9.73705
▁다쳤다	-9.7377
▁않기	-9.73775
ment	-9.7385
▁권	-9.73857
▁크기	-9.73868
빌	-9.74151
▁현장에	-9.74184
▁실시한	-9.74194
▁못할	-9.74294
▁한미	-9.74308
▁쿠르드	-9.7436
▁캠프	-9.74366
▁알려져	-9.74369
▁진입	-9.74374
▁최소한	-9.74461
시킨	-9.74531
▁영향력	-9.74538
▁연구진	-9.74569
▁홍수	-9.74825
▁대통령에게	-9.7494
▁증언	-9.75027
▁소지	-9.7507
▁집계	-9.75129
볼	-9.75131
▁시작됐다	-9.75154
▁모하메드	-9.75221
▁과정	-9.75238
▁아바스	-9.75254
▁분노	-9.75309
▁있는데	-9.7539
▁만들	-9.75454
▁축구	-9.75469
▁명에	-9.75537
▁태도	-9.75558
▁i	-9.75595
▁촉구	-9.75785
되면서	-9.75803
샤	-9.7592
▁테러로	-9.75953
▁출발	-9.76041
▁프리	-9.76065
▁웹사이트에	-9.76079
▁장난감	-9.76085
▁분위기	-9.76092
▁구글	-9.76097
▁원조	-9.76164
▁인정했다	-9.76201
▁비자	-9.76211
▁만드는	-9.76304
▁l	-9.76339
▁시리즈	-9.76361
▁집권	-9.76405
▁나와	-9.76483
▁니콜라	-9.76527
▁하락했다	-9.76606
▁얼굴	-9.76608
▁향	-9.76622
▁하다	-9.7687
▁체	-9.76871
▁주로	-9.76879
방송	-9.76882
▁해당	-9.7689
▁경계	-9.76919
▁정확한	-9.76952
▁farc	-9.76954
▁태풍	-9.76955
▁의한	-9.76963
▁없습니다	-9.77049
▁근무	-9.77099
▁경찰관	-9.7715
▁이끌	-9.77174
으면	-9.77279
▁슈	-9.77288
▁추정되	-9.77298
▁말한	-9.77321
▁당선자	-9.77348
천	-9.7735
▁얻었다	-9.77367
▁역사적	-9.77474
▁실제로	-9.77575
▁임	-9.77601
▁들었다	-9.7764
▁특사	-9.7767
▁확신	-9.77795
▁저녁	-9.77829
▁피터	-9.7783
▁박물관	-9.7784
▁성인	-9.77948
▁당한	-9.77961
준	-9.77982
▁쉽게	-9.78028
▁민간	-9.78056
▁전문	-9.78066
ce	-9.78081
ic	-9.78186
열	-9.78339
▁돼	-9.78504
▁투	-9.78504
ies	-9.78545
▁남북한	-9.78612
▁부동산	-9.78613
▁축하	-9.78636
▁south	-9.78714
▁김정일	-9.78714
▁아르헨티나	-9.78714
▁테이프	-9.78714
▁조정	-9.78734
▁소년	-9.78742
▁도착했다	-9.78766
▁자신들이	-9.78788
▁송	-9.78828
▁등이	-9.78873
▁놀라	-9.78874
▁대체	-9.78886
▁아부	-9.78918
겠다고	-9.78942
▁허	-9.79027
▁캐	-9.79031
▁가격이	-9.79052
▁at	-9.79204
▁세대	-9.79245
해졌다	-9.7926
당국	-9.79389
▁소비	-9.79422
▁유사	-9.7947
▁강도	-9.79539
▁지불	-9.79604
▁토요일	-9.79607
▁말리키	-9.79607
▁콘돌	-9.79609
▁진행되	-9.79644
▁시대	-9.79674
것	-9.79677
▁중요하다	-9.79768
▁왕	-9.79778
▁문제로	-9.79791
▁후반	-9.79792
▁떨어졌다	-9.79886
▁헤	-9.79917
▁사용할	-9.79983
▁상황에	-9.80011
언	-9.80124
ation	-9.80169
us	-9.80177
▁살해한	-9.80259
▁보여	-9.80288
까	-9.8031
▁한국과	-9.80326
▁운전	-9.80387
▁연루	-9.80388
▁화성	-9.80428
추	-9.80447
▁형	-9.80481
▁개입	-9.80499
▁with	-9.80508
씬	-9.80508
▁활용	-9.80514
▁타격	-9.80527
▁침해	-9.80539
▁신속	-9.80549
▁찬성	-9.80558
범	-9.80561
▁휴가	-9.80565
▁총장	-9.80585
▁입국	-9.80586
▁반발	-9.80608
▁백만	-9.80616
▁무사	-9.80731
▁만들었다	-9.80843
▁장치	-9.80844
편	-9.80851
외	-9.80981
▁영국에서	-9.80994
▁미국에	-9.81096
▁제시	-9.81168
▁깊	-9.8125
▁오하이오	-9.81292
▁징역	-9.81402
▁연락	-9.8143
▁요	-9.8148
▁웹	-9.81491
국가	-9.81498
▁지출	-9.815
은행	-9.81507
하려고	-9.81515
▁기타	-9.81563
▁시위자들	-9.81576
▁우주선	-9.81604
in	-9.81607
술	-9.81624
▁힐튼	-9.81702
▁기구	-9.8179
▁숨	-9.81802
▁이곳에서	-9.81869
▁초기	-9.81903
말	-9.81983
▁창	-9.82001
▁경기에	-9.82063
▁맺	-9.82207
▁적용	-9.82277
▁지적	-9.82303
▁엘리자베스	-9.82334
▁드라마	-9.82335
▁방해	-9.82363
▁검색어	-9.8238
▁참석한	-9.82397
▁물질	-9.82413
▁않으면	-9.8242
▁결혼식	-9.82431
▁태	-9.82453
▁영국군	-9.82551
▁평	-9.82577
▁교체	-9.82615
현	-9.82656
▁아파트	-9.82676
▁복제	-9.82732
먼	-9.82796
격	-9.82806
▁쉬	-9.82824
▁어린	-9.82858
▁월드컵	-9.82892
책	-9.83096
▁당선	-9.83104
▁승무원	-9.83116
▁요구한	-9.83123
▁대처	-9.8315
▁토론	-9.83231
▁외교부	-9.83236
▁국장	-9.83238
▁긍정적	-9.8326
▁페일린	-9.8326
▁협조	-9.8326
▁fta	-9.83267
활동	-9.83268
▁페르베	-9.8327
▁유럽연합	-9.83281
▁들어가	-9.83284
▁모른다	-9.83292
▁형성	-9.83317
▁민	-9.83333
▁환영	-9.83458
한다면	-9.83523
▁예방	-9.83592
▁보이	-9.83635
▁속에서	-9.83669
▁해고	-9.83671
▁자산	-9.8369
▁제외	-9.83818
수가	-9.83829
광	-9.8385
▁인식	-9.83852
▁수용	-9.83914
▁요구하는	-9.83946
했는지	-9.83977
▁재정	-9.83982
▁없다는	-9.84008
살	-9.8405
▁방식	-9.84152
▁소프트웨어	-9.84195
▁열린우리당	-9.84195
▁결론	-9.84208
▁끝난	-9.84216
이라	-9.84221
▁협정	-9.84254
▁원유	-9.84268
▁통화	-9.84272
▁대출	-9.84307
시설	-9.84415
▁일환	-9.84513
▁클럽	-9.84546
졌	-9.84567
▁수반	-9.84592
▁국	-9.84594
렸	-9.84624
▁동맹	-9.84636
달	-9.84865
▁일반적	-9.84905
▁오픈	-9.84983
▁공화당의	-9.85044
빈	-9.85119
▁현장에서	-9.85122
▁언제	-9.85131
▁매들린	-9.85138
▁싱가포르	-9.85138
▁잭슨	-9.85138
▁iraq	-9.85138
▁리버풀	-9.85138
▁벌금	-9.85142
목	-9.85145
▁개정	-9.85149
▁토니	-9.85157
▁신용	-9.85173
▁갖추	-9.85176
▁귀국	-9.85183
▁저지	-9.85187
▁절반	-9.85218
▁조종사	-9.8527
▁방어	-9.85282
▁체포된	-9.85494
▁임신	-9.85527
▁관	-9.85582
령	-9.85588
▁삼	-9.85633
▁소유	-9.85665
스타	-9.85715
▁울	-9.85761
▁대표단	-9.85898
블	-9.8591
▁포함되어	-9.85934
▁범인	-9.86069
▁핵실험	-9.86094
▁사이클론	-9.86095
▁변경	-9.86107
▁신경	-9.86134
▁걸어	-9.86198
▁an	-9.86227
▁수감	-9.86292
▁자격	-9.86359
▁선포	-9.86369
▁총선에서	-9.8637
▁신뢰	-9.86372
레이	-9.86409
▁이틀	-9.86427
▁역	-9.86465
▁고속도로	-9.86466
플	-9.86508
▁심리	-9.86602
▁되면	-9.86611
▁엔	-9.86636
▁조사하고	-9.86809
규	-9.86955
▁자살폭탄테러	-9.87048
▁cbs	-9.87052
▁뉴질랜드	-9.87052
▁론스타	-9.87055
▁케네디	-9.87056
▁자연	-9.87073
▁축제	-9.87079
▁루이스	-9.87085
▁ceo	-9.87094
▁나달	-9.87096
▁속도	-9.87105
▁이것이	-9.87157
맨	-9.87157
▁공식적으로	-9.87164
▁금리	-9.87173
▁트럭	-9.87185
▁성화	-9.87213
▁충분	-9.87256
결	-9.87268
▁이들이	-9.87358
▁취임	-9.87457
▁부패	-9.87554
▁동의	-9.87588
▁왔	-9.8763
▁침체	-9.87677
▁한번	-9.87712
▁면	-9.87734
▁했	-9.87818
▁투자자들	-9.87961
▁빠져	-9.88022
▁캠페인	-9.88023
▁지지하는	-9.88034
▁이해	-9.88038
▁에이즈	-9.8804
▁실행	-9.8805
▁헤럴드	-9.88086
▁압둘라	-9.88089
▁이르는	-9.88185
▁예산	-9.88195
▁회사들	-9.88245
▁길이	-9.8828
▁세트	-9.88327
▁기자들	-9.88362
▁터키군	-9.88417
▁용의자들	-9.88421
▁재산	-9.88462
▁일어나	-9.88498
▁이혼	-9.88594
▁진정	-9.88602
▁지지율	-9.8866
▁동원	-9.88805
▁대피	-9.88847
춘	-9.88958
▁우라늄	-9.89003
▁포르투갈	-9.89004
▁힘든	-9.89039
▁층	-9.89075
채	-9.89099
▁풀	-9.89112
▁통합	-9.89147
▁중이라고	-9.89151
▁포드	-9.89219
▁안보리	-9.89288
▁행진	-9.89304
▁곳으로	-9.89378
▁성공했다	-9.89388
▁지지자	-9.89603
합	-9.89637
▁지진으로	-9.89656
▁일본은	-9.89747
▁수십	-9.89777
예	-9.89861
▁펜실베이니아	-9.89889
▁쥐	-9.89917
▁휘발유	-9.89993
▁반기문	-9.89996
▁민주화	-9.90017
▁육군	-9.90018
▁주고	-9.90019
▁드러났다	-9.90022
▁중국과	-9.90071
▁오르	-9.90086
▁올렸다	-9.90114
대한	-9.90193
▁진술	-9.90317
▁총리와	-9.90329
▁테러가	-9.90389
▁점령	-9.90429
▁목	-9.9053
▁중국에서	-9.90658
▁그린	-9.90664
▁철회	-9.90694
▁조사에서	-9.90702
▁평화적	-9.90714
▁회담에	-9.90781
▁근	-9.90796
변	-9.90845
▁당선인은	-9.90848
▁머	-9.90916
▁워싱턴에서	-9.90916
▁한국군	-9.9099
▁믿고	-9.90993
▁좋지	-9.90993
▁첼시	-9.90995
▁ppp	-9.90997
▁학살	-9.90997
▁로봇	-9.91
▁나쁜	-9.91004
▁향후	-9.91006
▁시드	-9.91015
▁소개	-9.9102
▁리비아	-9.91023
▁학대	-9.91096
▁가입	-9.91103
▁설립	-9.9111
▁벨	-9.91112
ch	-9.91177
▁본부	-9.91253
▁차관보	-9.91303
시간	-9.91453
▁경선에서	-9.91488
▁아랍	-9.91746
ational	-9.91751
▁집에	-9.91818
▁주일	-9.91867
시장	-9.91905
▁휴전	-9.92002
▁얘기	-9.92004
▁답변	-9.92007
▁교황	-9.9201
▁입양	-9.92024
▁내린	-9.92029
▁센트	-9.92031
골	-9.92087
▁해결하기	-9.92123
▁통치	-9.92152
▁개월간	-9.92214
▁목격자들	-9.92248
▁상품	-9.92287
▁학생들이	-9.92307
▁전면	-9.92415
▁ac	-9.9243
▁참	-9.92453
▁외부	-9.92459
▁협회	-9.92485
습	-9.92558
x	-9.92603
▁포함해	-9.92651
▁지도부	-9.92717
▁필	-9.92733
▁밝혀	-9.92781
▁생명	-9.9282
▁중에는	-9.92898
머	-9.92909
▁해리포터	-9.93024
훨	-9.93024
▁국제유가	-9.93025
▁벌어진	-9.93027
▁불참	-9.93035
▁음모	-9.93037
▁선거운동	-9.93046
▁아카데미	-9.9305
▁반정부	-9.93072
▁잔해	-9.93139
랜드	-9.93148
▁편지	-9.93292
ia	-9.93388
▁연결	-9.9342
▁대의	-9.9343
▁유리	-9.93456
▁가정	-9.9346
▁공개했다	-9.93495
▁차지	-9.93578
시키	-9.93734
▁격	-9.93799
항	-9.93828
통신	-9.93831
▁잡지	-9.93832
▁장비	-9.93835
스터	-9.93905
▁콘서트	-9.94055
▁앨범	-9.94059
▁dna	-9.9406
▁방침	-9.94062
▁장식	-9.94071
▁가득	-9.94079
창	-9.94081
▁체니	-9.94121
▁신청	-9.94133
▁선물	-9.94143
한영	-9.94143
둔	-9.94172
만에	-9.94194
▁질환	-9.94203
리스	-9.94244
▁손실	-9.94261
▁회담이	-9.94283
▁승	-9.94311
▁폐지	-9.94362
▁랭킹	-9.9437
▁응	-9.94449
▁향하	-9.94461
▁충분한	-9.9467
사건	-9.94705
▁정부군	-9.94787
▁준	-9.94902
▁바다	-9.9494
▁벌인	-9.94946
▁예정이	-9.94964
▁맨체스터	-9.95095
▁화산	-9.95107
▁내에	-9.95107
었고	-9.95119
▁진행된	-9.95122
▁영토	-9.95128
▁여기	-9.95137
▁며칠	-9.95182
▁기념	-9.95264
▁레이스	-9.95269
▁요구하고	-9.95293
흐	-9.95321
▁성향	-9.95334
▁의도	-9.95374
▁의료진	-9.95382
▁정신	-9.95561
▁방법으로	-9.95576
▁수집	-9.95578
▁바람	-9.95711
▁킹	-9.95723
▁주장하는	-9.95893
▁접	-9.95922
▁짐	-9.95928
▁매장	-9.95967
▁언급하지	-9.95968
▁기업들	-9.96048
▁관광객들	-9.96061
앙	-9.96095
▁부활	-9.96147
▁무릎	-9.96149
▁페더러	-9.96149
▁폭	-9.96151
▁맨유	-9.96157
▁who	-9.96162
▁기능	-9.96165
▁웨스트	-9.96181
▁특정	-9.9621
▁못했	-9.96251
▁대북	-9.96273
▁콜	-9.96278
▁바그다드에서	-9.96318
▁계획에	-9.96345
▁것보다	-9.9636
▁밀란	-9.96371
쇼	-9.96466
▁이익	-9.96519
▁행	-9.96529
▁시절	-9.9655
▁보상	-9.96569
▁터	-9.96687
th	-9.96743
필드	-9.96806
▁방지	-9.96806
▁방문할	-9.96855
율	-9.96911
▁레이	-9.96914
▁지도	-9.97035
톤	-9.97054
▁대통령에	-9.97122
▁이메일	-9.97213
▁다르푸르	-9.97214
▁대다수	-9.97216
▁다니	-9.97225
▁접속	-9.97226
▁강경	-9.9728
▁회원국	-9.97289
서는	-9.97408
▁합	-9.97461
▁평양	-9.97484
▁프로	-9.97492
▁혹	-9.97497
▁대결	-9.97544
정책	-9.97569
▁기도	-9.97594
탈	-9.97723
▁이스라엘과	-9.97736
▁성과	-9.97738
▁파타	-9.97742
▁직	-9.97772
▁유가	-9.97801
▁노동자	-9.97813
독	-9.97868
▁고객	-9.97893
▁척	-9.97902
▁장군	-9.97911
▁소니	-9.9795
▁존재	-9.98132
때	-9.98191
▁이웃	-9.98224
▁사드르	-9.98287
▁president	-9.98288
▁밖으로	-9.98288
▁헤즈볼라	-9.98288
▁세계대전	-9.98288
▁폭행	-9.98295
▁영변	-9.98296
▁리콜	-9.98297
▁야생	-9.98302
▁폭우	-9.98316
▁방문했다	-9.98319
▁생각하고	-9.98377
▁원하는	-9.98405
▁다이아몬드	-9.98418
▁크리스	-9.98418
▁협상이	-9.98459
▁잃었다	-9.98598
▁서명	-9.98603
▁존슨	-9.98627
▁적절한	-9.98635
조치	-9.98636
힐	-9.98658
▁생존	-9.9866
▁지하	-9.98706
지에	-9.98708
클	-9.98793
레스	-9.98805
달하는	-9.98806
▁마이크	-9.98832
▁주는	-9.98848
▁뛰어	-9.99073
▁모습이	-9.9908
▁스티븐	-9.99128
▁장관이	-9.99208
▁니	-9.99292
▁이번주	-9.99316
▁아이들이	-9.99333
▁지키	-9.99334
ri	-9.9935
▁멸종	-9.99374
▁온난화	-9.99375
므로	-9.99387
▁마틴	-9.99397
▁진실	-9.994
▁출시	-9.99406
▁잠시	-9.99479
▁will	-9.9952
▁밖에서	-9.9952
▁아일랜드	-9.99546
▁취할	-9.99602
▁빅	-9.99604
▁발표된	-9.99645
낼	-9.9966
▁생존자	-9.99676
▁상어	-9.9971
▁힘들	-9.99809
▁분야	-9.99814
▁모양	-9.99822
쯤	-9.99938
▁강조	-9.99995
해지	-10.0002
▁나서	-10.001
▁이스라엘군	-10.0024
립	-10.003
▁질병	-10.0037
▁태평양	-10.0047
▁현지시각	-10.0047
▁nbc	-10.0048
▁내전	-10.0049
▁버마	-10.0051
▁심문	-10.0052
▁목격자	-10.0055
▁내용이	-10.0057
▁경찰서장	-10.0057
지르	-10.0058
▁포기	-10.0063
▁자기	-10.0065
▁의무	-10.0068
▁바라고	-10.0069
자로	-10.0072
▁심각	-10.0072
찬	-10.0074
▁말합니다	-10.0082
▁말라	-10.0095
▁논란	-10.0116
▁올랐	-10.012
▁차드	-10.0125
▁예상했다	-10.0125
▁억류	-10.0139
▁제도	-10.0147
▁보면	-10.0152
▁as	-10.0154
웰	-10.0157
▁쿠데타	-10.0159
▁갑자	-10.0159
▁체결	-10.016
it	-10.016
▁전망이	-10.0161
▁우선	-10.0162
▁보였	-10.0164
▁서방	-10.0164
▁공중	-10.0165
▁밑	-10.0168
▁가자	-10.0171
▁경보	-10.0172
▁기준	-10.0176
▁사건과	-10.0188
축	-10.0223
▁둘	-10.024
▁음반	-10.0241
킬	-10.0245
▁스테	-10.0247
으	-10.0261
▁찾고	-10.0271
▁일주일	-10.0272
▁공공	-10.0274
▁핵시설	-10.0275
▁수백만	-10.0275
▁보통	-10.0276
▁사건으로	-10.0279
▁구제	-10.0283
▁담당자	-10.0292
▁아래	-10.0304
원들	-10.0313
겐	-10.0315
▁입원	-10.0316
▁인하	-10.0324
▁선박	-10.033
▁사실상	-10.0336
▁가까이	-10.0338
▁공격이	-10.0343
▁보고했다	-10.0348
▁대부분이	-10.0357
▁cm	-10.036
▁묻	-10.037
▁현재까지	-10.0376
관리	-10.0383
죠	-10.0384
▁달라이라마	-10.0385
▁이렇게	-10.0385
▁훌륭	-10.0385
▁파운드	-10.0385
▁의식	-10.0385
▁복구	-10.0386
▁격차	-10.0387
▁수요	-10.0388
▁일리노이주	-10.0391
▁베트남	-10.0395
▁원제	-10.0401
▁화	-10.0403
▁달성	-10.0406
▁돌아가	-10.0412
▁만날	-10.0414
취	-10.0422
▁부문	-10.0423
▁일본에서	-10.0428
섬	-10.0433
▁교	-10.0435
▁케	-10.0437
▁원한다	-10.0438
▁de	-10.0458
▁되기	-10.0462
▁톤	-10.0464
▁처	-10.0464
▁pa	-10.0468
▁외교적	-10.0471
들어	-10.0473
▁줄어들	-10.0476
슈	-10.0479
▁업계	-10.0481
▁조사에	-10.0483
▁전반	-10.0488
▁나이지리아	-10.0499
▁흡연	-10.0499
▁카르자이	-10.05
▁교환	-10.05
놓고	-10.05
킨	-10.05
▁최선	-10.0502
▁동반	-10.0502
▁걸릴	-10.0504
▁신임	-10.0506
▁치러진	-10.0507
▁심슨	-10.0516
▁요원	-10.0518
▁사용되	-10.0519
▁노출	-10.0523
▁수감자	-10.0526
불	-10.0527
연합	-10.0533
▁신호	-10.0535
▁벤	-10.0536
▁환자들	-10.0542
돌	-10.0544
만큼	-10.0548
손	-10.0548
▁가구	-10.0551
겠	-10.0552
▁된다고	-10.0552
▁제안했다	-10.0555
▁대상	-10.0563
▁남아	-10.0568
▁교도소	-10.0568
▁투어	-10.0572
▁일본이	-10.0587
▁실시되	-10.059
▁광산	-10.0597
▁차전	-10.0601
▁입었	-10.0606
▁다우존스	-10.0616
▁에드워즈	-10.0616
▁라운드	-10.0616
▁설득	-10.0616
▁재무장관	-10.0616
▁폭동	-10.0617
▁시작한	-10.0622
▁느끼	-10.0625
▁검색	-10.0635
▁각국	-10.0637
▁브	-10.0639
장이	-10.0657
봉	-10.0659
▁있어서	-10.0663
▁본사	-10.0674
불어	-10.0675
▁사인	-10.0679
▁다우	-10.0681
▁절	-10.0694
▁국제적	-10.0702
▁근거	-10.0702
▁동물원	-10.0703
▁소환	-10.0709
사를	-10.0722
▁시장에서	-10.0731
▁노력하고	-10.0733
▁오스트리아	-10.0733
▁덴마크	-10.0733
▁복잡	-10.0733
▁단순	-10.0734
▁시위에	-10.0735
▁국왕	-10.0736
장에서	-10.0742
▁폐기	-10.0752
▁소수	-10.0755
쳤다	-10.0774
되면	-10.0775
▁하게	-10.0777
리는	-10.0779
▁이하	-10.0794
▁철도	-10.0797
▁감정	-10.0798
▁그와	-10.0799
▁목적으로	-10.0814
했음	-10.083
▁지진이	-10.083
▁모인	-10.0834
▁지휘	-10.0844
▁영화제	-10.0845
▁그것이	-10.0848
▁맞서	-10.0851
▁누군가	-10.0852
▁봄	-10.0854
▁기존	-10.0854
▁성관계	-10.0855
▁매각	-10.0855
▁책임자	-10.0856
▁부담	-10.0856
▁소설	-10.0857
▁카드	-10.0858
▁삼성	-10.0862
▁죽	-10.0862
▁북측	-10.0863
▁팬	-10.0867
▁군인들	-10.0869
▁차관	-10.087
▁전투기	-10.087
라도	-10.0873
▁복용	-10.0874
▁주인공	-10.0878
성이	-10.088
▁웃	-10.088
▁지연	-10.0901
엘	-10.0906
▁합동	-10.0909
▁대기	-10.0909
▁사전	-10.0914
▁상점	-10.0931
▁티	-10.0937
▁식	-10.0941
▁깨	-10.0942
▁주기	-10.0944
있	-10.0945
▁계속되고	-10.0954
▁서울에서	-10.0964
관계	-10.0964
▁당신이	-10.0968
후드	-10.0968
셔	-10.0969
려고	-10.0973
▁방글라데시	-10.0973
▁주한미군	-10.0973
▁japan	-10.0973
▁고등학교	-10.0973
▁농축	-10.0973
▁마카오	-10.0974
▁칠레	-10.0974
▁새끼	-10.0974
빠진	-10.0975
▁커피	-10.0977
▁상승했다	-10.0977
▁도입	-10.0977
▁공산당	-10.0981
칠	-10.1
▁내릴	-10.101
▁ba	-10.1014
▁대답	-10.1016
자와	-10.1017
▁휴	-10.1019
▁부근에서	-10.1021
▁늘	-10.1023
▁부르	-10.1024
▁청소년	-10.1026
들도	-10.103
▁마르	-10.104
스키	-10.104
려는	-10.1047
▁o	-10.1048
▁수용소	-10.105
▁그림	-10.1057
▁거절	-10.1058
▁기본	-10.1061
▁즉각적	-10.1069
▁어린이들	-10.1069
▁지시	-10.1073
▁됩니다	-10.1079
▁경기장	-10.1085
랄	-10.1088
기관	-10.1093
▁스웨덴	-10.1095
▁네트워크	-10.1095
ers	-10.1096
▁순방	-10.1096
▁검거	-10.1096
▁남아공	-10.1096
▁건의	-10.1097
▁달라	-10.1098
▁해병대	-10.11
▁발병	-10.11
▁상처	-10.11
▁불안	-10.11
▁사담	-10.11
▁부여	-10.1105
▁예비	-10.1106
▁따라서	-10.1107
▁점차	-10.1108
▁보수	-10.111
영한	-10.1131
이어	-10.1131
▁조성	-10.1133
▁국회의원	-10.1138
순	-10.1141
▁세우	-10.1145
▁회원	-10.1156
re	-10.1161
▁전날	-10.1165
▁체제	-10.1173
▁악화	-10.1177
▁벌였	-10.1179
▁표시	-10.1179
▁기반	-10.1183
▁장애	-10.1187
▁구입	-10.1198
▁추적	-10.1199
▁승리했다	-10.1202
▁내놓	-10.1204
▁둘러	-10.1204
▁공항에서	-10.1209
▁자리에서	-10.1213
▁왕세자	-10.1214
▁혜택	-10.1218
▁습격	-10.1218
▁카스트로	-10.1218
▁증가하고	-10.1219
▁다니엘	-10.1219
▁극복	-10.122
▁탐사	-10.1221
▁의지	-10.1221
▁그래서	-10.1222
▁테러리스트	-10.1223
▁유감	-10.1224
▁보관	-10.1225
▁무력	-10.1227
▁분명히	-10.1229
았	-10.123
▁이뤄지	-10.1232
▁행성	-10.1233
▁말까지	-10.1237
▁공격에	-10.124
▁개방	-10.1244
▁사살	-10.1249
▁시내	-10.1249
▁많다	-10.1263
▁기다리고	-10.1285
▁오브	-10.1285
계획	-10.1286
왔	-10.1287
▁의회에	-10.1291
▁반군이	-10.1298
▁나갈	-10.1301
▁무대	-10.1312
▁주석	-10.1313
▁손상	-10.132
듯	-10.1322
▁실종	-10.1324
▁저항	-10.1324
▁희생자들	-10.1341
문제	-10.1342
▁uefa	-10.1343
▁ioc	-10.1343
▁챔피언스리그	-10.1343
▁색	-10.1344
▁겨울	-10.1344
▁페루	-10.1347
▁이중	-10.1348
▁무료	-10.1348
▁가옥	-10.1348
▁구출	-10.135
로운	-10.1352
▁파산	-10.1354
웠다	-10.1356
▁plan	-10.1358
▁올린	-10.1368
▁명단	-10.137
▁수감자들	-10.1374
▁잇	-10.1375
▁고발	-10.1379
했기	-10.1393
렛	-10.1397
드시	-10.1397
▁펜	-10.1405
▁공원	-10.1406
▁허락	-10.1415
시켰	-10.142
영화	-10.1428
el	-10.1436
▁유치	-10.144
▁수상자	-10.1442
▁그동안	-10.1442
▁잔	-10.1449
▁운영하	-10.145
▁의회에서	-10.1468
▁붉은	-10.1469
▁원문기사	-10.147
시아	-10.147
▁알래스카	-10.147
▁정확히	-10.147
▁파예드	-10.147
▁운송	-10.147
▁완벽	-10.147
▁북동부	-10.1471
▁노예	-10.1474
▁소식이	-10.1474
▁열대	-10.1483
▁초점	-10.1484
▁가졌	-10.1487
▁권한	-10.1489
선수	-10.1497
▁조원	-10.1498
▁고대	-10.1503
▁주지	-10.1503
▁지켜	-10.1507
▁사라	-10.1517
▁하면	-10.1517
▁못하는	-10.1526
대에	-10.1526
▁모여	-10.1529
드는	-10.153
▁기독교	-10.1538
▁경매	-10.1548
▁베이징에서	-10.155
▁연구원	-10.1557
▁낸	-10.1559
▁선언했다	-10.156
▁이사	-10.156
▁바이	-10.1561
▁만일	-10.1589
▁블랙	-10.1598
▁활주로	-10.1598
▁숫자	-10.1598
▁심지어	-10.1598
▁있다면	-10.1598
▁철저	-10.1599
▁크루즈	-10.1599
▁민감	-10.16
▁자극	-10.1601
▁거뒀다	-10.1606
▁진화	-10.1617
▁의사들	-10.1626
▁고향	-10.163
▁유전자	-10.163
▁식품	-10.1631
▁형태	-10.1633
▁공화국	-10.1635
▁제공하는	-10.1638
▁운항	-10.1641
▁거부했다	-10.1645
▁샌프란시스코	-10.1646
▁결정에	-10.1648
▁체계	-10.1649
▁얻기	-10.1653
▁it	-10.1656
▁의회의	-10.1659
▁분명	-10.1675
숙	-10.1676
항공	-10.1699
▁곳이	-10.1701
▁중지	-10.1708
운동	-10.171
▁스리랑카	-10.1721
▁마찬가지	-10.1728
▁nato	-10.1728
▁중부	-10.1728
▁폴란드	-10.1728
▁frb	-10.1729
▁레알	-10.1729
▁커플	-10.1729
▁철군	-10.1731
▁입증	-10.1731
▁분열	-10.1734
▁현금	-10.1736
자는	-10.1742
▁보고서에서	-10.1742
▁실패했다	-10.1747
il	-10.1751
행위	-10.1756
▁탈출	-10.1763
▁군정	-10.1766
▁타이	-10.1775
▁대선에서	-10.1782
▁빙하	-10.1791
▁수영	-10.1792
들로	-10.1794
▁한국에서	-10.1796
▁경영	-10.18
악	-10.1801
▁pc	-10.1801
애	-10.1802
▁부정적	-10.1809
사가	-10.1813
▁생각하는	-10.1818
▁곡	-10.182
▁이양	-10.1838
▁야기	-10.1843
▁방향	-10.1844
▁중독	-10.1858
▁절대	-10.1859
▁사우디아라비아	-10.186
▁보여줬다	-10.1864
▁소요	-10.1866
▁서신	-10.1866
▁공포	-10.1867
▁현상	-10.1867
▁파악	-10.1868
▁안에서	-10.187
▁호세	-10.1872
▁뼈	-10.1878
▁이주	-10.1878
▁사망했	-10.1884
▁독	-10.1886
▁늘어	-10.1887
▁싸움	-10.1888
▁폭탄이	-10.1888
▁이곳에	-10.1893
사는	-10.1894
▁답	-10.1899
해줄	-10.1902
▁만난	-10.1904
▁보인다고	-10.191
▁보안군	-10.1911
▁혁명	-10.1912
▁선거에	-10.1922
▁신체	-10.1922
▁전개	-10.193
▁납치된	-10.1931
▁뉴욕에서	-10.1931
▁광	-10.1938
▁강요	-10.1945
인들이	-10.1945
▁유나이티드	-10.1954
▁외교관	-10.1956
▁폭격	-10.1973
▁챔피언	-10.1979
▁노벨	-10.1987
▁태양	-10.1992
▁잃은	-10.1993
▁크라이슬러	-10.1993
▁토마스	-10.1993
▁관찰	-10.1993
▁아이디어	-10.1994
▁신발	-10.2001
당한	-10.2002
틀	-10.2003
▁린	-10.2006
▁실종된	-10.2008
▁살아	-10.2012
▁발간	-10.2013
▁캘리포니아주	-10.2016
▁찬	-10.2028
▁베이	-10.203
▁런던에서	-10.203
▁달간	-10.2034
▁gm	-10.2039
▁고립	-10.2041
▁증권	-10.2049
et	-10.2049
시키려	-10.2051
▁좋아	-10.2054
▁대회에서	-10.2056
▁라이트	-10.2058
▁기대하고	-10.2061
▁수업	-10.2068
올	-10.2077
벌	-10.2079
딘	-10.2082
▁시장에	-10.2087
▁여자친구	-10.2089
▁법정	-10.209
▁방송국	-10.2094
j	-10.2097
▁값	-10.2098
률	-10.2105
▁계속되	-10.2116
ra	-10.2117
션	-10.2125
▁동티모르	-10.2128
▁라스베이거스	-10.2128
▁맞춰	-10.2128
▁리조트	-10.2128
▁타이틀	-10.2128
▁생긴	-10.213
▁형제	-10.2133
▁인생	-10.2134
▁쓰나미	-10.2137
▁발생하지	-10.2137
▁세계은행	-10.2138
▁중순	-10.2144
▁대량	-10.2147
▁무선	-10.2149
▁피해가	-10.2149
겨	-10.2151
▁경제에	-10.2152
▁안전한	-10.2154
상태	-10.2155
▁받아야	-10.2158
▁콩고	-10.2163
누	-10.2169
▁하던	-10.2171
▁이사회	-10.2173
도시	-10.2175
▁분간	-10.2178
▁근처	-10.218
▁수상했다	-10.2193
▁재단	-10.2199
▁데이	-10.2205
수록	-10.221
뿐	-10.2211
례	-10.2211
▁만화	-10.2212
▁오염	-10.2216
▁해변	-10.2221
▁중요	-10.2221
▁년이	-10.2227
▁이송	-10.224
▁사회적	-10.2246
▁감독이	-10.2248
▁거두	-10.2254
▁성화봉송	-10.2255
▁일리노이	-10.2257
더라	-10.2261
▁증명	-10.2263
▁김대중	-10.2265
▁엄격	-10.2265
▁논평	-10.2265
▁불러	-10.2265
▁첫번째	-10.2265
▁앞에	-10.2266
▁은퇴	-10.2267
▁하원의원	-10.2267
▁회동	-10.2269
▁돌아오	-10.227
▁두바이	-10.227
▁모기지	-10.2271
▁바르셀로나	-10.2271
▁구금	-10.2272
▁성공적	-10.2274
▁예전	-10.2275
▁교사	-10.2277
▁높아지	-10.2277
▁기계	-10.2278
▁금요일	-10.228
▁총격전	-10.2281
▁케리	-10.2283
▁갖게	-10.2287
▁난사	-10.2288
▁한때	-10.229
북	-10.229
la	-10.2292
▁누리	-10.2293
▁보낼	-10.23
▁신부	-10.2305
▁표했다	-10.2312
해주	-10.2313
▁클린턴이	-10.2317
낸	-10.2322
▁확실	-10.2322
▁시청	-10.2324
▁지시했다	-10.2326
▁명에게	-10.2336
▁측근	-10.2348
▁이스라엘이	-10.2349
▁봤다	-10.235
▁승리한	-10.2352
▁진전	-10.2358
▁세상	-10.2358
▁출석	-10.2359
컵	-10.2359
▁끌어	-10.2366
▁과학자	-10.2371
▁주제	-10.2372
▁리그	-10.238
지수	-10.2384
se	-10.2391
▁나누	-10.2393
▁넓	-10.2395
▁책임이	-10.2404
▁태어난	-10.2404
▁외환은행	-10.2404
▁중대	-10.2404
▁데이터	-10.2406
▁디자인	-10.2406
▁채택	-10.2406
▁불편	-10.2407
▁헨리	-10.2407
▁단속	-10.2407
▁것이고	-10.2408
▁우리나라	-10.2408
▁유력	-10.2412
▁항소	-10.2413
▁지역으로	-10.2414
▁케이블	-10.2416
▁본선	-10.2416
▁전역	-10.2416
▁기상	-10.2423
▁중국에	-10.2423
▁no	-10.2426
▁사용한	-10.2426
▁위조	-10.2426
▁만들어진	-10.2426
▁보유하고	-10.2429
▁불길	-10.2431
개발	-10.2435
▁mo	-10.2437
▁보유	-10.2438
▁하와이	-10.2439
▁회의에서	-10.244
▁보트	-10.2445
▁대학교	-10.2447
▁가는	-10.2455
▁주한	-10.2457
▁니콜	-10.2461
▁뿐만	-10.2462
pe	-10.2463
▁바라	-10.2481
▁빚	-10.2483
우스	-10.2485
▁nu	-10.2487
▁이라크와	-10.2489
▁호텔에서	-10.2497
▁도시에서	-10.2497
▁의미한다	-10.2499
▁지속	-10.2507
▁인류	-10.2507
▁훼손	-10.2512
▁빛	-10.2513
▁추방	-10.2528
▁아이오와	-10.2537
▁가했다	-10.2538
▁프로그램에	-10.2539
▁강타	-10.2541
▁거쳐	-10.2542
▁다수	-10.2542
▁요르단	-10.2544
▁외교통상부	-10.2544
▁앓고	-10.2545
▁휴대전화	-10.2545
▁섹스	-10.2545
▁면담	-10.2546
▁떠	-10.2546
▁달러로	-10.2546
▁abc	-10.2547
▁해결책	-10.2548
▁에도	-10.2552
▁신중	-10.2554
▁방화	-10.2555
▁오늘날	-10.2555
▁마쳤다	-10.2556
▁개표	-10.2556
▁여권	-10.2558
▁간단	-10.2559
▁아메리칸	-10.2559
▁상태에	-10.2559
▁의석	-10.2569
▁몰	-10.2569
▁주장에	-10.2569
▁예수	-10.2577
조차	-10.2582
▁천만	-10.2582
ol	-10.2584
▁여성의	-10.2584
▁전쟁에	-10.2602
▁응답자	-10.2602
드라	-10.2605
▁공간	-10.2608
▁악	-10.261
▁죽은	-10.262
랜	-10.2623
▁이끌어	-10.2624
▁민주	-10.2624
▁고어	-10.2626
기가	-10.2627
▁물건	-10.2628
안에	-10.2628
자들에게	-10.2634
▁경쟁자	-10.2634
▁분리	-10.2635
쳤	-10.2637
ial	-10.2647
젠	-10.2648
▁발생하는	-10.265
▁비교	-10.2651
전에	-10.266
뿐만	-10.2662
▁주목	-10.2671
켓	-10.2679
혜	-10.2681
▁플레이	-10.2682
▁가슴	-10.2688
▁불능화	-10.2688
▁찾을	-10.2688
▁협박	-10.2688
▁격렬	-10.2688
▁급등	-10.2689
▁홀	-10.2691
▁종류	-10.2691
▁무죄	-10.2693
▁참석했다	-10.2693
▁발전소	-10.2702
▁획득	-10.2705
▁크리스티	-10.2706
▁추정된다	-10.271
▁시에	-10.271
▁것이었다	-10.2724
▁한국에	-10.2728
▁제대	-10.273
극	-10.2735
▁부과	-10.2736
▁국민들에게	-10.2739
▁아동	-10.274
▁논란이	-10.2743
▁당수	-10.2746
▁백인	-10.2748
▁명예	-10.2758
▁혐의에	-10.2763
▁우리당	-10.2766
▁지속적	-10.2769
▁비용이	-10.2772
▁못한다	-10.2786
▁동성애자	-10.2789
희	-10.2791
ir	-10.2792
완	-10.2793
▁표명	-10.2795
▁취	-10.28
▁미국측	-10.2802
▁끼	-10.2803
스와	-10.2803
▁이후로	-10.281
▁중재	-10.281
▁이행	-10.282
▁벗어나	-10.2822
닝	-10.2828
▁코미디	-10.2832
짝	-10.2832
▁스코틀랜드	-10.2833
▁일으킨	-10.2833
▁와인하우스	-10.2833
▁송환	-10.2833
▁저지른	-10.2834
▁나올	-10.2837
하고자	-10.2838
이기	-10.2839
릭	-10.2839
▁낸시	-10.284
ate	-10.2841
▁법원에	-10.2842
▁요소	-10.2843
▁펼쳤다	-10.2845
스톤	-10.2846
백	-10.285
▁폭스	-10.285
세력	-10.2852
▁순위	-10.2854
▁계	-10.2859
▁업무	-10.286
▁이내	-10.2865
▁자원	-10.2867
어야	-10.2877
▁방영	-10.288
▁순찰	-10.2891
▁물가	-10.2903
▁보지	-10.2905
▁돌아	-10.2905
▁얼음	-10.2912
▁행복	-10.2917
▁식당	-10.292
▁단체들	-10.2923
▁폭발물	-10.2926
▁기금	-10.2931
▁국방	-10.2937
▁만개	-10.2937
▁불가능	-10.2945
▁지목	-10.2947
상황	-10.2951
▁주인	-10.2952
▁사망자수	-10.2954
산업	-10.2957
거래	-10.2957
자금	-10.296
ne	-10.2961
▁사용자	-10.2964
▁엄청	-10.2966
▁제기했다	-10.2967
▁리처드	-10.2975
▁못해	-10.2976
틴	-10.2977
▁오사마빈라덴	-10.298
▁곤잘레스	-10.298
▁블라고예비치	-10.298
▁블라디미	-10.298
▁합병	-10.298
▁임금	-10.2981
▁고위관리	-10.2982
▁테스트	-10.2982
주의자	-10.2987
▁시기에	-10.2988
is	-10.2988
▁견해	-10.2988
▁이루어졌다	-10.2989
▁쓴	-10.2992
▁메일	-10.2994
▁홈	-10.2996
▁죄	-10.2998
▁방법이	-10.3001
▁적극적	-10.3005
▁답했다	-10.3011
▁델	-10.3014
▁코트	-10.3019
▁세포	-10.3023
ca	-10.3028
▁황	-10.303
▁의문	-10.3031
▁봉쇄	-10.3038
▁주문	-10.3043
▁전해	-10.3044
▁후보들	-10.3046
트리	-10.3046
대학	-10.3054
▁수퍼	-10.3056
▁마감했다	-10.3058
총	-10.3066
▁경찰서	-10.3081
▁초대	-10.3083
폭	-10.3083
▁나타내	-10.3091
um	-10.3091
▁이라크군	-10.3097
▁몰아	-10.3099
▁에어버스	-10.3107
경제	-10.3118
없이	-10.312
▁개장	-10.312
▁시점	-10.3124
▁취재	-10.3126
▁작동	-10.3126
▁선거캠프	-10.3129
▁북서부	-10.3129
▁화장실	-10.313
▁숀	-10.313
▁분석가	-10.313
▁부총리	-10.3131
▁government	-10.3133
▁그리	-10.3134
▁노동당	-10.3136
▁상공	-10.3139
▁해양	-10.314
▁전환	-10.3149
▁화해	-10.315
밀	-10.3156
▁병사들	-10.3158
▁작	-10.3161
▁만났다	-10.3164
▁독도	-10.317
om	-10.3177
▁재건	-10.3178
▁전원	-10.3189
▁스키	-10.3198
▁하늘	-10.3208
환	-10.321
▁비판했다	-10.3212
▁아프가니스탄에서	-10.3219
달라고	-10.3221
▁발언에	-10.3224
월	-10.3229
막	-10.3239
람	-10.3241
▁짓	-10.3242
▁인종	-10.3244
암	-10.3252
▁자사	-10.3252
▁문제들	-10.3256
▁우주비행사	-10.3256
▁백악관에서	-10.3261
▁조기	-10.3268
▁압둘	-10.327
펠	-10.3271
▁시티	-10.3272
▁건축	-10.3277
▁나스닥	-10.328
▁샤라포바	-10.328
▁리차드	-10.328
▁리히터	-10.328
▁복무	-10.328
▁from	-10.3281
▁패트릭	-10.3281
▁핵프로그램	-10.3281
▁직업	-10.3282
▁다윈	-10.3282
▁왕실	-10.3283
▁강풍	-10.3283
글	-10.3283
▁진영	-10.3283
▁생각했다	-10.3285
▁얻어	-10.3287
▁언어	-10.3287
▁배경	-10.3288
▁전세계적으로	-10.3293
▁직전	-10.3294
▁스타일	-10.3298
▁들어갔다	-10.33
▁해임	-10.3303
▁차단	-10.3303
▁아니었다	-10.3307
▁자유롭	-10.3307
▁록	-10.331
▁단어	-10.3311
▁정신적	-10.3314
움	-10.3319
▁시민들이	-10.332
▁중간	-10.3324
▁비치	-10.3335
▁자제	-10.3337
히려	-10.3343
▁대상이	-10.3348
▁합류	-10.3358
▁환	-10.3365
슬	-10.3367
▁윌	-10.3373
▁리드	-10.3378
▁세인	-10.3379
▁트리	-10.3397
▁공개된	-10.3403
▁맡은	-10.3408
▁라이	-10.3408
▁전역에	-10.3413
▁골프	-10.3415
▁열어	-10.3416
▁붙	-10.3419
▁이루	-10.3421
▁그렇지	-10.3426
▁덮	-10.3428
▁법안이	-10.3432
▁뒤에	-10.3433
▁디즈니	-10.3434
▁캄보디아	-10.3434
▁남서부	-10.3434
▁받아들일	-10.3434
▁둘러싸	-10.3434
clear	-10.3434
▁영웅	-10.3435
▁케빈	-10.3435
▁원칙	-10.3435
▁축소	-10.3437
▁불과	-10.3438
▁보복	-10.3441
▁법무부	-10.3443
▁공모	-10.3444
▁공개적으로	-10.3447
▁수십명	-10.3448
▁완전한	-10.3453
▁천명	-10.3453
▁유럽의	-10.346
▁탈	-10.3465
▁논의하기	-10.3466
▁즉각	-10.347
▁보호하기	-10.347
익	-10.3477
적이	-10.3479
▁가능하다	-10.3487
▁공유	-10.3492
▁청	-10.3492
견	-10.3493
▁불구	-10.3495
▁장례식	-10.3495
▁폭락	-10.3499
▁공항에	-10.3503
▁측정	-10.3507
▁자신에게	-10.3509
▁삭제	-10.3509
▁거리에	-10.3511
에만	-10.3517
▁대치	-10.3519
▁시드니	-10.3521
ro	-10.3523
▁무엇	-10.3528
▁인근에	-10.3529
▁진술했다	-10.3531
▁숨졌	-10.3535
▁농	-10.3548
lo	-10.355
▁의학	-10.3552
▁시장이	-10.3553
▁해적	-10.3554
▁출동	-10.3559
▁오바마와	-10.3574
드리	-10.3576
▁말해	-10.3578
▁패션	-10.3589
ti	-10.359
▁마이애미	-10.359
▁비타민	-10.359
▁알코올	-10.359
▁중앙일보	-10.359
됨	-10.359
한글뉴스	-10.359
▁디지털	-10.359
▁가택연금	-10.359
▁호랑이	-10.3591
▁거듭	-10.3591
▁활약	-10.3591
▁자치정부	-10.3591
▁라이벌	-10.3591
▁다우지수	-10.3591
▁산사태	-10.3592
▁한국이	-10.3592
▁새벽	-10.3592
텔	-10.3594
송	-10.3594
▁취임식	-10.3596
▁천재	-10.3597
▁들여	-10.3597
▁만들고	-10.3599
▁보는	-10.3599
▁조류	-10.36
▁회사가	-10.3606
▁쌀	-10.3606
▁맥주	-10.3607
▁계획은	-10.3607
▁떠났다	-10.361
▁해산	-10.361
▁타임스	-10.3611
▁채널	-10.3611
▁유대인	-10.3613
▁감염된	-10.3615
▁달려	-10.3617
▁이론	-10.362
▁우리에게	-10.3624
짜리	-10.3627
▁소문	-10.3628
제를	-10.3629
▁영장	-10.3632
▁지내	-10.3645
▁전부터	-10.3649
▁잡고	-10.3652
다시	-10.366
염	-10.3663
▁증가한	-10.3666
▁평가했다	-10.3667
▁동쪽	-10.367
아야	-10.3674
▁했었다	-10.3678
▁모스크바	-10.3683
철	-10.3686
녀	-10.369
▁주었다	-10.3695
▁워	-10.3696
▁싶어	-10.3705
패	-10.3715
덴	-10.372
▁al	-10.3724
▁근로자	-10.3726
▁한국인들	-10.3732
조사	-10.3738
▁세계적	-10.3743
▁발굴	-10.3744
▁minister	-10.3749
▁토네이도	-10.3749
▁쌍둥이	-10.3749
▁천연가스	-10.3749
▁겨냥	-10.3749
▁법무장관	-10.3749
▁수석대표	-10.375
▁로이터	-10.375
▁마무	-10.3751
▁사생활	-10.3751
▁위안부	-10.3752
▁데에	-10.3752
▁산림	-10.3753
▁폭파	-10.3753
▁벨기에	-10.3753
▁무엇보다	-10.3754
▁눈에	-10.3755
ta	-10.3757
▁선발	-10.376
▁초반	-10.3762
▁북쪽	-10.3767
▁치열한	-10.3768
▁형사	-10.377
▁선전	-10.377
▁회견	-10.377
▁에드	-10.3774
▁것인가	-10.3777
▁나에게	-10.3778
▁예상되	-10.378
▁연구팀	-10.3783
▁조합	-10.3785
▁상태로	-10.3786
▁연금	-10.3788
기에	-10.3798
▁돼지	-10.3802
▁올리	-10.3802
▁영국인	-10.3802
▁부서	-10.3803
▁블	-10.3805
▁호수	-10.3805
▁페이지	-10.3806
▁딕	-10.381
▁걸린	-10.381
▁out	-10.3815
▁키스	-10.382
▁로비	-10.3823
▁추산	-10.3826
▁투표에서	-10.3827
▁가족과	-10.383
▁노인	-10.383
▁움직이	-10.3831
▁배가	-10.3834
젤	-10.3835
▁예루살렘	-10.3838
부대	-10.3841
▁국민들이	-10.3841
▁감행	-10.3851
▁분석가들	-10.3857
▁연관	-10.3868
▁얻을	-10.3868
▁조약	-10.387
▁철	-10.3871
향	-10.3873
▁나왔	-10.3876
▁연주	-10.3884
왕	-10.3885
▁인디애나	-10.3888
카운티	-10.3893
▁부근	-10.3897
조직	-10.3898
경찰	-10.3899
▁쇼핑	-10.3907
▁뿌리	-10.391
▁쓰촨성	-10.391
▁아메리카	-10.391
▁결선투표	-10.3911
▁침몰	-10.3911
▁보스턴	-10.3911
▁다섯	-10.3911
▁파트너	-10.3911
▁은신처	-10.3911
▁황금	-10.3912
▁사찰단	-10.3913
▁부채	-10.3915
▁엔진	-10.3918
▁악어	-10.3919
▁재난	-10.3921
▁생일	-10.3921
▁하락세	-10.3922
▁카터	-10.3923
▁수위	-10.3925
▁들어오	-10.3927
▁경력	-10.3927
▁보험	-10.3928
▁상승세	-10.3928
▁차량에	-10.393
▁world	-10.393
▁미칠	-10.393
▁재무부	-10.3939
같은	-10.3946
▁보내는	-10.3946
▁구조대	-10.3947
▁조명	-10.3947
▁아프간에서	-10.3949
▁알카에다와	-10.3964
째	-10.3966
▁연구에	-10.3971
▁노스캐롤라이나	-10.3972
경기	-10.3979
▁정지	-10.3981
▁밴드	-10.3982
웨이	-10.3989
▁파티	-10.3991
▁사람에게	-10.3994
▁프레스	-10.3995
▁이재민	-10.3998
▁피해자들	-10.4008
▁수리	-10.4011
치를	-10.4012
pa	-10.4013
됐었다	-10.4013
▁현실	-10.4019
해질	-10.4027
주는	-10.4029
▁경험이	-10.4033
▁지점	-10.4036
▁든	-10.4046
▁시한	-10.4047
풍	-10.4051
▁상징	-10.4055
걸	-10.4059
되며	-10.4062
▁최저	-10.4063
갑	-10.4064
▁늦게	-10.4074
▁pkk	-10.4074
▁득점	-10.4074
▁마이크로소프트	-10.4074
▁비핵화	-10.4074
▁알렉산더	-10.4074
▁왼쪽	-10.4074
▁이산화탄소	-10.4074
▁좋다	-10.4074
▁키바키	-10.4074
▁오딩가	-10.4074
닷컴	-10.4075
▁거짓말	-10.4075
▁급격	-10.4076
▁his	-10.4076
▁참여한	-10.4076
▁포경	-10.4076
▁영업	-10.4076
▁아이폰	-10.4076
▁할머니	-10.4077
니아	-10.4077
▁체중	-10.4078
▁체코	-10.4079
▁대립	-10.4083
▁킬로미터	-10.4085
▁내리	-10.4086
▁분류	-10.4087
▁초청	-10.4087
▁ch	-10.4092
▁날짜	-10.4095
▁근로자들	-10.4099
▁밥	-10.41
▁원화	-10.4107
받	-10.4109
되어야	-10.4109
▁경영진	-10.4111
▁노선	-10.4115
▁숙	-10.4117
▁가동	-10.4118
▁공사	-10.4118
▁흔들	-10.412
돼야	-10.4121
▁물이	-10.4123
▁자본	-10.4128
▁앨	-10.4128
▁차량이	-10.4133
▁장면이	-10.4135
▁총상	-10.4138
▁급속	-10.4139
▁제조업체	-10.4142
▁로한	-10.4149
▁기다리	-10.4152
▁일제	-10.4154
▁언론에	-10.4157
▁정의	-10.4159
▁보고서에	-10.4161
▁떨어지	-10.4163
▁이란과	-10.4164
▁인사들	-10.417
▁미국인들이	-10.4173
▁치러	-10.4173
▁동기	-10.4177
냈다	-10.4184
잔	-10.4192
▁테러와	-10.4199
▁보석	-10.4203
▁이식	-10.421
▁그대로	-10.421
▁북미	-10.4224
공격	-10.4225
▁화학	-10.4227
딩	-10.4239
▁옮겨	-10.4239
▁천주교	-10.424
▁필라델피아	-10.4241
▁인플레이션	-10.4241
▁택시	-10.4241
▁over	-10.4241
▁최	-10.4242
▁탄압	-10.4242
▁음	-10.4242
▁사냥	-10.4243
▁소집	-10.4245
▁성격	-10.4245
▁호소	-10.4249
▁소위	-10.425
▁다음날	-10.425
id	-10.4257
▁이뤄졌다	-10.426
▁만남	-10.4262
▁화재로	-10.4265
▁양국간	-10.4268
한번	-10.4274
▁구조대원들	-10.4277
▁공기	-10.4278
▁통일부	-10.4282
▁리치	-10.4287
▁순	-10.4292
▁월요일에	-10.4303
▁살이	-10.4303
▁나오지	-10.4304
▁투쟁	-10.4305
▁만들기	-10.4306
▁분만	-10.4308
▁정치인	-10.4308
베나	-10.4311
▁했습니다	-10.4313
▁기록한	-10.4314
▁군사적	-10.4316
▁여론조사에서	-10.4319
▁방식으로	-10.4319
▁발생했	-10.4321
▁것임	-10.4323
▁홍수로	-10.4329
▁학	-10.4332
▁극장	-10.4351
▁남동부	-10.4351
▁수상한	-10.4361
된다고	-10.4364
▁카페	-10.4365
▁시각	-10.4373
▁가족들이	-10.4375
델	-10.4376
▁출판	-10.4381
착	-10.4383
▁관계에	-10.4386
▁존중	-10.4398
새	-10.4399
▁기대한다	-10.4406
▁이루어지	-10.4406
da	-10.4409
▁탄핵	-10.4409
▁일간지	-10.441
▁골키퍼	-10.4411
▁남자친구	-10.4411
▁구멍	-10.4411
▁푸	-10.4411
▁china	-10.4411
▁포럼	-10.4411
▁폭설	-10.4413
▁진행자	-10.4413
▁주최측	-10.4414
▁단어장	-10.4414
▁브랜드	-10.4415
▁진단	-10.4416
▁음주	-10.4417
▁날개	-10.4417
▁not	-10.4418
작전	-10.4422
▁특수	-10.4438
▁일본과	-10.4441
▁구간	-10.4448
받았다	-10.4449
▁공대	-10.4449
▁수사관들	-10.4453
▁미군과	-10.4453
▁예술	-10.4454
▁사법	-10.4454
▁예를들	-10.4457
▁사람들과	-10.4461
▁표명했다	-10.4468
▁마비	-10.4468
▁day	-10.4472
▁세워	-10.4472
▁가상	-10.4482
▁실망	-10.4486
▁사태에	-10.4487
▁신사	-10.4488
▁쓰	-10.45
▁희생	-10.4503
▁바꾸	-10.4507
▁주장한	-10.4508
▁봉사	-10.4512
▁친구들	-10.4518
▁세력이	-10.4519
학교	-10.4525
▁토지	-10.4533
▁기소됐다	-10.4533
▁다이	-10.454
놓	-10.4545
▁내일	-10.4545
▁모르	-10.4546
▁먼	-10.4547
몬	-10.4552
▁제작한	-10.4562
슨은	-10.4569
참	-10.4569
연맹	-10.4569
▁부상으로	-10.4574
▁제공할	-10.4575
베이	-10.4576
▁대륙	-10.458
▁사우스캐롤라이나	-10.4583
▁코끼리	-10.4583
▁후진타오	-10.4583
▁hiv	-10.4583
▁최근에	-10.4583
사항	-10.4584
▁균형	-10.4584
립니다	-10.4584
▁종결	-10.4585
▁징역형	-10.4586
▁라덴	-10.4588
▁비율	-10.4589
▁배후	-10.4591
▁기온	-10.4601
▁정식	-10.4602
▁비교적	-10.4602
▁용기	-10.4603
▁아난	-10.4603
▁성장률	-10.4605
▁보여준다	-10.4605
지역에서	-10.4606
▁갔다	-10.4607
▁fa	-10.4609
▁당국자	-10.4611
▁벽	-10.4611
▁마리아	-10.4615
▁확인됐다	-10.462
허	-10.462
▁스톤	-10.4627
▁전통적	-10.4634
▁자신과	-10.4644
▁여행객	-10.4646
▁출연한	-10.465
▁위협이	-10.465
스가	-10.4652
▁맡고	-10.4653
▁조각	-10.4663
택	-10.4664
▁생기	-10.4665
적이고	-10.4667
▁이에따라	-10.4668
▁고객들	-10.4669
▁하나로	-10.4676
▁초안	-10.4677
▁받는다	-10.4694
▁up	-10.4697
▁낼	-10.4697
▁청문회	-10.4699
▁폭발이	-10.4713
▁결과에	-10.4719
▁올라가	-10.472
력이	-10.472
▁마시	-10.4723
▁중이었다	-10.4727
▁치르	-10.4728
찰	-10.4731
▁가게	-10.4731
ese	-10.4736
ts	-10.4737
▁방송사	-10.4738
▁보잉	-10.4739
▁sh	-10.4742
탕	-10.4747
▁토론회	-10.4747
▁여학생	-10.4752
싱	-10.4754
얼	-10.4754
▁시작했	-10.4758
▁뭄바이	-10.4758
▁선관위	-10.4758
▁쿠웨이트	-10.4758
▁테일러	-10.4758
▁스트레스	-10.4758
▁계좌	-10.4759
▁show	-10.4759
▁남극	-10.476
장치	-10.4761
▁줄리아니	-10.4761
▁이란에	-10.4761
▁케이트	-10.4762
▁스턴	-10.4762
▁미디어	-10.4766
▁제목	-10.4766
▁실적	-10.4766
▁거주	-10.4773
▁화상	-10.4778
▁일으켰다	-10.4788
▁정상들	-10.479
▁정전	-10.4791
▁피부	-10.4795
▁문제의	-10.4798
▁보일	-10.4799
▁일어났다	-10.4811
ac	-10.4817
비치	-10.4822
▁군은	-10.4822
▁필요성	-10.4823
▁파도	-10.4825
un	-10.4826
▁근처에서	-10.4841
버그	-10.4844
▁도착한	-10.4845
해야만	-10.4845
▁올려	-10.4861
니스	-10.4876
▁끝나	-10.4879
▁헌	-10.488
▁자택	-10.4882
▁적절	-10.4883
삼	-10.4883
스코	-10.4884
▁콘	-10.4887
그룹	-10.4889
▁대피했다	-10.4895
▁남부에서	-10.4903
▁다가	-10.4903
▁가족이	-10.4904
▁애도	-10.4906
▁사용해	-10.4908
▁특파원	-10.491
침	-10.4918
▁승려들	-10.492
▁선포했다	-10.4921
압	-10.4921
▁하나인	-10.4924
몰	-10.4926
▁유출	-10.4928
▁입을	-10.4928
▁파손	-10.493
욕	-10.4932
▁비난하는	-10.4932
알	-10.4933
▁광범위	-10.4937
▁다큐멘터리	-10.4937
▁식료품	-10.4937
▁에콰도르	-10.4937
▁재검토	-10.4937
▁탱크	-10.4937
▁펠로시	-10.4937
▁마라톤	-10.4937
▁돌고래	-10.4937
▁전당대회	-10.4937
▁가벼	-10.4937
▁예멘	-10.4938
▁교통사고	-10.4938
▁nba	-10.4938
▁슈퍼	-10.4938
▁지붕	-10.4938
▁소규모	-10.4938
▁구축	-10.4939
▁관영	-10.4939
연구소	-10.4939
▁보존	-10.4939
▁동생	-10.494
▁화려	-10.4941
▁관계당국	-10.4943
▁감바리	-10.4944
▁기쁘다	-10.4944
▁범행	-10.4945
사태	-10.4945
▁묘사	-10.4947
▁회원국들	-10.4953
▁치명적인	-10.4955
▁기차	-10.4957
▁부산	-10.4959
▁발생하고	-10.4961
▁재판관	-10.4962
▁과도	-10.4964
▁손에	-10.497
▁시체	-10.4972
▁조용	-10.4972
▁분에	-10.4975
▁국적	-10.4976
▁ma	-10.4977
▁사용했다	-10.4985
▁서장	-10.4986
▁북쪽으로	-10.4986
▁물에	-10.4989
▁수립	-10.4995
해진	-10.5003
▁중단했다	-10.5006
▁인원	-10.5016
▁무게	-10.5017
업자	-10.5018
▁진행되는	-10.5019
▁참석할	-10.5025
라스	-10.5027
▁쓰고	-10.5032
▁위인	-10.5037
▁대로	-10.504
▁총회	-10.505
▁이용하는	-10.505
국인	-10.5062
co	-10.5062
▁세계적으로	-10.5063
▁팀이	-10.5064
▁노동자들	-10.5065
▁내렸	-10.5081
▁침입	-10.5083
▁제출했다	-10.5086
▁경호원	-10.5096
▁착수	-10.5102
드로	-10.5103
▁유럽에서	-10.5105
▁북극	-10.5105
▁무슬림	-10.5105
롭	-10.5106
▁론	-10.5106
▁정책에	-10.5107
▁배출	-10.5109
멸	-10.5116
▁근육	-10.5117
켈	-10.5118
▁감금	-10.5119
▁dvd	-10.5119
▁과반수	-10.5119
▁국제원자력기구	-10.5119
▁돕기	-10.5119
▁듣고	-10.5119
▁샌디에이고	-10.5119
▁캐릭터	-10.5119
▁협약	-10.5119
▁화이트	-10.5119
▁횡령	-10.5119
▁롬니	-10.5119
▁펀드	-10.5119
▁봉송	-10.5119
▁일어날	-10.5119
▁일치	-10.5119
▁침공	-10.5119
▁소련	-10.512
▁레이건	-10.5121
▁운명	-10.5121
햄	-10.5121
▁기밀	-10.5122
▁신규	-10.5122
▁판정	-10.5124
▁거부권	-10.5126
▁뇌물	-10.5126
▁지상	-10.5126
▁월드	-10.5127
▁경관	-10.5127
▁자문	-10.5129
▁이륙	-10.5129
▁숲	-10.5131
▁개정안	-10.5132
▁마친	-10.5134
▁녹	-10.5137
▁늘어나	-10.5138
▁반박	-10.5141
▁여성들이	-10.5143
▁충돌이	-10.5146
제도	-10.5146
▁ex	-10.515
▁보여주고	-10.5163
▁차지하고	-10.5165
▁일련	-10.5165
▁해안에서	-10.5168
▁기부	-10.517
대표	-10.5176
age	-10.5176
▁지정	-10.5177
▁요리	-10.518
▁부모들	-10.5185
▁하이	-10.5186
▁지점에서	-10.5195
▁품	-10.5196
원이	-10.5197
▁실시할	-10.5204
▁수배	-10.5205
▁근거로	-10.5206
▁이름이	-10.5206
▁통신이	-10.5212
벨	-10.5216
▁연구원들	-10.5222
▁주장한다	-10.5225
▁목격	-10.5225
▁x	-10.5228
▁신조	-10.5229
▁고소	-10.5232
▁예정인	-10.5233
▁사막	-10.5239
ary	-10.5243
▁보냈	-10.5245
▁미스	-10.525
▁개시	-10.5265
▁공약	-10.5266
법원	-10.5278
검	-10.5283
▁적십자	-10.5288
▁브리	-10.5289
▁성직자	-10.5293
▁생물	-10.5295
▁얼	-10.5296
넬	-10.5301
ma	-10.5302
▁안전보장이사회	-10.5304
▁연쇄	-10.5304
▁확장	-10.5304
▁메르켈	-10.5304
▁지하철	-10.5304
▁party	-10.5305
▁발휘	-10.5305
▁녹음	-10.5305
▁특징	-10.5305
▁영화배우	-10.5306
▁저희	-10.5306
갔다	-10.5307
▁당초	-10.5308
▁행사에	-10.5309
▁래리	-10.5312
▁조지아주	-10.5313
▁are	-10.5314
▁항구	-10.5314
▁처해	-10.5316
▁붙잡	-10.5316
▁지분	-10.5318
▁진보	-10.5319
비아	-10.532
▁모임	-10.5322
▁여지	-10.5325
▁맞추	-10.5326
▁하미	-10.5326
사인	-10.5327
▁서울시	-10.5327
▁오하이오주	-10.533
▁news	-10.5331
▁지원할	-10.5331
▁md	-10.5331
▁승무원들	-10.5333
▁냈다	-10.5335
▁탐	-10.5339
▁생산량	-10.5341
▁운전사	-10.5341
위원장	-10.5351
▁운영하고	-10.5353
▁선원	-10.5353
해왔	-10.536
▁직원이	-10.5361
▁원숭이	-10.5364
▁나이트	-10.5364
▁이르	-10.5367
▁실종자	-10.5369
▁흥분	-10.5369
▁누르	-10.5375
▁검은	-10.5376
▁요금	-10.5377
ty	-10.5378
▁투르	-10.5379
▁달린	-10.5381
▁발견한	-10.5381
▁확정	-10.5381
▁달러화	-10.5383
▁보게	-10.5394
▁사용하지	-10.5399
▁맞는	-10.54
▁가해	-10.5401
▁있어야	-10.5401
▁펼치	-10.5402
▁주식시장	-10.5405
▁일본에	-10.541
▁와인	-10.5414
▁계속될	-10.5417
▁레스토랑	-10.5417
▁않았던	-10.5418
▁영화에	-10.542
▁상태에서	-10.5422
▁생각이	-10.5425
▁확신한다	-10.5426
들로부터	-10.5429
▁망	-10.5431
▁셀	-10.5436
기업	-10.5437
▁소매	-10.5443
▁최고치	-10.5448
▁국가에서	-10.545
▁미치는	-10.5452
▁합의한	-10.5455
▁주전	-10.5458
ver	-10.5466
▁맨	-10.5467
놀	-10.5475
▁포로	-10.5477
▁레드	-10.5481
▁중단할	-10.5483
▁데일리	-10.5484
▁수사관	-10.5485
헌	-10.5489
▁미시시피	-10.5492
릿	-10.5492
픽	-10.5492
▁매니저	-10.5493
▁obama	-10.5493
▁마흐디	-10.5493
▁먹이	-10.5493
▁프랭크	-10.5493
▁항공우주국	-10.5493
▁애완견	-10.5493
▁줄기세포	-10.5493
▁난민촌	-10.5493
▁앤드류	-10.5493
▁귀환	-10.5494
▁빌딩	-10.5494
▁쿠퍼	-10.5495
▁탄생	-10.5495
▁후보자	-10.5495
귀	-10.5498
▁리처드슨	-10.5499
▁소형	-10.5502
▁침대	-10.5503
▁추세	-10.5503
▁원래	-10.5504
▁매체	-10.5504
▁밝혀진	-10.5504
내내	-10.5505
▁공산주의	-10.5507
정보	-10.5509
▁수송	-10.5509
▁후보와	-10.5512
▁인민	-10.5513
▁베르	-10.5521
▁동의했다	-10.5525
▁구역	-10.5526
▁스타디움에서	-10.5527
▁낮추	-10.5528
▁용	-10.5531
▁텍사스주	-10.5532
▁정원	-10.5532
▁등급	-10.5537
▁증세	-10.5539
▁무어	-10.554
포트	-10.5541
▁깊이	-10.5543
▁다르다	-10.5545
▁테니스	-10.5548
▁놀	-10.5548
▁직장	-10.5548
스타인	-10.5551
▁동료들	-10.5556
▁어렵다	-10.5562
▁없게	-10.5563
▁건물이	-10.5565
▁윤	-10.5566
▁무리	-10.557
▁만족	-10.5585
▁딸이	-10.559
▁작업에	-10.5598
▁전달했다	-10.5601
▁육	-10.5602
포드	-10.5606
▁협상에	-10.5612
트라	-10.5619
▁아들이	-10.5619
▁일어났	-10.5627
▁화요일에	-10.563
▁하락한	-10.5633
▁추측	-10.5634
▁물품	-10.5635
▁동맹국	-10.5637
능	-10.5641
▁쉽지	-10.5644
▁교황은	-10.5652
▁견	-10.5655
▁옆	-10.566
존	-10.5663
▁소식통이	-10.5665
닥	-10.5672
▁하루에	-10.5673
▁통계	-10.5673
▁경호	-10.5676
▁애리조나	-10.5677
▁말했	-10.5679
▁foreign	-10.5685
▁플라스틱	-10.5685
▁침략	-10.5685
▁경기부양책	-10.5685
▁샘플	-10.5685
▁예비선거	-10.5685
▁어깨	-10.5685
▁헌법재판소	-10.5685
▁옐친	-10.5685
▁롤링	-10.5685
▁득표율	-10.5686
▁제정	-10.5686
▁응급	-10.5686
▁교도소에	-10.5686
▁복역	-10.5686
▁솔직	-10.5686
▁영양	-10.5687
▁창출	-10.5687
▁끝날	-10.5688
▁창문	-10.5689
▁다국적군	-10.5689
▁방출	-10.569
▁졸리	-10.5691
▁결과로	-10.5691
▁운전자	-10.5693
▁발포	-10.5695
▁키우	-10.5695
꺼	-10.5697
▁최저치	-10.5699
▁경비	-10.5711
▁옆에	-10.5716
▁테러범	-10.572
▁식사	-10.5725
▁행정	-10.5726
마자	-10.5726
▁신문사	-10.5726
▁인력	-10.5726
▁발견되었다	-10.573
별	-10.5732
량이	-10.5739
▁상상	-10.574
마리	-10.574
▁공개됐다	-10.5741
▁즐	-10.5741
▁늘리	-10.5742
▁겨	-10.5747
▁예정이었다	-10.5756
▁치러지	-10.5761
▁화물	-10.5762
▁청사	-10.5763
▁전복	-10.5767
▁던지	-10.5768
▁아르	-10.5769
▁인근에서	-10.5772
▁함	-10.5773
▁촬영한	-10.5776
▁년만	-10.5777
▁학교에	-10.5778
▁해상	-10.578
ity	-10.5785
니는	-10.579
▁따르	-10.5791
치는	-10.5795
▁승객들	-10.5796
▁조건으로	-10.5798
▁모색	-10.5806
▁전부	-10.5811
▁바라는	-10.5813
▁일으키	-10.5816
▁대항	-10.5817
소를	-10.5819
▁카불	-10.582
▁후보인	-10.5826
군이	-10.5831
▁sc	-10.5834
▁문제와	-10.5835
▁메이	-10.5841
▁무고	-10.5846
▁받아들이	-10.585
▁권고	-10.5853
▁거절했다	-10.5854
▁te	-10.5854
▁자리에	-10.5854
▁전반적	-10.5864
시킨다	-10.5864
▁게재	-10.5866
▁명인	-10.5866
ist	-10.5869
▁빈곤	-10.587
▁잡아	-10.5871
타르	-10.5875
넷	-10.5876
▁방문하는	-10.5877
▁뮤지컬	-10.5881
▁윔블던	-10.5881
▁일으킬	-10.5881
▁퍼거슨	-10.5881
▁배터리	-10.5881
▁여겨지	-10.5881
▁프리미어리그	-10.5881
▁데이빗	-10.5881
▁노르웨이	-10.5881
▁유혈사태	-10.5881
▁브리핑	-10.5881
▁낙태	-10.5881
▁검증	-10.5881
▁상륙	-10.5882
▁빠질	-10.5882
▁외무성	-10.5882
▁생방송	-10.5883
▁오마르	-10.5883
▁로딕	-10.5884
▁실업률	-10.5885
▁서양	-10.5886
▁알렉스	-10.5887
▁백신	-10.5887
▁조항	-10.5887
▁드러냈다	-10.5887
▁american	-10.5888
▁이뤄진	-10.5888
▁음성	-10.5889
▁상호	-10.589
▁접전	-10.589
▁본토	-10.5891
곤	-10.5892
▁발행	-10.5893
▁번역	-10.5894
▁분량	-10.59
▁알렸다	-10.5906
▁지켜보	-10.5908
▁제리	-10.5909
▁정상화	-10.5911
▁싸	-10.5911
▁즐기	-10.5913
▁동일한	-10.5914
보호	-10.5915
▁요인	-10.5917
▁알지	-10.5917
▁환호	-10.5921
▁잡스	-10.5927
▁테러에	-10.5928
▁소득	-10.5928
▁유도	-10.5932
▁해서	-10.5933
▁포장	-10.5934
z	-10.5935
비용	-10.594
▁자택에서	-10.5946
▁일본인	-10.5953
사의	-10.5955
▁정권이	-10.5955
측이	-10.5957
▁go	-10.5957
▁후원	-10.5959
▁심의	-10.5959
▁생각하지	-10.597
금지	-10.5971
▁래	-10.5978
▁매달	-10.5983
▁투표에	-10.5983
▁국기	-10.5989
▁비행사	-10.5998
에게서	-10.6009
▁이민	-10.6013
▁포기하	-10.6018
▁지지한다	-10.6019
▁발표됐다	-10.6025
▁연안	-10.6026
▁실질적	-10.6039
▁지지자들이	-10.6049
육	-10.6054
▁얻고	-10.6056
▁동물들	-10.6069
푸	-10.6072
▁상원의원과	-10.6075
웅	-10.6077
▁회의에	-10.6079
▁오토바이	-10.6081
▁카트리나	-10.6081
▁파바로티	-10.6081
▁피라미드	-10.6081
▁느낄	-10.6081
▁징계	-10.6081
▁정거장	-10.6081
▁보이콧	-10.6081
▁라파엘	-10.6081
▁여섯	-10.6081
▁암컷	-10.6081
▁라이언	-10.6082
▁대표들	-10.6082
▁mbc	-10.6083
▁지원하는	-10.6083
▁오른쪽	-10.6085
▁상대방	-10.6086
▁통증	-10.6086
▁법원에서	-10.6087
▁모금	-10.6089
▁플레이어	-10.6089
▁돌파	-10.609
▁지대	-10.6091
▁멀리	-10.6092
▁빠지	-10.6092
ll	-10.6092
간에	-10.6096
▁부실	-10.6097
▁유산	-10.6097
▁사설	-10.61
차량	-10.6101
▁버리	-10.6102
▁산타	-10.6102
▁취해	-10.6104
혔다	-10.6104
세이	-10.6106
▁국가로	-10.6107
▁해병	-10.6111
▁않는다면	-10.6116
입어	-10.6116
▁플로리다주	-10.6119
▁쓸	-10.6122
▁감소했다	-10.6122
▁에어	-10.6123
총리	-10.6124
▁노리	-10.6126
으면서	-10.6134
▁앉아	-10.6134
▁소유하고	-10.6135
련	-10.614
▁레바논군	-10.6147
▁학생이	-10.6147
상의	-10.6149
▁처한	-10.6151
▁외치	-10.6155
▁입수	-10.616
▁참여할	-10.6161
▁실시했다	-10.6161
스럽게	-10.6162
▁전해지	-10.6162
데이	-10.6165
▁당국에	-10.6171
▁국민의	-10.6172
▁ra	-10.6173
▁약세	-10.6192
▁계기	-10.6196
오는	-10.6198
리스트	-10.6201
▁마을에서	-10.6205
▁몰고	-10.6211
▁상하이	-10.6218
▁코커스	-10.6218
▁무장대원	-10.622
▁남자들	-10.622
▁하면서	-10.6224
▁두번째	-10.623
기록	-10.6238
▁단체인	-10.6242
▁웨	-10.6243
▁제시했다	-10.6246
▁st	-10.6247
▁반영	-10.6248
ive	-10.6252
▁주위	-10.6255
▁알아	-10.6255
어로	-10.6258
측에	-10.626
▁살해했다	-10.6262
▁온도	-10.6267
쪽으로	-10.6269
▁잠재적	-10.627
▁state	-10.6274
▁감지	-10.6276
▁me	-10.6276
▁아름다	-10.6285
▁visit	-10.6285
▁관타나모	-10.6285
▁마돈나	-10.6285
▁객실	-10.6285
▁again	-10.6285
▁불가리아	-10.6285
▁imf	-10.6285
▁화합	-10.6286
▁비틀즈	-10.6286
▁fda	-10.6287
▁종료	-10.629
▁테러조직	-10.629
▁로스	-10.629
▁취한	-10.6291
사회	-10.6292
▁서식지	-10.6293
로스	-10.6294
▁차별	-10.6296
▁전국적으로	-10.6297
▁보급	-10.6298
▁재임	-10.6298
▁재직	-10.6299
▁내려졌다	-10.63
▁범인이	-10.63
▁개편	-10.63
▁도심	-10.63
▁탄소	-10.6301
헤	-10.6304
엄	-10.6304
벽	-10.6307
▁대학에서	-10.6308
기지	-10.631
ss	-10.631
됩니다	-10.631
▁불이	-10.6311
▁열렸다	-10.6312
▁리비	-10.6314
국이	-10.6326
▁다음주	-10.6326
▁원인이	-10.6331
▁광장	-10.6336
▁조지아	-10.634
▁모건	-10.6345
▁포함돼	-10.6351
▁방향으로	-10.6353
▁해소	-10.636
▁군인들이	-10.6366
었는지	-10.6366
네스	-10.6372
▁범	-10.6372
▁해주	-10.6372
▁미터	-10.6389
리에	-10.6391
본부	-10.6393
▁소식에	-10.6398
▁커지	-10.6399
▁le	-10.64
▁플라	-10.6403
▁최대의	-10.6411
▁제출한	-10.6417
▁화면	-10.642
▁중심가	-10.6422
▁프라이머리에서	-10.6443
ter	-10.6447
▁본다	-10.6452
대회	-10.6453
으려	-10.6455
▁이용한	-10.6458
▁개인적	-10.6459
▁악화되	-10.646
검사	-10.6461
속도로	-10.6465
이란	-10.6469
▁싱	-10.6469
▁부당	-10.6473
▁상승한	-10.6474
▁농장	-10.6481
▁콜로라도	-10.6483
▁청구	-10.6486
십	-10.6487
▁뉴욕주	-10.6487
▁부딪	-10.6493
▁경기침체	-10.6493
▁끔찍	-10.6493
▁먹는	-10.6493
▁아테네	-10.6493
▁히틀러	-10.6493
룸	-10.6493
▁중남미	-10.6493
▁자유무역협정	-10.6494
▁take	-10.6494
▁공룡	-10.6494
▁관람	-10.6494
▁벽돌	-10.6494
▁에이커	-10.6494
▁급증	-10.6494
▁탈락	-10.6495
▁탄광	-10.6495
▁자선단체	-10.6495
▁talks	-10.6495
▁거짓	-10.6496
▁금액	-10.6496
▁점검	-10.6496
▁nk	-10.65
▁야구	-10.6502
니까	-10.6502
▁자신감	-10.6503
▁이틀간	-10.6504
▁접수	-10.6504
정도	-10.6504
▁촉진	-10.6505
▁고급	-10.6505
▁실린	-10.6506
▁아마디	-10.6506
▁중요성	-10.6508
▁인형	-10.651
▁존경	-10.6513
▁우즈	-10.6513
▁한국은행	-10.6513
▁남용	-10.652
램	-10.6521
▁좋아하는	-10.6523
▁군함	-10.6523
▁노력이	-10.6525
▁겸	-10.6526
▁강세	-10.6528
▁세웠다	-10.653
▁포함하여	-10.653
▁dis	-10.653
지역에	-10.6531
▁여러분	-10.6532
▁지불하	-10.6535
▁라이브	-10.6536
▁유발	-10.6541
없는	-10.6545
주에서	-10.6552
▁유튜브	-10.6553
▁털	-10.6564
바이	-10.6565
▁각자	-10.657
▁손해	-10.6574
▁설	-10.658
▁대학생	-10.6581
평	-10.6588
▁남편이	-10.6589
▁약화	-10.6592
됐을	-10.6595
▁fir	-10.6598
▁당국자들	-10.6605
▁조사한	-10.6606
▁법안에	-10.6606
▁소비자들	-10.661
웨	-10.661
겠습니다	-10.6617
ry	-10.6618
▁국가들이	-10.6619
대가	-10.6626
▁기소된	-10.6633
▁포함됐다	-10.6635
▁맛	-10.6638
▁사용하고	-10.6641
▁로브	-10.6641
▁잃었	-10.6645
겼다	-10.6647
▁미니	-10.665
▁여기에	-10.6668
줬다	-10.6677
▁그래	-10.6677
▁직면	-10.668
다란	-10.6684
기자	-10.6688
▁건너	-10.6689
▁퇴임	-10.6689
잉	-10.6702
▁매춘	-10.6704
▁opec	-10.6706
▁seoul	-10.6706
▁루아얄	-10.6706
▁에넹	-10.6706
▁우주왕복선	-10.6706
▁울포위츠	-10.6706
▁지지선언	-10.6706
▁허커비	-10.6706
▁징후	-10.6706
▁시라크	-10.6706
▁벌써	-10.6706
▁본격적	-10.6707
▁농업	-10.6707
▁center	-10.6707
▁파나마	-10.6707
▁드러내	-10.6708
▁범위	-10.6708
▁술집	-10.6708
▁함유	-10.6708
▁떠날	-10.6708
▁막대한	-10.6709
▁사이클	-10.6709
▁디스크	-10.671
▁경사	-10.6711
▁매매	-10.6711
▁서류	-10.6712
▁통과시켰다	-10.6712
▁연계	-10.6713
▁소행성	-10.6713
▁형식	-10.6715
▁집권당	-10.6715
▁완	-10.6716
▁로저	-10.6716
▁위원	-10.6716
▁준수	-10.6717
▁국방성	-10.6718
▁민족	-10.6719
▁정계	-10.6721
▁연간	-10.6723
▁자동	-10.6726
▁승부	-10.6728
필	-10.673
장인	-10.6731
시오	-10.6731
▁곰	-10.6732
op	-10.6733
▁얼마전	-10.6733
▁내정	-10.6736
▁벌어졌다	-10.6736
▁매케인이	-10.6739
▁표면	-10.6743
vs	-10.6746
▁호소했다	-10.6747
▁있을지	-10.6752
▁중이	-10.6752
▁내려진	-10.6753
▁르	-10.6758
전에서	-10.6759
▁재미있	-10.676
업계	-10.6761
ap	-10.6769
장으로	-10.677
▁관여	-10.6771
▁있었습니다	-10.6771
▁나선	-10.6772
▁이어지	-10.6779
▁세로	-10.6785
버스	-10.6791
▁불에	-10.6798
린다	-10.6801
▁보조	-10.6803
▁여부에	-10.6804
▁고장	-10.681
▁승인했다	-10.6812
▁do	-10.6818
▁전역에서	-10.6818
▁포함된	-10.6823
▁타임	-10.6835
▁부족하다	-10.6838
▁기분	-10.6839
되자	-10.684
▁어렵	-10.6844
▁베를린	-10.6847
▁촉발	-10.6847
▁바스라	-10.6851
▁so	-10.6852
▁출산	-10.6854
▁바르	-10.6857
at	-10.686
▁항의하	-10.686
man	-10.6861
▁운동가들	-10.6862
▁건강이	-10.6863
▁도달	-10.6865
분께	-10.6866
▁향상	-10.6869
팅	-10.687
사와	-10.6871
▁대전	-10.6876
▁참가자들	-10.6877
어서	-10.6882
▁북부에	-10.6884
물이	-10.6886
▁제공한	-10.6888
시대	-10.6898
▁필요로	-10.6898
▁용의자로	-10.6899
▁되찾	-10.6901
▁열고	-10.6905
▁소탕	-10.6918
▁쓰레기	-10.6921
▁고이즈미	-10.6924
▁디자이너	-10.6924
▁베네딕	-10.6924
▁싶지	-10.6924
▁옮기	-10.6924
▁조승희	-10.6924
톨	-10.6924
▁쇠고기	-10.6924
▁포르노	-10.6924
▁교섭	-10.6924
▁저항세력	-10.6924
▁품목	-10.6924
▁경향	-10.6925
▁우울증	-10.6925
▁cdc	-10.6925
▁more	-10.6926
▁다룬	-10.6926
▁벗어	-10.6926
▁정착	-10.6926
▁계산	-10.6927
▁업체들	-10.6928
베르토	-10.6928
▁핵개발	-10.6929
▁신분	-10.6929
▁지역사회	-10.693
▁상담	-10.693
▁왕세자비	-10.6931
▁도살	-10.6931
▁외곽	-10.6931
▁몸에	-10.6932
▁소동	-10.6934
▁에릭	-10.6937
▁많아	-10.6937
▁통보	-10.6938
▁물체	-10.6939
▁취했다	-10.694
▁일이라고	-10.6948
▁만년	-10.6949
▁사체	-10.695
▁지위	-10.6954
▁bo	-10.6955
▁뿐이다	-10.6957
충	-10.6957
▁나토군	-10.6958
▁강전에서	-10.6959
팔	-10.696
회담	-10.6961
▁챔피언십	-10.6963
▁희망한다	-10.6965
▁서서	-10.6965
▁con	-10.6971
뉴스	-10.6971
▁결승전에서	-10.6972
▁대법원장	-10.6973
▁도시인	-10.6974
▁nation	-10.6974
▁지휘관	-10.6975
▁슬	-10.6976
▁멀	-10.6977
▁계속된	-10.6981
▁점거	-10.6982
학자	-10.6991
▁고려하고	-10.6993
▁적발	-10.6993
공사	-10.6993
▁지식	-10.6996
▁되며	-10.6998
▁유전	-10.6998
▁농민들	-10.7001
▁걸리	-10.7004
▁혼	-10.7005
▁진지	-10.7009
▁바위	-10.7011
▁스캔들	-10.7011
▁모르는	-10.7013
▁미국으로	-10.7021
▁돌려	-10.7022
▁탈레반측	-10.7024
▁합의에	-10.7025
브라	-10.7026
국장	-10.7028
▁복	-10.7036
진다	-10.7042
▁갖는	-10.7046
이션	-10.7048
▁하자	-10.7048
▁가족들과	-10.7051
▁회장이	-10.7051
러스	-10.7062
▁게리	-10.7062
▁맡	-10.7064
ft	-10.7067
▁흔	-10.7082
▁탑승객	-10.7082
▁윈	-10.7083
▁추구하	-10.7094
장에	-10.7095
▁저자	-10.7103
▁건강에	-10.7105
▁대통령직	-10.7105
▁모자	-10.7107
▁상영	-10.7108
▁무시	-10.7115
국으로	-10.7122
▁요원들	-10.7123
▁경매에	-10.7126
▁다루	-10.7126
▁들어간	-10.7128
▁뉴햄프셔	-10.7128
▁tr	-10.7129
닌	-10.7138
▁상자	-10.7139
▁브라이언	-10.7139
ke	-10.7143
▁공격했다	-10.7144
랭	-10.7146
▁노트북	-10.7146
▁뉴올리언스	-10.7146
▁두려움	-10.7146
▁심장마비	-10.7146
▁아닙니다	-10.7146
▁압바스	-10.7146
▁최첨단	-10.7146
▁톰슨	-10.7146
▁open	-10.7146
▁대서양	-10.7146
▁무너지	-10.7146
▁윈도우	-10.7146
▁온실가스	-10.7146
▁부사장	-10.7146
▁글로벌	-10.7146
▁이자율	-10.7146
▁멈추	-10.7146
혈	-10.7147
▁우간다	-10.7147
▁정보부	-10.7147
▁연례	-10.7147
▁가짜	-10.7147
▁붙여	-10.7148
▁파월	-10.7149
▁타밀	-10.7149
▁풍부	-10.7149
▁고유가	-10.7149
▁갈등	-10.715
▁조사할	-10.715
▁비서실장	-10.715
▁관측	-10.715
▁오프라	-10.7151
▁사용자들	-10.7151
▁개막	-10.7152
▁구름	-10.7153
▁열심	-10.7155
▁받아왔다	-10.7155
▁휴대	-10.7155
▁발급	-10.7156
▁미첼	-10.7156
▁경비대	-10.7157
▁무슨	-10.7157
▁발발	-10.7158
▁테러단체	-10.7158
▁by	-10.7159
▁기증	-10.7159
▁독일인	-10.716
▁문구	-10.716
▁선임	-10.7161
▁파리에서	-10.7165
▁스파이	-10.7166
리고	-10.7167
▁남측	-10.7172
▁신화	-10.7173
▁my	-10.7173
▁참석하지	-10.7174
달러	-10.7177
▁프	-10.7178
▁보건부	-10.718
끼	-10.718
짐	-10.7185
▁부분이	-10.7187
쓰	-10.7188
▁되었	-10.719
▁확산되고	-10.7193
▁완료	-10.7199
▁time	-10.72
▁기상청	-10.72
했었	-10.72
est	-10.7205
▁러드	-10.7207
▁가중	-10.7217
▁크레	-10.722
▁se	-10.7221
▁학교에서	-10.7222
▁은행들	-10.7225
▁시인	-10.7226
▁의상	-10.7227
▁점수	-10.7229
▁반대로	-10.723
▁착용	-10.7232
▁has	-10.7234
시위	-10.7236
▁정치인들	-10.7239
▁작업이	-10.7242
▁달러가	-10.7254
▁제작사	-10.726
▁당해	-10.7263
▁증상	-10.7267
▁결정적인	-10.727
ice	-10.7273
스런	-10.7275
▁행위에	-10.7275
▁해적들	-10.728
▁테리	-10.7284
렉	-10.729
▁등장	-10.7297
▁국제공항	-10.7297
원들이	-10.7299
▁보도에	-10.7303
▁사진이	-10.7313
▁입지	-10.7316
가격	-10.7316
▁정리	-10.7319
▁불어	-10.7325
▁십	-10.7328
디아	-10.7328
▁언론과	-10.7336
▁명백	-10.7337
▁동성애	-10.7338
혼	-10.7339
념	-10.7339
▁부지	-10.7341
▁반복	-10.7342
▁au	-10.7344
▁반지	-10.7349
▁마이	-10.7349
▁대대적	-10.7353
갔	-10.7359
▁남부에	-10.7362
스티	-10.7363
▁종이	-10.7368
▁출입	-10.737
▁햄	-10.737
▁에베레스트	-10.7371
▁troop	-10.7373
▁그렇다	-10.7373
▁로드리게스	-10.7373
▁이브라힘	-10.7373
▁찾지	-10.7373
▁펼친	-10.7373
▁도요타	-10.7373
▁믿을	-10.7373
▁브래드	-10.7373
▁허드슨	-10.7373
▁빼앗	-10.7373
▁플루토늄	-10.7373
▁해수면	-10.7373
▁아마디네자드	-10.7373
▁인터폴	-10.7373
▁남아프리카	-10.7373
▁빅토리아	-10.7373
▁야생동물	-10.7373
▁터널	-10.7374
▁의약품	-10.7374
▁남학생	-10.7374
▁금융위기	-10.7374
▁무덤	-10.7374
▁평화유지군	-10.7375
▁들어갈	-10.7377
▁이루어진	-10.7377
▁예약	-10.7378
▁단행	-10.7378
▁완성	-10.7379
▁채취	-10.7379
▁밀려	-10.738
▁유통	-10.7381
▁고위급	-10.7383
▁구류	-10.7384
▁베리	-10.7384
▁양쪽	-10.7385
▁포터	-10.7385
▁주에	-10.7387
▁배제	-10.7389
▁파키스탄군	-10.7391
▁적합한	-10.7393
▁군사력	-10.7393
▁입법	-10.7394
▁양보	-10.7395
ga	-10.7395
▁house	-10.7397
▁빠졌다	-10.7398
▁임대	-10.7398
▁준비하고	-10.7399
▁서안	-10.7399
▁해체	-10.74
▁경쟁력	-10.7405
▁회수	-10.7406
로우	-10.7407
셀	-10.7408
▁체포됐	-10.7408
폰	-10.7411
▁선거법	-10.7411
▁주연	-10.7411
▁남성들	-10.7412
폐	-10.7414
▁경로	-10.7414
빙	-10.7415
roh	-10.7415
▁선수로	-10.7419
값	-10.742
▁반전	-10.742
시스템	-10.7422
▁벌여	-10.7425
▁코치	-10.7428
▁미래에	-10.7428
▁나타내는	-10.7431
▁따뜻	-10.7435
▁향한	-10.7439
ve	-10.7445
▁ai	-10.7445
▁공무원	-10.7446
▁직접적	-10.7447
▁턱	-10.7448
▁사면	-10.745
▁쪽	-10.7453
▁군이	-10.7454
▁너무나	-10.7454
▁센	-10.7455
▁보인	-10.7458
해달라	-10.7471
▁법정에서	-10.7477
▁논	-10.748
▁시인했다	-10.7486
▁넘기	-10.7491
▁트	-10.7493
▁정기적	-10.7494
▁살았	-10.7498
▁위험성	-10.7507
▁연구에서	-10.7507
▁all	-10.7509
리그	-10.7513
▁궤도	-10.7515
▁관객들	-10.7515
end	-10.7516
▁변호	-10.7523
▁제이	-10.7523
▁맞고	-10.753
▁회전	-10.7536
▁목격했다	-10.7539
▁연대	-10.7542
am	-10.7543
▁뿐이라	-10.7546
겼	-10.7548
혔	-10.7549
▁러	-10.7557
▁클	-10.7558
▁국가에	-10.7564
▁의존	-10.7576
▁파키스탄에서	-10.7583
▁은행에	-10.7583
▁맞이	-10.7584
▁좌절	-10.7586
퇴	-10.7587
▁폴리	-10.7593
코프	-10.7601
▁뉴욕시	-10.7603
▁스타벅스	-10.7606
▁washington	-10.7606
▁york	-10.7606
▁나눴다	-10.7606
▁느낌	-10.7606
▁망원경	-10.7606
▁성추행	-10.7606
▁아라비아	-10.7606
▁자르다리	-10.7606
▁최우선	-10.7606
▁토크쇼	-10.7606
▁확률	-10.7606
▁무승부	-10.7606
▁수류탄	-10.7606
▁시나리오	-10.7606
▁삭감	-10.7606
▁맥캔	-10.7606
▁에드워드	-10.7606
▁intern	-10.7606
▁활발	-10.7607
▁남자아이	-10.7607
▁긴밀	-10.7607
▁하원의장	-10.7607
▁교외	-10.7607
▁머레이	-10.7607
▁물고기	-10.7608
▁외환	-10.7608
▁추격	-10.7608
▁체류	-10.7608
▁송금	-10.7609
▁실현	-10.7609
bush	-10.7614
▁포스트	-10.7614
▁상금	-10.7618
▁간주	-10.7618
▁해저	-10.7621
▁우세	-10.7624
▁낮아	-10.7626
▁상업	-10.7626
▁당부했다	-10.7627
▁저질렀다	-10.7629
▁사라졌다	-10.7631
▁착수했다	-10.7631
▁묻는	-10.7635
▁맡았다	-10.7635
▁총통	-10.7637
▁증	-10.764
▁인터넷에	-10.764
▁이득	-10.764
▁상세	-10.764
널리	-10.7642
▁해당하	-10.7645
▁의견이	-10.7646
▁기본적	-10.7652
▁차질	-10.7653
▁목록	-10.7656
칸	-10.7657
규모	-10.7657
덕	-10.7658
▁신도들	-10.7671
▁생각해	-10.7673
▁개인적으로	-10.7674
▁위하여	-10.7675
▁화가	-10.7676
▁중심지	-10.7681
▁기적	-10.7682
▁촉구하	-10.7683
▁달한다	-10.7684
사업	-10.7685
▁부검	-10.7694
▁수행할	-10.7694
▁주최	-10.7699
▁다르	-10.7709
▁제공했다	-10.7711
▁one	-10.7715
리안	-10.7716
▁새롭	-10.7717
▁일어나는	-10.7718
▁하에	-10.7719
과정	-10.7721
▁행동에	-10.7724
▁차례의	-10.7726
▁압수	-10.7726
ut	-10.7727
▁힘들다	-10.7736
▁성공한	-10.7738
▁사실에	-10.7739
▁탈레반이	-10.7748
관련	-10.7748
▁분야에서	-10.7751
▁이름으로	-10.7751
▁칭	-10.7753
▁게릴라	-10.7756
버리	-10.7757
▁멤버	-10.776
▁방문해	-10.776
▁브로	-10.7761
▁출연했다	-10.7761
▁크다	-10.7762
않게	-10.7766
▁장관과	-10.7766
▁강진이	-10.7774
객	-10.7774
▁가방	-10.7775
▁테러리스트들	-10.7777
▁몰려	-10.7779
▁방콕	-10.778
키로	-10.7781
▁검문소	-10.7788
▁제시한	-10.779
스케	-10.7801
소리	-10.7802
▁명성	-10.7802
▁등에	-10.7805
▁출생	-10.7806
▁남아있는	-10.7809
▁패스	-10.781
어스	-10.7811
▁물러나	-10.7811
▁이후에	-10.7817
▁옹호	-10.7824
▁성당	-10.7824
▁진전이	-10.7827
▁암시	-10.7833
▁블루	-10.7833
▁모른다고	-10.7836
상으로	-10.7837
징	-10.7839
훈	-10.7843
행사	-10.7844
▁갤런	-10.7844
▁높게	-10.7844
▁뉴델리	-10.7844
▁똑같	-10.7844
▁메드베데프	-10.7844
▁서브프라임	-10.7844
▁아웅산수치	-10.7844
▁유죄판결	-10.7844
▁세속주의	-10.7844
▁스크린	-10.7844
▁출구조사	-10.7844
▁국립공원	-10.7844
▁포셋	-10.7845
▁권총	-10.7845
▁연패	-10.7845
▁say	-10.7845
▁증강	-10.7845
▁중앙은행	-10.7846
▁단독	-10.7846
▁vi	-10.7846
▁카를로스	-10.7846
▁연구결과	-10.7847
▁복원	-10.7848
둘	-10.7848
▁연행	-10.7848
▁환율	-10.7848
▁연출	-10.7848
▁인권단체	-10.7851
▁여러번	-10.7851
▁정기	-10.7854
▁부처	-10.7855
▁사용된	-10.7856
▁부품	-10.7856
▁aig	-10.7857
▁뛰	-10.7857
▁수색작업	-10.7858
▁유인	-10.7858
▁활성화	-10.7859
▁수면	-10.7861
▁고조되	-10.7863
▁매력	-10.7864
▁카리	-10.7865
▁재활용	-10.7866
▁its	-10.7866
▁th	-10.7867
▁체포되었다	-10.787
▁날아	-10.7871
자르	-10.7873
▁안내	-10.7874
▁미성년자	-10.7874
▁루니	-10.7875
▁도구	-10.7877
▁건물에	-10.788
▁도디	-10.788
기술	-10.7884
▁가난한	-10.7884
▁공정한	-10.7888
▁말이	-10.7888
▁종교적	-10.7889
▁남아있다	-10.7891
▁대리인	-10.7896
▁맡았	-10.7896
▁업적	-10.7897
▁두려워	-10.7899
▁간에	-10.7899
짓	-10.7901
▁미리	-10.7902
않	-10.7902
콜	-10.7903
▁웨인	-10.7904
폴	-10.7905
치고	-10.7906
▁선고했다	-10.7907
화된	-10.7907
ara	-10.7908
감독	-10.7909
▁v	-10.7913
▁영국과	-10.7918
버렸다	-10.792
▁상당수	-10.7925
▁딘	-10.7926
tor	-10.7934
▁토대	-10.7938
▁안으로	-10.7938
▁주권	-10.7943
▁시사	-10.7948
▁기분이	-10.795
▁방송에	-10.795
▁위원장이	-10.7952
▁표준	-10.7952
▁도착할	-10.7954
▁홍	-10.7955
내용	-10.7956
▁기아	-10.7957
▁이슈	-10.7959
▁열었다	-10.7959
업자들	-10.7959
▁막아	-10.796
▁신장	-10.7967
▁결심	-10.7969
▁궁	-10.7972
결과	-10.7978
▁출두	-10.7986
▁응답	-10.7989
▁자라	-10.7996
▁판결이	-10.8005
▁떨어졌	-10.8008
▁지구에	-10.8013
▁출신으로	-10.8018
▁사무	-10.8021
▁석방됐다	-10.8022
▁예정이었	-10.8027
▁재정적	-10.8039
▁수여	-10.8045
▁기각	-10.805
ick	-10.8053
▁받아들여	-10.8059
▁제작자	-10.8063
▁바뀌	-10.8064
났다	-10.8066
옥	-10.8077
▁소년이	-10.8081
넨	-10.8082
▁사과했다	-10.8086
▁국가비상사태	-10.8087
▁상관	-10.8087
▁fifa	-10.8088
▁ibm	-10.8088
▁먹고	-10.8088
▁선거관리위원회	-10.8088
▁앞섰다	-10.8088
▁하이브리드	-10.8088
▁주유소	-10.8088
▁자전거	-10.8088
▁섹시	-10.8088
▁윈프리	-10.8088
▁티벳	-10.8088
▁최루탄	-10.8088
▁교착	-10.8088
▁켈리	-10.8088
▁부양책	-10.8088
▁좌석	-10.8088
▁바꿀	-10.8088
▁bda	-10.8089
▁급습	-10.8089
▁이뤄질	-10.809
▁돌아갈	-10.809
▁설계	-10.809
▁앨런	-10.809
▁mdc	-10.809
▁독감	-10.809
▁추모	-10.8091
▁데리고	-10.8092
▁재배치	-10.8093
▁통행	-10.8095
쪽	-10.8095
▁줄이기	-10.8096
▁심판	-10.8097
▁휴일	-10.8098
▁개체수	-10.8099
▁보증	-10.8099
▁던진	-10.8099
▁윌슨	-10.8101
▁출장	-10.8101
▁서브	-10.8102
▁피난	-10.8104
▁해석	-10.8105
▁전형적	-10.8106
▁인터	-10.811
▁여파	-10.8113
▁도난	-10.8115
▁탈북자	-10.8116
▁발견됐	-10.8117
▁셰	-10.8119
▁않았습니다	-10.812
작업	-10.8121
▁꽃	-10.8122
▁아미	-10.8127
윈	-10.8129
▁골드	-10.8132
▁산하	-10.8134
▁아프	-10.8136
▁공개하지	-10.8138
▁얻게	-10.8142
▁드레스	-10.8143
▁전격	-10.8143
▁ho	-10.8143
닉	-10.8143
▁국회에서	-10.8146
확실한	-10.8147
▁권고했다	-10.8148
롱	-10.8148
▁활동에	-10.8149
▁명백한	-10.815
▁외국인들	-10.8151
▁원장	-10.8151
콘	-10.8152
곡	-10.8153
벤	-10.8155
▁외상	-10.8158
▁사라지	-10.8158
▁win	-10.8161
ha	-10.8162
▁공주	-10.8163
▁메리	-10.8166
▁피하기	-10.817
수술	-10.8171
▁였다	-10.8171
▁cd	-10.8171
▁김치	-10.8172
▁축	-10.8173
▁관객	-10.8184
▁분석했다	-10.8191
▁떠난	-10.8193
▁양자	-10.8193
▁war	-10.8194
▁수감된	-10.8195
▁거리에서	-10.8196
▁그랜드	-10.8203
교육	-10.8203
▁이라크내	-10.8205
▁판매량	-10.8206
▁지역인	-10.8208
▁준다	-10.8209
▁방법에	-10.8214
나무	-10.8223
▁사안	-10.8223
▁ro	-10.8228
에르	-10.8229
▁발견되지	-10.8233
▁공격한	-10.8246
▁출신인	-10.8248
▁거부한	-10.8248
데스	-10.8251
▁차지하는	-10.8256
▁초에	-10.8269
▁테러범들	-10.8276
▁점이	-10.828
▁것들	-10.828
▁모두에게	-10.8284
▁조언	-10.8289
▁서쪽	-10.8295
▁군과	-10.83
▁동영상에서	-10.8304
te	-10.8304
▁가리	-10.8305
▁모아	-10.8311
▁am	-10.8314
▁현상이	-10.8316
▁고안	-10.8318
▁이씨	-10.8321
▁담고	-10.8321
▁네바다	-10.8329
▁의원들이	-10.8334
룰	-10.8334
콤	-10.8337
▁데이비스	-10.8337
냉	-10.8338
▁military	-10.8338
▁맨해튼	-10.8338
▁무렵	-10.8338
▁바티칸	-10.8338
▁스탈린	-10.8338
▁유람선	-10.8338
▁호나우두	-10.8338
▁국제우주정거장	-10.8338
▁깨끗	-10.8338
▁아기들	-10.8338
▁퇴진	-10.8338
▁국무총리	-10.8338
▁언덕	-10.8338
▁행렬	-10.8338
▁요즘	-10.8338
▁시티그룹	-10.8338
▁아스날	-10.8338
▁왜곡	-10.8338
▁유괴	-10.8339
▁국민투표	-10.8339
▁보조금	-10.8339
▁열리	-10.8339
▁동참	-10.8339
▁자발적	-10.834
▁절약	-10.834
▁존스턴	-10.834
▁자동차업계	-10.834
▁연승	-10.8341
▁창설	-10.8341
▁불안정	-10.8342
대사	-10.8342
▁역임	-10.8342
▁가끔	-10.8342
▁개성	-10.8343
▁모집	-10.8344
▁연방정부	-10.8344
▁행동이	-10.8345
▁혼자	-10.8349
▁만능	-10.835
▁피랍된	-10.8352
▁시골	-10.8353
▁합의문	-10.8353
▁상병	-10.8353
▁도청	-10.8355
▁수컷	-10.8355
▁부속	-10.8355
됐는지	-10.8356
▁위생	-10.8356
분야	-10.8356
▁지원금	-10.8357
▁제치	-10.8361
▁후임	-10.8362
▁준장	-10.8362
▁눈물	-10.8367
▁화장	-10.8367
▁지나가	-10.8371
land	-10.8373
▁퀸	-10.8373
▁젊은이들	-10.8374
▁유물	-10.8378
▁유럽과	-10.838
▁발매	-10.8382
국의	-10.8383
▁출전하지	-10.8385
▁편의	-10.8387
▁경주	-10.839
▁po	-10.839
황	-10.8391
▁매수	-10.8394
▁조선	-10.8397
▁불가능하다	-10.8398
▁섭취	-10.8401
라데	-10.8402
▁공개한	-10.8403
▁돌아와	-10.8403
▁칼리	-10.8404
좌	-10.8405
동맹	-10.8407
▁pro	-10.8407
▁아프간에	-10.8412
▁병력이	-10.8421
▁전용	-10.8422
▁호주에서	-10.8425
노조	-10.843
라면	-10.8435
▁단장	-10.8436
hi	-10.8439
쟁	-10.8439
▁취하고	-10.8439
▁포트	-10.844
▁충	-10.8442
▁학생들에게	-10.8447
보기	-10.8449
▁본드	-10.8449
▁영화에서	-10.8452
카르	-10.8458
▁변화에	-10.8464
▁유해	-10.8465
▁내지	-10.8474
▁회사에	-10.8486
▁갔	-10.8496
▁인정하지	-10.8498
▁별도	-10.8502
▁판다	-10.8504
위원	-10.8508
무라	-10.851
▁참가한	-10.8511
웠	-10.852
병원	-10.8531
▁이적	-10.8532
▁지방에서	-10.8534
이라면	-10.8557
▁의제	-10.8561
▁남겨	-10.8568
▁미라	-10.8584
▁뉴저지	-10.8584
▁밴	-10.8586
▁용납	-10.8586
▁민주당이	-10.859
흘	-10.859
▁방송에서	-10.8591
렐	-10.8591
two	-10.8593
▁광부	-10.8593
▁people	-10.8594
▁가즈프롬	-10.8594
▁내무장관	-10.8594
▁디트로이트	-10.8594
▁럼스펠드	-10.8594
▁마이스페이스	-10.8594
▁믿는다	-10.8594
▁박격포	-10.8594
▁억만장자	-10.8594
▁음주운전	-10.8594
▁인명피해	-10.8594
▁저렴	-10.8594
▁창기라이	-10.8594
▁apec	-10.8594
▁러닝메이트	-10.8594
▁후지모리	-10.8594
▁라호르	-10.8594
▁피츠버그	-10.8594
▁코카인	-10.8594
▁가져올	-10.8594
▁알제리	-10.8594
▁국방위원장	-10.8595
▁아빠	-10.8595
▁미셸	-10.8595
▁돌아올	-10.8595
▁워렌	-10.8595
▁산맥	-10.8596
▁참배	-10.8596
▁서식하	-10.8596
▁lg	-10.8596
▁굿	-10.8597
▁클라크	-10.8597
▁치매	-10.8598
▁발령	-10.8599
▁매입	-10.86
▁로켓포	-10.86
▁부결	-10.8601
▁전쟁이	-10.8602
▁의심되는	-10.8602
▁파커	-10.8602
▁회계	-10.8603
▁시민권	-10.8603
▁구조작업	-10.8611
▁약탈	-10.8617
▁걸렸다	-10.8617
▁던졌다	-10.862
▁분경	-10.8621
▁이스라엘에	-10.8623
▁해방	-10.8624
▁돌아왔다	-10.8626
▁않습니다	-10.8627
▁호텔에	-10.8627
▁투표율	-10.8629
▁전사	-10.8633
▁납치한	-10.8634
▁sp	-10.8636
▁업무를	-10.8639
▁실패한	-10.8641
▁당일	-10.8642
▁진행될	-10.8642
▁하비	-10.8644
▁한달	-10.8648
뉴	-10.8649
▁인치	-10.8649
▁덜	-10.865
▁불과하다	-10.8652
▁강간	-10.8655
▁진행중	-10.8655
느	-10.8656
▁클린턴과	-10.8657
▁평화상	-10.8657
▁아는	-10.8657
▁해안에	-10.8662
▁재고	-10.8664
균	-10.8664
▁민간인들	-10.8665
▁자치	-10.8667
홀	-10.8673
▁빌리	-10.8673
▁di	-10.8681
▁have	-10.8683
▁출	-10.8683
조약	-10.8684
▁것이기	-10.8688
▁나치	-10.8688
▁휘	-10.8691
ns	-10.8692
▁롤	-10.8697
▁부리	-10.8698
스크	-10.8698
▁시작됐	-10.87
▁북부에서	-10.8701
▁느	-10.8705
▁간부	-10.8711
▁맞은	-10.8719
▁유기	-10.8721
▁찾아내	-10.8722
▁파크	-10.8723
▁인공	-10.8726
▁틀	-10.8727
▁세운	-10.8729
식이	-10.8732
▁교도소에서	-10.8734
▁수락	-10.8735
▁계속할	-10.8742
▁연말	-10.8745
▁가르	-10.8747
지원	-10.8748
담당	-10.8751
▁피랍	-10.8753
▁비극	-10.8757
ent	-10.8758
sa	-10.8763
▁프랑스에서	-10.8766
▁벌어지	-10.8767
▁부상자들	-10.877
▁상사	-10.8771
▁웨이	-10.8773
용으로	-10.8775
하러	-10.8775
▁이슬라마바드	-10.8781
어질	-10.8786
▁시간에	-10.8787
▁수사에	-10.879
▁보좌관들	-10.8796
▁군중들	-10.8809
스테	-10.8811
더스	-10.8812
▁베어	-10.8813
▁이들에게	-10.8826
mb	-10.8829
▁가즈니	-10.8836
▁에티오피아	-10.8837
소한	-10.8843
제품	-10.8844
▁아시아에서	-10.8845
▁때문이라	-10.8846
핑	-10.8847
▁위치해	-10.8847
▁중점	-10.8849
ff	-10.8851
▁잇따	-10.8853
냥	-10.8853
둥	-10.8854
▁high	-10.8857
▁금메달	-10.8857
▁associat	-10.8857
▁엘리베이터	-10.8857
▁최고경영자	-10.8857
껏	-10.8857
넌	-10.8857
▁북극곰	-10.8857
▁secretary	-10.8857
▁라모스	-10.8857
▁남아프리카공화국	-10.8857
▁돌아다니	-10.8857
▁넬슨	-10.8857
▁떠오르	-10.8858
▁재배	-10.8858
▁포획	-10.8858
▁석방된	-10.8859
▁결합	-10.8859
▁설정	-10.886
▁배심원단	-10.8861
▁처형	-10.8861
▁진료	-10.8861
▁마찰	-10.8862
▁대테러	-10.8862
▁실무	-10.8862
▁파편	-10.8863
▁밀러	-10.8865
▁펄	-10.8865
▁포경선	-10.8865
▁예선	-10.8868
▁다가오	-10.8869
▁난민들	-10.8869
▁던져	-10.8869
▁환수	-10.887
ting	-10.8871
▁사이버	-10.8872
▁반등	-10.8873
▁미셀	-10.8874
자리	-10.8874
na	-10.8875
돼있다	-10.8876
▁배포	-10.8876
▁소유주	-10.8878
▁사회당	-10.888
▁거친	-10.888
▁사살했다	-10.8883
▁사라진	-10.8883
▁찾았다	-10.8885
▁넣었다	-10.8886
▁쉬운	-10.8886
▁맞았다	-10.8893
안토니오	-10.8896
▁먼지	-10.8899
▁그곳에서	-10.89
▁전체가	-10.89
▁대비해	-10.8906
▁기원	-10.8907
원인	-10.8907
▁캔	-10.8909
▁전파	-10.891
▁여단	-10.8913
률이	-10.8916
▁로드	-10.8921
ho	-10.8928
궁	-10.8929
▁성분	-10.8938
▁써	-10.8939
칼	-10.8944
▁열기	-10.895
스카	-10.895
신문	-10.8953
▁독재자	-10.8959
인데	-10.8959
▁확인하기	-10.8962
▁것일	-10.8962
▁한명	-10.8964
▁제공하기	-10.8965
▁수년	-10.8969
▁선택했다	-10.897
▁정부군과	-10.8975
▁대선에	-10.8977
▁기울	-10.8983
▁월스트리트	-10.8984
▁해왔다	-10.8989
▁전시회	-10.8989
자료	-10.8989
pr	-10.8991
▁표시했다	-10.8993
▁걸려	-10.8995
▁부위	-10.8996
▁폭로	-10.9001
▁남쪽	-10.9001
▁대원들	-10.9002
시장에서	-10.9007
돼있	-10.901
▁보유한	-10.9017
▁약속한	-10.9021
▁이른	-10.9022
▁유지할	-10.9022
▁모리	-10.9023
▁일시적	-10.9023
▁축출	-10.9025
▁바지	-10.9028
▁렌	-10.9034
▁과격	-10.9035
▁목적이	-10.9038
▁받으	-10.9051
ah	-10.9056
▁서한	-10.9058
▁회원들	-10.9061
점으로	-10.9067
룬	-10.9069
▁장소에서	-10.9072
▁차지한	-10.9077
▁당황	-10.9079
▁만났	-10.9079
▁그들에게	-10.9081
▁즐기는	-10.9081
▁년형	-10.9081
▁수요일에	-10.9089
▁장교	-10.9091
하겠	-10.9092
버트	-10.9097
▁활동이	-10.9097
스탄	-10.9099
▁처음에	-10.9103
▁소유한	-10.9108
▁일단	-10.9109
▁코스	-10.911
탁	-10.9112
▁치를	-10.9114
▁벗	-10.9116
▁중상	-10.9116
li	-10.9117
▁풀어	-10.912
▁오스카	-10.9125
▁휩쓸	-10.9125
▁투명	-10.9126
보드	-10.9127
▁human	-10.9128
▁굉장	-10.9128
▁브루니	-10.9128
▁시애틀	-10.9128
▁엉덩이	-10.9128
▁해수욕장	-10.9128
▁그린피스	-10.9128
▁크레이그	-10.9128
▁바하마	-10.9128
▁애완동물	-10.9128
▁흘러	-10.9128
▁대한민국	-10.9128
▁카지노	-10.9128
▁고등법원	-10.9128
▁브레이크	-10.9128
▁면접	-10.9128
▁스콧	-10.9128
▁무소속	-10.9128
▁풍	-10.9128
▁동굴	-10.9128
▁밝혀냈다	-10.9128
▁슈퍼볼	-10.9128
▁오늘밤	-10.9129
▁사진들	-10.9129
▁낭비	-10.9129
▁불황	-10.913
▁좌파	-10.913
▁장벽	-10.913
▁추천	-10.913
▁소총	-10.9131
▁텐트	-10.9131
▁절감	-10.9131
▁돌아온	-10.9131
▁정밀	-10.9131
▁외쳤다	-10.9132
▁소비자들이	-10.9132
▁생명체	-10.9132
▁승점	-10.9132
▁유골	-10.9132
▁교내	-10.9133
▁치른	-10.9133
▁금속	-10.9133
▁창조	-10.9133
▁다행히	-10.9134
▁반환	-10.9134
▁보수당	-10.9135
▁할지	-10.9136
▁위협에	-10.9136
▁휴식	-10.9137
▁매출	-10.9137
▁병사들이	-10.9137
▁네바다주	-10.9137
▁기념식	-10.9138
▁위축	-10.9138
▁클린턴에	-10.9139
▁인도분	-10.914
▁느낀다	-10.914
▁단식	-10.9142
bc	-10.9142
▁헐	-10.9145
▁김씨	-10.9146
▁밀어	-10.9147
▁아민	-10.9148
학생	-10.9148
▁알라	-10.915
▁남미	-10.9151
▁제보	-10.9153
▁분야에	-10.9153
▁무산	-10.9153
▁화제	-10.9155
▁공안	-10.9157
▁소화	-10.9157
▁케이시	-10.916
▁구단	-10.9163
▁받아들이지	-10.9165
▁출연해	-10.9166
▁나체	-10.9166
▁경찰청	-10.9167
▁버지니아주	-10.9168
▁근처에	-10.9172
▁남쪽으로	-10.9173
시티	-10.918
▁좋아한다	-10.9183
▁장성	-10.9185
▁번지	-10.9185
▁통해서	-10.9186
▁지지자들에게	-10.919
▁이어졌다	-10.9191
▁원치	-10.9193
칭	-10.9197
연구	-10.9202
성에	-10.9202
안전	-10.9204
▁거래됐다	-10.9204
ci	-10.9209
▁피어	-10.9211
▁컵	-10.9212
멜	-10.9215
▁살아남	-10.9216
납	-10.9217
▁과제	-10.9217
척	-10.9218
▁입어	-10.9222
▁유지하	-10.9222
캐	-10.9223
앤	-10.9223
김	-10.9224
타운	-10.9226
▁전하고	-10.923
때까지	-10.923
▁국경지역	-10.9234
me	-10.9236
▁강타한	-10.924
▁위장	-10.924
▁제일	-10.9242
▁복장	-10.9243
▁언급한	-10.9243
tu	-10.9247
▁러시아와	-10.9254
▁입수한	-10.9257
▁위안	-10.9257
되었는데	-10.926
▁탄도	-10.9261
▁참여했다	-10.9263
▁명단에	-10.9266
▁내리는	-10.9266
▁재해	-10.927
타임	-10.9272
im	-10.9273
▁폭력사태로	-10.9282
▁최고위	-10.9283
▁성명서	-10.9284
▁신원이	-10.929
▁시일	-10.9294
▁결정이	-10.9301
▁이라크인	-10.9302
▁방문에	-10.9302
▁법적으로	-10.9302
군의	-10.9302
▁인정받	-10.9303
▁대안	-10.931
▁세트에서	-10.9312
▁시청자들	-10.9319
▁리오	-10.9323
▁목요일에	-10.9325
▁상원에서	-10.9325
▁종식	-10.9326
▁조국	-10.9333
ig	-10.9335
▁친환경	-10.9338
ance	-10.9339
▁쳐	-10.934
▁자녀들	-10.9342
▁취소했다	-10.9347
▁압	-10.9357
마르	-10.9358
▁발이	-10.9359
▁안나	-10.9362
fi	-10.9363
▁밝히기	-10.9367
벨트	-10.9385
▁피고인	-10.9386
▁이민자들	-10.9387
까요	-10.9388
▁전쟁에서	-10.9388
▁편집	-10.9394
▁못하다	-10.9395
tri	-10.9395
호가	-10.9398
tv	-10.9398
사고	-10.9399
▁재선	-10.94
as	-10.9402
▁얻었	-10.9403
▁england	-10.9405
▁기준금리	-10.9405
▁듣지	-10.9405
▁머리카락	-10.9405
▁버냉키	-10.9405
▁슬픔	-10.9405
▁원자바오	-10.9405
▁크로아티아	-10.9405
▁텔레비전	-10.9405
▁트라볼타	-10.9405
▁헬리콥터	-10.9405
▁호날두	-10.9405
▁유수프	-10.9405
▁감바	-10.9405
▁규칙	-10.9405
▁침묵	-10.9405
▁스튜디오	-10.9405
▁바바라	-10.9405
▁휴스턴	-10.9406
▁election	-10.9406
▁멸종위기	-10.9406
▁원주민	-10.9406
▁신용카드	-10.9406
▁놀랄	-10.9406
▁처방	-10.9406
▁숨겨	-10.9406
▁모험	-10.9407
▁대선주자	-10.9407
▁논문	-10.9407
▁요르단강	-10.9407
▁남녀	-10.9408
▁레이저	-10.9408
▁반체제	-10.9408
축구연맹	-10.9408
▁도핑	-10.9408
▁구호품	-10.9409
▁알려	-10.9409
▁금융시장	-10.9411
▁탐사선	-10.9413
▁역대	-10.9416
▁대기업	-10.9416
▁입력	-10.9417
▁일어나지	-10.9419
▁가택	-10.942
▁코피	-10.942
▁헬	-10.9422
▁지나치	-10.9423
▁졸업	-10.9423
▁느끼는	-10.9427
하에	-10.9427
업체들	-10.9429
▁개발한	-10.9429
▁시카고에서	-10.9429
▁첫날	-10.943
▁끝났다	-10.9431
▁폴슨	-10.9431
▁우승자	-10.9432
▁라울	-10.9437
▁경비원	-10.9438
▁조씨	-10.9438
▁복지	-10.9439
▁이르기	-10.9439
▁여기서	-10.9445
▁작용	-10.9445
▁계속하고	-10.9446
▁세가	-10.9447
▁장기적	-10.9452
▁중단됐다	-10.9453
▁유명하다	-10.9453
▁개설	-10.9453
▁카르	-10.9454
장비	-10.9454
▁약품	-10.9455
▁선원들	-10.946
ld	-10.9461
ant	-10.9463
▁날이	-10.9464
▁탈레반과	-10.9465
▁결함	-10.9467
▁틸	-10.947
▁프레	-10.9473
▁가족들에게	-10.9474
▁선적	-10.9482
▁절도	-10.9482
▁lo	-10.9483
▁세부	-10.9483
▁이른다	-10.9483
▁군중	-10.9486
▁처분	-10.9489
▁na	-10.9491
▁sk	-10.9495
▁시작될	-10.9498
▁투기	-10.95
시에서	-10.9501
투표	-10.9503
맥	-10.9504
▁개최된	-10.9506
▁강에	-10.9507
▁중반	-10.9507
▁확인되	-10.9509
서비스	-10.9509
▁대통령으로	-10.951
▁결승전	-10.9511
구조	-10.9514
세계	-10.9516
월드	-10.9519
▁과정에	-10.9519
▁총리직	-10.9521
▁쓰는	-10.9527
▁민주적	-10.9531
▁멜	-10.9533
▁강화할	-10.9542
▁바닥에	-10.9545
▁변호인	-10.9551
▁배심원	-10.9551
▁선박이	-10.9555
▁움직임이	-10.9557
▁탐험	-10.9557
ish	-10.9558
▁조직원	-10.9562
▁집회에	-10.9562
▁ha	-10.9571
▁연구가	-10.9572
▁남아있	-10.9577
▁돌입	-10.9587
▁들어와	-10.9591
▁선출된	-10.9591
▁다수의	-10.9591
▁농민	-10.9592
기때문에	-10.9596
▁피살	-10.9597
부를	-10.9597
▁공무원들	-10.96
세포	-10.96
텐	-10.961
city	-10.961
바르	-10.9611
▁형태로	-10.9614
▁취하지	-10.9616
▁조치로	-10.9623
▁자카르타	-10.9624
카드	-10.9628
▁물어	-10.9636
어요	-10.9638
럴	-10.964
사이트	-10.9641
▁급락	-10.9642
▁추락한	-10.965
▁or	-10.965
▁지수가	-10.965
럽	-10.9665
ot	-10.9674
치료	-10.9677
▁넘겨	-10.9679
▁요청한	-10.9679
▁구제금융	-10.968
▁음료	-10.9684
▁알바니아	-10.969
닛	-10.9691
▁court	-10.9691
▁뮌헨	-10.9691
▁산타클로스	-10.9691
▁애니메이션	-10.9691
▁애틀랜타	-10.9691
▁칸다하르	-10.9691
▁식민지	-10.9691
▁맥케인	-10.9691
▁브루스	-10.9691
▁마사지	-10.9691
▁히드로	-10.9691
▁적응	-10.9692
▁몸값	-10.9692
▁기획	-10.9693
▁집필	-10.9694
▁군사작전	-10.9694
▁금년	-10.9694
▁출국	-10.9695
▁가죽	-10.9695
▁마침	-10.9696
▁새겨	-10.9696
▁권위	-10.9697
▁소유권	-10.9698
▁추문	-10.9699
▁장거리	-10.97
▁모래	-10.9702
▁복수	-10.9702
▁대폭	-10.9703
▁칼라	-10.9703
▁불교	-10.9703
▁나와즈	-10.9703
▁편안	-10.9704
▁신병	-10.9704
▁모으	-10.9705
▁내고	-10.9705
▁주주들	-10.9705
▁다이애나비	-10.9706
같이	-10.9707
▁받아들였다	-10.9707
▁주말에	-10.9708
▁대령	-10.9709
▁구경	-10.971
▁모았다	-10.971
▁교육부	-10.9711
▁있겠	-10.9712
▁예선전	-10.9713
▁프로그램이	-10.9713
▁알렌	-10.9715
라인	-10.9715
▁관점에서	-10.9721
▁su	-10.9722
▁상관없	-10.9723
▁변호사들	-10.9726
▁장기간	-10.9728
▁자정	-10.9728
▁예정되어	-10.9731
▁태우고	-10.9732
▁녹화	-10.9736
▁폭격기	-10.9736
▁여아	-10.9737
▁주소	-10.9737
▁참사	-10.9738
▁인명	-10.9741
▁남성과	-10.9746
▁시계	-10.9748
▁효율적	-10.9748
▁돈이	-10.9749
▁여야	-10.975
▁차원에서	-10.975
▁발달	-10.9751
냈	-10.9753
▁증언했다	-10.9757
▁그곳에	-10.9758
▁하더라	-10.9761
▁인도주의적	-10.9761
▁데비	-10.9765
슬리	-10.9766
▁레이더	-10.9766
받은	-10.9768
▁무시하	-10.9769
▁제외하고	-10.977
▁클로	-10.977
▁입원했다	-10.9779
▁조절	-10.978
▁구호단체	-10.9782
▁파키스탄에	-10.9782
▁대우	-10.9783
▁특별히	-10.9785
▁오바마에	-10.9796
▁week	-10.9796
▁프라	-10.9799
▁생존자들	-10.9803
▁확신했다	-10.9804
▁줄리	-10.9806
▁들었	-10.9807
▁중심부	-10.981
▁경우에	-10.9811
어진	-10.9812
베르	-10.9814
디스	-10.9816
▁확인된	-10.9821
▁제트	-10.9825
▁대회에	-10.9828
▁중계	-10.9828
▁이송됐다	-10.9837
▁기울이	-10.984
▁투자자	-10.9845
▁판결에	-10.985
▁내용에	-10.9861
▁개발에	-10.9861
▁선장	-10.9862
▁내리고	-10.9864
▁정치적으로	-10.9865
▁top	-10.9866
▁예술가	-10.9869
▁평양에서	-10.9872
▁내게	-10.9873
▁경제학자들	-10.9874
▁초래	-10.9884
▁어린이들이	-10.9885
▁대답했다	-10.9886
기금	-10.9887
ard	-10.9888
▁강화하고	-10.9888
▁있었기	-10.9891
▁국회의원들	-10.9892
▁분쟁이	-10.9893
▁없애	-10.9894
▁있으	-10.9897
▁원하지	-10.9899
▁명령했다	-10.9905
부가	-10.9905
▁장악	-10.9918
tion	-10.9925
▁교전이	-10.9925
만으로	-10.9929
▁fr	-10.9934
▁제작된	-10.9935
▁말에	-10.9937
▁일으키는	-10.9945
▁묵	-10.9947
▁소속의	-10.9949
베리	-10.9949
현정	-10.9954
able	-10.9956
▁자랑	-10.9957
▁열렸	-10.9958
▁재활	-10.9959
▁금연	-10.9961
▁엘리	-10.9961
▁필립	-10.9962
▁실업	-10.9965
▁이슬람교	-10.9967
▁한다면	-10.9969
▁강행	-10.9972
일라	-10.9976
▁근무하	-10.9977
▁주당	-10.9979
▁줬다	-10.9983
▁세탁	-10.9984
▁지역이	-10.9985
▁securit	-10.9985
▁끊임없	-10.9985
▁느꼈다	-10.9985
▁땅에	-10.9985
▁떨어질	-10.9985
▁마케팅	-10.9985
▁베어스턴스	-10.9985
▁베탕쿠르	-10.9985
▁부적절	-10.9985
▁브리트니	-10.9985
▁비즈니스	-10.9985
▁썼다	-10.9985
▁아칸소	-10.9985
▁에르도간	-10.9985
▁에스토니아	-10.9985
▁오케스트라	-10.9985
▁타협	-10.9985
▁테러지원국	-10.9985
▁펭귄	-10.9985
▁캔자스	-10.9985
▁되돌아	-10.9985
▁오렌지	-10.9985
▁prim	-10.9985
▁맥도날드	-10.9985
▁소탕작전	-10.9986
▁남기	-10.9986
▁고릴라	-10.9986
▁bank	-10.9986
▁영광	-10.9987
▁호송	-10.9988
▁수만명	-10.9988
▁버튼	-10.9988
▁저택	-10.9988
▁조짐	-10.999
최지	-10.999
▁영감	-10.9991
▁적자	-10.9991
▁타결	-10.9991
▁만여명	-10.9991
▁서약	-10.9994
▁개념	-10.9994
▁들어온	-10.9994
▁평소	-10.9996
▁국가인	-10.9999
▁줄이는	-10.9999
▁포위	-10.9999
▁풀려났다	-10.9999
▁식수	-11
▁파문	-11.0002
▁mm	-11.0002
▁여유	-11.0002
▁입구	-11.0003
▁공조	-11.0003
▁연방준비제도이사회	-11.0005
▁가져다	-11.0006
▁적극	-11.0007
▁사회에	-11.0007
▁갈라	-11.0009
▁적십자사	-11.001
▁겪었다	-11.0012
▁버전	-11.0013
▁미치지	-11.0017
▁유용	-11.0017
▁앞선	-11.0017
▁잡았다	-11.0018
▁하산	-11.0018
▁일원	-11.0019
▁가자지구에서	-11.0022
ea	-11.0023
▁지속되	-11.0025
▁슛	-11.0027
▁괴한	-11.0036
▁갖기	-11.0036
▁방문객들	-11.0039
▁파일	-11.0044
▁해명	-11.0048
▁붕괴된	-11.0051
▁인도네시아에서	-11.0054
▁전년	-11.0063
학과	-11.0064
농	-11.0071
▁싶어한다	-11.0072
▁나아가	-11.0073
min	-11.0073
▁주차	-11.0076
▁미만	-11.0079
▁성지	-11.0079
▁세관	-11.0088
▁청년	-11.0089
▁도주	-11.009
▁펼쳐	-11.009
▁행사에서	-11.0094
킹	-11.0097
▁중심에	-11.0098
▁손자	-11.0098
▁건수	-11.0099
얀	-11.01
협정	-11.0103
홍	-11.0104
떼	-11.0104
▁말하면서	-11.0107
▁국회에	-11.0107
▁재판이	-11.0109
▁심사	-11.011
▁재판에	-11.0112
▁프랑스와	-11.0115
▁보호하고	-11.0115
▁유지하기	-11.0128
▁동맹국들	-11.0131
▁지원하기	-11.0132
▁킨	-11.0132
▁파손됐다	-11.0136
있었다	-11.0141
▁통신사	-11.0143
▁자금이	-11.0143
▁죽었다	-11.0145
▁오리	-11.0149
▁여사와	-11.015
스에서	-11.0152
▁생산하는	-11.0154
▁비만	-11.0154
부분	-11.0157
▁관광지	-11.0168
▁독재	-11.0175
▁제공하고	-11.0176
▁앙	-11.0184
▁쏟아	-11.0192
▁사람과	-11.0193
선거	-11.0201
▁논의했다	-11.0204
▁바닥	-11.0206
▁부르는	-11.0207
▁사임했다	-11.0211
▁고무	-11.0213
▁공판	-11.0221
▁물었다	-11.0225
한국	-11.0225
▁높아	-11.023
▁클라	-11.0233
럼	-11.0233
▁가족에게	-11.0234
▁의장이	-11.0237
▁추락했다	-11.0238
▁전체에	-11.024
▁벌어졌	-11.0247
워드	-11.0249
▁나타났	-11.025
받고	-11.0251
▁안전에	-11.0254
▁인접	-11.0254
▁요청할	-11.0255
▁파파라치	-11.0255
의원	-11.0262
당했다	-11.0262
ml	-11.0267
▁자행	-11.0269
사이	-11.027
해준	-11.0271
▁마을에	-11.0271
널	-11.0272
▁오클라호마	-11.028
렘	-11.0281
▁기술이	-11.0284
나갈	-11.0286
▁득표	-11.0287
딜	-11.0288
겔	-11.0288
눌	-11.0288
▁골든글로브	-11.0288
▁구호물품	-11.0288
▁뉴욕타임스	-11.0288
▁동유럽	-11.0288
▁야스쿠니	-11.0288
▁유니세프	-11.0288
▁일으켜	-11.0288
▁좋게	-11.0288
▁침팬지	-11.0288
▁티셔츠	-11.0288
▁포괄적	-11.0288
▁항생제	-11.0288
▁황우석	-11.0288
▁흰색	-11.0288
렁	-11.0288
▁덕분에	-11.0288
▁유조선	-11.0288
▁다운로드	-11.0288
▁크로커	-11.0288
▁니케이	-11.0288
▁첩보	-11.0288
▁종합	-11.0288
▁유적지	-11.0288
▁모로코	-11.0288
▁착취	-11.0289
▁혈액	-11.0289
▁바꿔	-11.0289
▁트로피	-11.0289
▁출범	-11.0289
▁press	-11.0289
▁양키스	-11.0289
▁요새	-11.0289
▁kim	-11.0289
▁운반	-11.029
▁wto	-11.029
▁폭등	-11.0291
▁하얀	-11.0291
▁대략	-11.0291
▁패리스	-11.0291
▁복권	-11.0292
▁근교	-11.0292
▁어두운	-11.0292
▁현지경찰	-11.0292
▁안된다	-11.0293
▁풍선	-11.0293
▁지도자들과	-11.0293
▁차원	-11.0294
▁아이돌	-11.0295
▁거둔	-11.0298
▁볼튼	-11.0298
▁상반기	-11.0298
▁엘바	-11.0299
▁설문	-11.03
▁영원	-11.03
▁소란	-11.0302
▁명칭	-11.0304
▁쏘	-11.0304
▁알려주	-11.0305
▁제프리	-11.0308
▁뒤집	-11.0308
▁부유	-11.0311
▁타이어	-11.0311
▁모르겠다	-11.0312
▁입학	-11.0314
▁의자	-11.0314
▁조속	-11.0314
▁줄여	-11.0314
▁묘지	-11.0316
▁예상보다	-11.0319
▁플	-11.0322
▁분실	-11.0324
▁지구에서	-11.0324
▁미시간	-11.0325
▁전염	-11.0327
▁기권	-11.0329
▁제방	-11.033
▁명에서	-11.0331
▁주장했지만	-11.0331
▁채권	-11.0332
▁투표할	-11.0333
▁실어	-11.0333
▁중령	-11.0335
▁주류	-11.0336
▁양성	-11.0336
▁시위자	-11.0339
후보	-11.034
▁gu	-11.0345
po	-11.0345
▁트레	-11.0347
▁착용하	-11.0348
▁과시	-11.0354
레나	-11.0357
▁사용하기	-11.036
▁개최되	-11.0363
▁지낸	-11.0363
ted	-11.0369
▁추구	-11.0373
▁보도한	-11.0378
▁스텔	-11.0381
▁사랑하는	-11.0386
▁프레드	-11.0387
▁보낸다	-11.0394
▁보내기	-11.0394
▁끄	-11.0394
▁기리	-11.0397
▁usa	-11.0398
▁기자들이	-11.0399
▁참가하	-11.0408
생활	-11.0409
▁당의	-11.0413
▁아시	-11.0416
▁과장	-11.042
생산	-11.0428
▁몽	-11.0429
사진	-11.0429
▁장착	-11.043
▁설치된	-11.0433
워진	-11.0437
▁장악하	-11.0437
차이	-11.0444
▁흥미	-11.0447
▁신도	-11.0454
▁ge	-11.0459
▁증인	-11.0459
▁올리고	-11.0465
▁부문에서	-11.0471
▁가기	-11.0473
▁친척	-11.0477
▁납	-11.0482
bi	-11.0485
우드	-11.0487
▁있거	-11.0488
연대	-11.0499
▁환경에	-11.0501
▁서울에	-11.0505
▁나타난	-11.051
받아	-11.051
▁사용한다	-11.0512
▁전설	-11.0517
▁죽이	-11.0518
베스	-11.0524
▁라인	-11.0529
▁이해할	-11.0532
▁명시	-11.0539
iz	-11.054
▁he	-11.054
▁클레	-11.055
▁파이	-11.0555
느냐	-11.0555
이기도	-11.0558
▁통일	-11.0563
▁국무장관이	-11.0563
▁시까지	-11.0563
▁부장	-11.0565
▁나섰	-11.0572
▁사육	-11.0573
▁지방의	-11.0578
▁아바	-11.0578
▁자신에	-11.058
▁위협하	-11.0582
잡	-11.0589
▁표결	-11.0592
촌	-11.0594
리오	-11.0594
▁년전	-11.0595
▁피닉스	-11.0596
왈	-11.0597
▁아랍에미리트	-11.06
밍	-11.0601
▁로스앤젤레스	-11.0601
▁베이루트	-11.0601
▁afp	-11.0601
▁london	-11.0601
▁nfl	-11.0601
▁wfp	-11.0601
▁걷는	-11.0601
▁국회의사당	-11.0601
▁불렀다	-11.0601
▁스튜어트	-11.0601
▁클루니	-11.0601
▁평화협상	-11.0601
▁마라도나	-11.0601
▁모바일	-11.0601
▁제니퍼	-11.0601
▁되풀이	-11.0601
▁셰이크	-11.0601
▁교과서	-11.0601
▁린제이	-11.0601
▁잔혹	-11.0601
▁lpga	-11.0601
▁물러	-11.0601
▁여자아이	-11.0601
▁취득	-11.0601
▁진흙	-11.0601
▁페이스북	-11.0601
▁침범	-11.0601
▁흐름	-11.0601
▁칭찬	-11.0601
▁정해지지	-11.0601
▁닉슨	-11.0602
▁학년	-11.0602
▁가속화	-11.0602
▁호킹	-11.0602
▁연극	-11.0603
▁워너	-11.0603
▁지르	-11.0603
▁스카이	-11.0603
▁불평	-11.0603
▁같습니다	-11.0604
▁학위	-11.0604
▁점프하	-11.0605
▁모터	-11.0606
▁식물	-11.0606
▁추출	-11.0607
▁병역	-11.0607
▁기술자	-11.0607
former	-11.0609
▁뚫	-11.0609
▁기습	-11.061
▁극단주의자들	-11.061
▁현행	-11.061
▁지연되	-11.0612
▁유행	-11.0612
▁정교	-11.0612
▁가자지구에	-11.0613
▁우방	-11.0614
▁전대통령	-11.0615
▁세인트	-11.0615
▁때로	-11.0616
▁광부들	-11.0618
▁연임	-11.0618
▁보호하는	-11.0618
▁줄이고	-11.0619
▁전략적	-11.0623
▁회부	-11.0624
▁격리	-11.0625
▁동전	-11.0625
▁참여하는	-11.0625
▁머리에	-11.0626
▁가축	-11.0626
▁기후변화	-11.0628
▁디스	-11.0628
▁인계	-11.0629
▁정오	-11.063
▁뉴욕에	-11.0631
▁그라운드	-11.0633
▁참여하지	-11.0633
▁호화	-11.0634
▁비유	-11.0635
▁fe	-11.0636
▁불화	-11.064
▁공정	-11.064
▁우리베	-11.0641
▁봉	-11.0642
▁열정	-11.0643
▁아이티	-11.0644
▁참석해	-11.0644
▁이룩	-11.0645
▁억제	-11.0647
르게	-11.0647
▁연방수사국	-11.0651
▁시달리고	-11.0651
▁거주지	-11.0653
▁성공회	-11.0653
▁반미	-11.0654
▁감시단	-11.0656
▁life	-11.0657
려진	-11.0659
▁실력	-11.0664
▁비교해	-11.0674
▁솔	-11.0674
▁개조	-11.0678
▁자크	-11.0678
▁독자	-11.0681
▁노력에	-11.0681
달라	-11.0683
▁만여	-11.0683
▁바다로	-11.0688
▁당했	-11.0692
▁상의	-11.0693
▁위협했다	-11.0695
said	-11.0695
시켜야	-11.0696
▁사제	-11.0699
▁이어질	-11.07
▁무장대원들	-11.0702
▁생성	-11.0703
▁선정됐다	-11.0704
▁닐	-11.0705
았던	-11.0706
▁수용할	-11.0706
안보	-11.0709
버릴	-11.0715
▁끝나는	-11.0717
▁하도록	-11.0719
투어	-11.072
▁서명했다	-11.0723
▁우주인	-11.0726
▁단기	-11.0726
▁정신과	-11.0727
▁전범	-11.0727
▁주교	-11.0728
▁해외에서	-11.073
▁man	-11.0738
▁인기가	-11.0739
시즌	-11.0743
개혁	-11.0744
어져	-11.0748
축구	-11.0748
▁들어가는	-11.0748
▁되었습니다	-11.075
▁동영상에	-11.076
▁의원들에게	-11.0764
▁정보국	-11.0772
▁적당	-11.0773
머리	-11.0776
▁청소년들	-11.0781
군은	-11.0784
lee	-11.0785
버린	-11.0787
▁떼	-11.0788
회견에서	-11.079
▁특이	-11.0793
▁확보했다	-11.0798
▁파손되	-11.08
▁아내와	-11.08
요원	-11.0801
▁오픈에서	-11.0801
▁염려	-11.0811
▁당국과	-11.0813
▁리버	-11.0821
▁선언한	-11.0824
▁모스	-11.0825
▁힐튼이	-11.0827
▁일상적	-11.0828
▁관리자	-11.0831
▁어머니와	-11.0831
여부	-11.0833
fa	-11.0836
▁학생들과	-11.0837
▁참가했다	-11.084
▁기간에	-11.0843
▁단계에	-11.0849
▁헤어	-11.0853
레이크	-11.0854
커스	-11.0856
▁혼란에	-11.0856
▁중단하고	-11.0857
▁유대	-11.0858
회의에서	-11.0861
해져	-11.0864
▁취급	-11.0865
▁본국	-11.0867
tra	-11.0868
▁지니	-11.0873
▁이뤄	-11.0873
리어	-11.0875
▁참석하기	-11.0878
보고	-11.0888
▁남편과	-11.0889
▁주장이	-11.0892
▁승자	-11.0895
전쟁	-11.0895
기위해	-11.0897
▁국민이	-11.0906
인들에게	-11.0906
▁소방관	-11.0909
▁확고	-11.0911
퀴	-11.0912
국들	-11.0913
▁루이지애나	-11.0913
▁지지도	-11.0914
▁결의안에	-11.0915
▁살아가	-11.0915
꾼	-11.0916
▁work	-11.0916
ine	-11.0918
▁선거전	-11.0921
팩	-11.0923
▁집무실	-11.0923
▁url	-11.0923
▁광우병	-11.0923
▁뉴캐슬	-11.0923
▁당나귀	-11.0923
▁매머드	-11.0923
▁무너져	-11.0923
▁싶은	-11.0923
▁이르렀다	-11.0923
▁재확인	-11.0923
▁카자흐스탄	-11.0923
▁국가주석	-11.0923
▁몸무게	-11.0923
마누엘	-11.0923
▁김선일	-11.0923
▁대주교	-11.0923
▁무너진	-11.0923
▁중산층	-11.0923
▁글래스고	-11.0923
▁예언자	-11.0923
▁영부인	-11.0923
▁지중해	-11.0923
▁세비야	-11.0923
▁퇴치	-11.0923
▁효력	-11.0923
▁수십억	-11.0924
▁맞붙	-11.0924
▁쇼핑몰	-11.0924
▁연휴	-11.0924
▁아마존	-11.0924
▁벌어들	-11.0924
▁둘째	-11.0924
▁왕복선	-11.0924
▁높아졌다	-11.0924
▁농담	-11.0925
▁공군기지	-11.0925
▁레논	-11.0925
▁예배	-11.0925
▁허블	-11.0925
▁당원	-11.0925
▁취약	-11.0925
▁유혈	-11.0925
▁몰래	-11.0926
▁할아버지	-11.0926
▁선데이	-11.0926
▁밤새	-11.0927
▁공백	-11.0927
▁제안한	-11.0927
book	-11.0927
▁may	-11.0928
문화	-11.0928
▁피닉스호	-11.0929
▁종양	-11.093
▁제패	-11.0932
▁천문학자들	-11.0932
▁폐기물	-11.0932
▁감량	-11.0933
▁우연	-11.0933
▁계열사	-11.0934
▁코너	-11.0934
▁책정	-11.0935
▁사법부	-11.0935
▁기름	-11.0935
▁난동	-11.0936
▁이례적	-11.0937
▁부른	-11.0938
▁정체	-11.0938
▁비행기에	-11.094
▁확실하지	-11.094
▁지속될	-11.094
▁버진	-11.0941
▁재발	-11.0943
▁비가	-11.0943
▁off	-11.0944
▁강연	-11.0944
▁성경	-11.0944
▁패한	-11.0944
▁감원	-11.0944
▁페르	-11.0945
▁상위	-11.0946
▁부통령이	-11.0947
▁넣어	-11.0947
▁inter	-11.0948
점에서	-11.0949
▁있었는지	-11.095
▁방치	-11.0952
▁가결	-11.0954
▁정상회의	-11.0954
▁청소	-11.0954
▁비난한	-11.0956
▁공세	-11.0956
▁시경	-11.0957
ight	-11.0959
▁나란	-11.0963
▁전송	-11.0967
son	-11.0968
▁내정자	-11.0973
▁전례	-11.0973
▁페리	-11.0974
▁원자력	-11.0974
▁고수	-11.0977
▁한쪽	-11.0977
▁사업가	-11.0977
▁가정에	-11.0978
▁채우	-11.0978
▁지키기	-11.098
▁라이프	-11.0981
논	-11.0981
베키	-11.0984
▁광대	-11.0984
▁ban	-11.0984
▁thi	-11.0987
▁주가가	-11.0987
▁제약	-11.0988
▁공부	-11.0988
▁면적	-11.099
▁낙	-11.0993
▁꾸	-11.0995
▁시작되었다	-11.0997
선에	-11.1
▁리서치	-11.1
학회	-11.1001
▁가서	-11.1003
▁발리	-11.1005
▁현안	-11.1006
▁고려해	-11.1014
▁빙	-11.1022
▁구상	-11.1022
롤	-11.1022
지구	-11.1026
▁하트	-11.1026
▁에스	-11.1027
▁기소했다	-11.1029
▁조사하기	-11.1032
▁돌리	-11.1034
▁취임한	-11.1038
▁걸었다	-11.1042
▁노스	-11.1053
▁air	-11.1055
▁경영자	-11.1056
▁액	-11.1058
▁모스크바에서	-11.1061
▁요구에	-11.1061
▁조사단	-11.1065
▁증진	-11.1067
▁you	-11.107
▁시점에서	-11.1071
▁문자	-11.1073
▁공격수	-11.1076
▁총선에	-11.1078
▁발의	-11.108
▁br	-11.1081
▁적대	-11.1089
▁수비	-11.1092
▁연기했다	-11.1099
총장	-11.1101
▁총격으로	-11.1106
▁출전한	-11.111
▁연이	-11.1114
직에서	-11.1117
▁여자들	-11.1122
▁강사	-11.1126
▁싸우	-11.1128
미국	-11.1131
나라	-11.1135
▁경제의	-11.1142
ian	-11.1143
전선	-11.1147
바로	-11.1148
레오	-11.1149
▁균	-11.1153
▁가져	-11.1154
▁포기했다	-11.1155
▁의혹에	-11.1161
▁만료	-11.1161
▁새해	-11.1163
▁시작되는	-11.1166
▁탈출했다	-11.1168
▁노동부	-11.117
▁관리인	-11.1174
▁금지하고	-11.1175
▁시스템이	-11.1178
▁모술	-11.1178
▁구하기	-11.1179
장과	-11.1181
첼	-11.1183
▁협상단	-11.1186
▁주인이	-11.1187
▁안드레	-11.119
▁중에서	-11.1193
▁재무	-11.1195
▁꺼	-11.1202
▁산책	-11.1207
▁엄	-11.121
▁짜	-11.1211
▁판결했다	-11.1214
▁제공한다	-11.1215
▁독일에서	-11.1216
▁만명에	-11.1217
▁인도에서	-11.1218
▁산악	-11.122
바리	-11.122
▁측에서	-11.1226
▁불가피	-11.1226
▁선고받	-11.1226
▁공학	-11.1228
▁자회담에	-11.1229
▁측면	-11.1231
▁언	-11.1236
▁펜실베니아	-11.1237
어졌다	-11.1238
▁위스콘신	-11.1239
▁오해	-11.1241
▁켄터키	-11.1241
▁수명	-11.1245
▁플래	-11.1251
▁메릴랜드	-11.1251
법안	-11.1253
▁하버드	-11.1253
융	-11.1254
▁런던에	-11.1255
▁pi	-11.1255
▁시설에	-11.1255
▁승객들이	-11.1255
▁group	-11.1257
▁도널드	-11.1257
▁마흐무드	-11.1257
▁벤자민	-11.1257
▁상파울루	-11.1257
▁세계보건기구	-11.1257
▁우주정거장	-11.1257
▁잃지	-11.1257
▁커뮤니티	-11.1257
▁그루지아	-11.1257
▁촛불	-11.1257
▁안락사	-11.1257
▁피아노	-11.1257
▁부작용	-11.1257
▁닥터	-11.1257
▁불쾌	-11.1257
▁자서전	-11.1257
▁호르몬	-11.1257
▁퇴장	-11.1257
▁office	-11.1257
▁침투	-11.1257
▁타이완	-11.1258
▁지뢰	-11.1258
▁양육권	-11.1258
▁조셉	-11.1258
▁두뇌	-11.1258
▁여배우	-11.1258
▁풍경	-11.1258
▁녹색	-11.1258
▁쿠르드족	-11.1259
▁홈런	-11.126
▁연방법원	-11.126
▁control	-11.126
▁국가안보	-11.126
▁인디아나	-11.1261
▁해킹	-11.1261
▁국회의	-11.1261
▁침수	-11.1261
▁재벌	-11.1261
▁아끼	-11.1261
▁토양	-11.1261
▁언제든	-11.1262
▁수비수	-11.1262
ster	-11.1263
▁유예	-11.1263
▁지닌	-11.1263
▁임박	-11.1264
▁가고	-11.1264
▁정보기관	-11.1264
▁토론토	-11.1265
▁조종	-11.1267
▁구단주	-11.1268
▁착	-11.1269
▁후퇴	-11.1269
▁기초	-11.127
▁약혼	-11.127
▁경기도	-11.127
▁닷	-11.1272
▁필리스	-11.1272
▁비준	-11.1272
▁교량	-11.1272
▁문신	-11.1272
▁닭	-11.1272
개의	-11.1274
▁활기	-11.1276
▁차림	-11.1276
▁군복	-11.1277
▁결장	-11.1278
▁일축했다	-11.1279
▁요트	-11.1281
▁구형	-11.1283
께	-11.1283
데르	-11.1283
▁지하드	-11.1286
▁감면	-11.1286
▁get	-11.129
▁나가는	-11.1291
▁모욕	-11.1291
▁팜	-11.1291
▁군데	-11.1291
▁비방	-11.1299
▁범죄에	-11.13
▁시장과	-11.1304
▁에디	-11.1304
▁발부	-11.1308
▁확실하다	-11.1309
▁그럼	-11.131
▁산소	-11.1316
▁군부대	-11.1317
▁듀	-11.1319
▁비평	-11.1332
▁우드	-11.1333
▁자선	-11.1336
▁만나기	-11.1338
▁숨기	-11.1345
종일	-11.1346
▁상원의원에	-11.1346
▁엠	-11.1348
▁도시로	-11.1349
▁끈	-11.1349
▁경찰서에	-11.1349
▁거론	-11.1353
▁사회주의	-11.1355
▁알았다	-11.1364
▁부장관	-11.1367
▁아이들과	-11.1367
▁이베이	-11.1368
▁벌어지고	-11.1374
▁기반으로	-11.1377
▁카라	-11.1377
▁추진하고	-11.1387
▁제공해	-11.1388
▁장려	-11.1393
▁신문에	-11.1393
▁밝혀내	-11.1394
답	-11.1406
웬	-11.1412
솔	-11.1415
▁과학적	-11.1415
▁관계자들과	-11.1416
▁ad	-11.1417
▁들리	-11.1419
힘	-11.142
▁포함된다	-11.142
ail	-11.1424
▁미소	-11.1425
▁표현했다	-11.1426
▁판사들	-11.1427
▁강진	-11.1433
▁시작해	-11.1434
▁내년에	-11.1438
▁물리치	-11.1441
▁부상당	-11.1449
▁향했다	-11.145
▁관중	-11.1466
▁사이트에	-11.147
두고	-11.1472
▁북부지역	-11.1495
▁기다려	-11.1497
▁벽에	-11.15
▁취소됐다	-11.1502
▁감옥	-11.1511
▁내장	-11.1521
▁도시에	-11.1523
구역	-11.1524
하르	-11.1526
▁ka	-11.1535
▁문제점	-11.1536
▁아이들에게	-11.154
ext	-11.1546
체제	-11.1551
▁유입	-11.1558
▁났다	-11.1561
ber	-11.1561
▁그때	-11.1563
▁보호할	-11.1565
▁얻는	-11.1569
▁곤	-11.157
▁클리	-11.1572
▁소식통들	-11.1573
▁콩	-11.1573
▁지냈	-11.1575
렌스	-11.1577
▁동일	-11.1579
▁배급	-11.1582
스틴	-11.1585
대의	-11.1587
▁국정원	-11.159
일정	-11.1591
효	-11.1593
▁매사추세츠	-11.1595
▁홈페이지에	-11.1595
▁국왕이	-11.1595
튜	-11.16
▁치솟	-11.1601
▁모니터	-11.1601
즘	-11.1601
▁death	-11.1601
▁police	-11.1601
▁service	-11.1601
▁냄새	-11.1601
▁매코맥	-11.1601
▁맥코맥	-11.1601
▁메사추세츠	-11.1601
▁미드필더	-11.1601
▁박테리아	-11.1601
▁뱅크	-11.1601
▁블룸버그	-11.1601
▁슈워제네거	-11.1601
▁스피처	-11.1601
▁악영향	-11.1601
▁알자와히리	-11.1601
▁암스트롱	-11.1601
▁오징어	-11.1601
▁오키나와	-11.1601
▁이스탄불	-11.1601
▁친선경기	-11.1601
▁캠벨	-11.1601
▁케르비엘	-11.1601
▁프로듀서	-11.1601
▁그루지야	-11.1601
▁바쿠바	-11.1601
▁수하르토	-11.1601
▁재정경제부	-11.1601
▁흥행	-11.1601
▁동계올림픽	-11.1601
▁research	-11.1601
▁아스널	-11.1602
▁도덕적	-11.1602
▁중서부	-11.1602
▁방사능	-11.1602
▁침착	-11.1602
▁무하메드	-11.1602
▁속옷	-11.1602
▁계곡	-11.1602
▁종신형	-11.1602
▁탔다	-11.1602
▁면밀	-11.1603
▁생겨	-11.1603
▁태양열	-11.1603
▁대피령	-11.1603
▁환경보호	-11.1603
▁블록	-11.1603
▁아닐	-11.1603
▁요격	-11.1604
▁맹세	-11.1604
▁아담	-11.1604
▁화석	-11.1605
▁불안감	-11.1605
▁몸집	-11.1606
▁품질	-11.1607
▁총알	-11.1607
▁피셔	-11.1607
▁소령	-11.1607
▁외교관계	-11.1608
▁교토	-11.1609
▁성행위	-11.1609
▁존드로	-11.1609
직원	-11.161
▁항복	-11.161
▁지침	-11.161
▁곡물	-11.1611
▁여년	-11.1611
▁도망	-11.1611
▁대학살	-11.1611
▁사원에서	-11.1611
▁참전	-11.1612
▁반대한다	-11.1612
▁원격	-11.1613
▁배제하지	-11.1614
▁용서	-11.1615
▁같았다	-11.1615
▁정통	-11.1615
▁얼리	-11.1618
▁수백만명	-11.162
▁지표	-11.1621
몬드	-11.1622
▁아카데미상	-11.1622
▁후보들이	-11.1623
▁제트기	-11.1624
▁산악지역	-11.1624
▁시범	-11.1625
▁z	-11.1627
▁댄	-11.1627
▁필립스	-11.1628
▁가르치	-11.1628
▁인정한	-11.1629
디는	-11.163
▁만찬	-11.1631
▁정책이	-11.1633
▁크리스티나	-11.1635
▁남았다	-11.1636
▁운하	-11.1637
▁붐	-11.1637
▁빵	-11.1637
▁혼다	-11.1638
▁진행됐다	-11.1638
▁구제안	-11.1642
▁리타	-11.1642
▁안되	-11.1642
▁시위대와	-11.1644
▁back	-11.1644
tic	-11.1646
▁염	-11.1647
▁지문	-11.1647
부의	-11.1647
통이	-11.1655
▁미술	-11.1655
▁단서	-11.1656
▁가난	-11.1658
▁인자	-11.166
▁조치에	-11.1661
▁생겼다	-11.1662
ain	-11.1662
▁지속된	-11.1662
▁결의	-11.1662
▁아프가니스탄에	-11.1666
▁car	-11.1666
▁윤리	-11.1667
▁상아	-11.1667
▁장악한	-11.1669
▁캐리	-11.1675
▁일방적	-11.1676
ni	-11.1676
▁검토하	-11.1677
▁성전	-11.1677
공항	-11.1681
▁부진	-11.1681
▁팬들에게	-11.1685
▁드는	-11.1686
▁확인해	-11.1686
▁미치	-11.1687
▁포기하지	-11.1687
▁춤	-11.1689
지오	-11.1689
▁감옥에	-11.1694
▁확인하는	-11.1695
▁칼로	-11.1702
▁du	-11.1703
▁기한	-11.1704
▁급진	-11.1708
을때	-11.1709
aw	-11.1709
▁집안	-11.171
아누	-11.1711
▁일째	-11.1714
조정	-11.1714
▁강조하고	-11.1718
▁말로	-11.173
▁우리들	-11.1731
▁반군과	-11.1732
▁통로	-11.1737
▁신의	-11.1738
▁말했지만	-11.174
▁환영했다	-11.174
▁미친	-11.1746
비오	-11.1752
▁임명된	-11.1756
사이드	-11.1766
굴	-11.177
찌	-11.1771
빛	-11.1774
▁이브	-11.1778
▁금지하는	-11.1778
테러	-11.1779
▁공원에서	-11.1782
▁돌보	-11.1784
▁헤이	-11.1785
▁제품에	-11.179
▁걸려있	-11.1792
▁란	-11.1795
▁임원	-11.1797
▁목격한	-11.1797
해진다	-11.1801
▁모의	-11.1806
동물	-11.1811
▁반대했다	-11.1815
▁그레	-11.1817
중이다	-11.1823
▁후보에게	-11.1825
야만	-11.1829
▁실직	-11.1833
ny	-11.1836
▁중국인	-11.1838
mar	-11.1839
아나	-11.1841
▁미군측	-11.1841
▁장소로	-11.1849
▁광장에	-11.185
▁듯한	-11.1853
▁경제와	-11.1856
▁폰	-11.1858
▁같	-11.1861
▁부근에	-11.1862
▁움직임에	-11.1868
▁로라	-11.1869
ze	-11.1869
▁제작자들	-11.1881
▁고고학자들	-11.1884
▁주거	-11.1888
▁쌍	-11.1889
▁기숙사	-11.1899
▁일으켰	-11.1899
▁사무실에서	-11.1904
▁납치범들	-11.1908
▁면에서	-11.1911
▁건물에서	-11.1911
▁봤	-11.1911
▁법정에	-11.1916
오르	-11.1921
▁박탈	-11.1925
회장	-11.1927
▁손님	-11.1933
파르	-11.1939
▁국무	-11.1941
▁저가	-11.1942
▁스탠	-11.1947
▁leader	-11.1948
▁연령	-11.1949
▁나라들	-11.1953
픈	-11.1953
▁천억	-11.1956
틱	-11.1958
▁편집자	-11.1958
▁캐롤	-11.1958
▁bmw	-11.1959
▁market	-11.1959
▁united	-11.1959
▁구스마오	-11.1959
▁김계관	-11.1959
▁놀랐다	-11.1959
▁뉴멕시코	-11.1959
▁돕고	-11.1959
▁만장일치	-11.1959
▁모하마드	-11.1959
▁브리티시	-11.1959
▁사형집행	-11.1959
▁승용차	-11.1959
▁실업수당	-11.1959
▁애틀란타	-11.1959
▁자메이카	-11.1959
▁캠퍼스	-11.1959
▁캥거루	-11.1959
▁크누트	-11.1959
▁클리블랜드	-11.1959
▁탈라바니	-11.1959
▁펼칠	-11.1959
▁피추시킨	-11.1959
긋	-11.1959
▁세실리아	-11.1959
▁깃발	-11.1959
▁냉동	-11.1959
▁비영리	-11.1959
▁economic	-11.1959
▁빈민가	-11.1959
▁퍼트레이어스	-11.1959
▁벨몬트	-11.1959
▁월드시리즈	-11.1959
▁issue	-11.1959
▁제라드	-11.1959
▁러셀	-11.1959
▁미망인	-11.1959
▁공략	-11.1959
▁노왁	-11.196
▁염두	-11.196
▁구조조정	-11.196
▁메뉴	-11.196
▁펠리	-11.196
▁전염병	-11.196
▁face	-11.196
▁무엇인지	-11.196
▁유효	-11.196
▁격추	-11.1961
▁평범	-11.1961
▁검찰총장	-11.1961
▁보석금	-11.1961
▁완공	-11.1961
▁간섭	-11.1961
▁브라	-11.1961
▁멈	-11.1961
▁외교정책	-11.1961
▁사마라	-11.1961
▁페리노	-11.1962
▁감추	-11.1962
▁악재	-11.1962
▁뜨거	-11.1962
▁밀림	-11.1962
▁방북	-11.1962
▁want	-11.1962
▁건립	-11.1962
▁보상금	-11.1962
▁천억원	-11.1962
▁eta	-11.1962
▁국영방송	-11.1963
▁교황청	-11.1963
▁제이미	-11.1963
▁탄약	-11.1963
▁chin	-11.1963
▁다짐	-11.1964
▁주치의	-11.1964
▁행방	-11.1964
▁발목	-11.1965
▁머피	-11.1965
▁십대	-11.1965
▁지질	-11.1965
▁야심	-11.1966
▁피플	-11.1966
▁안겨	-11.1967
roll	-11.1967
▁타입	-11.1967
▁세균	-11.1969
건물	-11.197
▁교회에서	-11.197
▁악성	-11.197
▁구타	-11.197
▁월마트	-11.197
▁북동쪽	-11.1971
▁폭풍우	-11.1971
▁왔습니다	-11.1971
▁북서쪽	-11.1972
놨다	-11.1972
▁중단하라	-11.1973
▁순찰대	-11.1975
▁막고	-11.1975
▁대피소	-11.1976
▁종파	-11.1978
부문	-11.1979
▁유포	-11.198
▁안건	-11.1982
▁터미널	-11.1982
▁것이냐	-11.1983
▁번영	-11.1984
▁안심	-11.1986
▁was	-11.1987
▁대도시	-11.1989
▁상원의원직	-11.1991
▁최상	-11.1991
▁공개되지	-11.1994
ction	-11.1995
▁만든다	-11.1996
▁통상	-11.2
▁기내	-11.2002
▁제인	-11.2003
▁관료	-11.2006
▁달아	-11.2006
▁맹	-11.2006
▁속한	-11.2007
▁유아	-11.2008
▁자리잡고	-11.2009
▁큐	-11.2012
▁메달	-11.2013
디어	-11.2014
▁갖는다	-11.2018
▁당장	-11.2021
▁아버지와	-11.2023
▁바퀴	-11.2023
▁전달한	-11.2026
▁신고했다	-11.2026
▁범죄자들	-11.2027
국민	-11.2028
▁중장	-11.2033
▁흐르	-11.2033
▁연관된	-11.2036
▁전반적으로	-11.205
▁릭	-11.205
▁인정하	-11.205
▁환영한다	-11.2051
▁발견되	-11.2055
▁매트	-11.2055
시기	-11.2057
▁칩	-11.2057
율이	-11.2059
▁지도자로	-11.206
▁카페인	-11.2066
▁소유자	-11.2068
▁감독상	-11.2068
ba	-11.2071
▁만들었	-11.2071
▁민주당과	-11.2072
▁배로	-11.2072
▁링	-11.2073
▁했을	-11.2076
▁차가	-11.2076
▁둔화	-11.2078
▁포착	-11.2079
▁이끌었	-11.2081
▁보여주기	-11.2082
▁하나이다	-11.2088
▁묘	-11.209
죄로	-11.209
▁일정이	-11.209
▁든다	-11.2092
ell	-11.2093
▁전당	-11.2105
▁그쳤다	-11.2107
▁가려	-11.2109
▁에이	-11.211
▁방한	-11.2116
▁지났	-11.2117
▁반도	-11.2119
단이	-11.212
▁양상	-11.2126
▁떨어지는	-11.2129
▁얼음이	-11.2129
▁비극적	-11.2131
▁페이스	-11.2131
va	-11.2131
▁불안한	-11.2133
▁살해하겠다	-11.2136
▁피해지역	-11.2138
▁핀	-11.2139
섭	-11.214
멘	-11.2142
▁무장괴한	-11.2143
셰	-11.2143
핀	-11.2144
펜	-11.2144
리노	-11.2147
시키지	-11.2148
▁들어있는	-11.2149
▁모르고	-11.2151
▁기자들과	-11.2152
▁제조사	-11.2154
▁개최지	-11.2157
주택	-11.2158
▁물리	-11.216
▁시판	-11.2162
▁블로그	-11.2166
▁주지사와	-11.2169
▁국민에게	-11.2177
▁거치	-11.2188
▁기어	-11.219
▁영국으로	-11.2194
져야	-11.2195
▁fire	-11.2195
▁미국에서는	-11.2196
▁시리아와	-11.2197
▁세라	-11.2199
▁다음과	-11.22
▁흔적	-11.2201
▁하는데	-11.2201
▁미트	-11.2207
▁내로	-11.2207
병력	-11.2208
▁목소리로	-11.2208
▁이라크전에	-11.2209
▁대변	-11.2212
▁철수시키	-11.2216
▁갑작스	-11.2217
▁시도한	-11.2221
▁치고	-11.2242
▁덕	-11.2243
▁오지	-11.2249
득	-11.225
▁진행할	-11.225
▁전설적	-11.2254
▁줄기	-11.2261
▁국가들과	-11.2264
▁열려	-11.2265
프레	-11.2275
▁부탁	-11.2279
▁백악관에	-11.228
▁si	-11.228
▁사업에	-11.2282
▁en	-11.2284
▁최대한	-11.2292
▁ta	-11.2304
▁케이	-11.2308
▁암호	-11.2313
줘	-11.2316
▁당연	-11.2318
혐의로	-11.232
▁델타	-11.2322
▁미화	-11.2323
▁덧붙	-11.2323
▁콜린	-11.2324
▁이루어	-11.2325
▁고속	-11.2326
▁도쿄에서	-11.2328
삭	-11.2328
▁머무	-11.2329
▁내셔널	-11.2329
▁화염	-11.2329
믹	-11.2329
▁consumer	-11.2329
▁general	-11.2329
▁넘어섰다	-11.2329
▁댈러스	-11.2329
▁무책임	-11.2329
▁브로드웨이	-11.2329
▁색깔	-11.2329
▁에탄올	-11.2329
▁여동생	-11.2329
▁올바른	-11.2329
▁웨스트버지니아	-11.2329
▁저작권	-11.2329
▁초등학교	-11.2329
▁peace	-11.2329
▁꿈이	-11.2329
▁따돌리	-11.2329
▁흡수	-11.2329
▁change	-11.2329
▁최우수	-11.2329
▁financ	-11.2329
▁하반기	-11.2329
▁이벤트	-11.2329
▁chief	-11.2329
▁도메인	-11.2329
▁셔츠	-11.2329
▁call	-11.2329
▁하리리	-11.2329
▁습관	-11.2329
▁다뤄	-11.2329
▁앙겔	-11.2329
트로터	-11.2329
▁수하물	-11.2329
▁겁니다	-11.2329
▁투데이	-11.233
▁비평가들	-11.233
▁make	-11.233
▁빨간색	-11.233
▁압승	-11.233
▁유혹	-11.233
nd	-11.233
▁홀랜드	-11.233
▁어휘	-11.233
▁후계자	-11.233
▁디스커버리호	-11.2331
▁열쇠	-11.2331
▁결백	-11.2331
▁코스피	-11.2331
▁평결	-11.2331
▁부회장	-11.2332
▁삼림	-11.2332
▁arm	-11.2332
▁영입	-11.2332
▁글렌	-11.2332
세스	-11.2332
▁자치구	-11.2332
▁이른바	-11.2332
▁초대형	-11.2333
▁제재조치	-11.2333
▁에이미	-11.2334
▁스위	-11.2334
▁영역	-11.2335
▁벌금형	-11.2335
▁허위	-11.2336
▁전미	-11.2336
▁데니스	-11.2336
▁자회담에서	-11.2337
▁개헌	-11.2337
▁하려	-11.2338
▁독점	-11.2338
▁공통	-11.2341
니에	-11.2341
▁경위	-11.2342
▁agenc	-11.2342
▁담겨있다	-11.2342
▁외출	-11.2342
▁자매	-11.2345
▁퇴직	-11.2346
▁소감	-11.2346
▁호흡기	-11.2346
▁오락	-11.2349
▁실내	-11.2349
▁공방	-11.2349
▁어려워	-11.2349
▁걸프	-11.235
▁늘어났다	-11.2351
▁악화될	-11.2351
▁국정	-11.2351
▁올릴	-11.2353
ite	-11.2353
▁리더	-11.2354
▁시술	-11.2354
▁노동력	-11.2356
▁업	-11.2356
▁자회사	-11.2356
▁대담	-11.2357
▁동성	-11.2357
▁분출	-11.2361
▁투표권	-11.2361
▁도왔다	-11.2363
세요	-11.2364
▁불가피하다	-11.2364
▁상정	-11.2364
▁자유당	-11.2365
▁놓았다	-11.2365
▁초래할	-11.2368
▁후보작	-11.2369
▁입장권	-11.237
▁우파	-11.237
티스	-11.2372
▁장착된	-11.2373
▁정한	-11.2375
트릭	-11.2377
▁조카	-11.2382
▁박수	-11.2383
▁사이즈	-11.2384
▁올리는	-11.2385
▁딜러	-11.2386
하자는	-11.2388
▁방사	-11.2389
▁정비	-11.239
▁iss	-11.239
▁보았다	-11.239
▁위법	-11.2393
▁후임자	-11.2394
▁여개	-11.2395
▁상태였다	-11.2395
▁될지	-11.2396
우주	-11.2396
▁부인과	-11.2403
▁수잔	-11.2409
▁부자	-11.241
▁납치됐다	-11.2411
▁지미	-11.2413
▁위기로	-11.2421
▁암살된	-11.2426
▁관해서	-11.2426
▁입원한	-11.2427
▁지목했다	-11.243
▁폐쇄했다	-11.243
▁운동가	-11.2432
▁고백	-11.2433
▁확인한	-11.2435
ii	-11.2436
▁영국에	-11.2437
제로	-11.2437
다소	-11.2441
nt	-11.2448
▁용인	-11.245
▁그날	-11.2454
▁발생했던	-11.2455
▁정당이	-11.2457
이라도	-11.2459
▁마련했다	-11.246
ms	-11.246
공장	-11.2462
▁북한에서	-11.2462
▁무엇이	-11.2464
▁pf	-11.2466
시키는데	-11.2467
into	-11.2471
▁오를	-11.2474
▁내리기	-11.2481
▁톱	-11.2481
▁중유	-11.2482
관계자	-11.2483
▁여진이	-11.2487
▁맡아	-11.2489
▁웹사이트에서	-11.2491
▁star	-11.2493
▁잃어버	-11.2494
▁경찰들	-11.2501
▁여행객들	-11.2503
▁복합	-11.2503
▁우주에서	-11.2504
▁워터	-11.2505
▁알리기	-11.2506
▁여러분들	-11.251
▁펼치고	-11.2512
작업을	-11.2516
접	-11.2517
▁측에	-11.2517
푸르	-11.2517
방법	-11.2518
▁이탈	-11.2523
컴	-11.2525
억	-11.2526
▁피신	-11.2527
▁인적	-11.2527
탑	-11.2529
묘	-11.2529
환경	-11.2534
ng	-11.2534
하우스	-11.2538
▁전인	-11.2544
▁시도했다	-11.2545
▁주민이	-11.2548
▁내주	-11.255
▁개발도상국	-11.2555
▁적대적	-11.2559
▁임신한	-11.2562
▁괜찮	-11.2568
▁게이	-11.2574
▁일년	-11.2576
연구원	-11.2577
▁공격할	-11.2581
▁악의	-11.2584
▁각료	-11.2584
way	-11.2586
▁끝내	-11.2606
▁선보	-11.2606
▁따뜻하	-11.2609
▁다음으로	-11.2611
▁중국인들	-11.2617
▁관심사	-11.2619
▁예상되는	-11.2619
▁정부에서	-11.2628
자들과	-11.2628
▁공개할	-11.263
과정에서	-11.2631
수단	-11.2633
▁거래가	-11.2634
▁많지	-11.2635
▁사진에	-11.2635
▁녹아	-11.2639
▁루스	-11.2648
▁조달	-11.2648
▁방문이	-11.265
▁마련하기	-11.2656
룩	-11.2658
▁수행하	-11.2659
▁고려할	-11.2661
▁없기	-11.2667
▁직면한	-11.2668
▁납치했다	-11.2671
▁참가자	-11.2673
▁상업적	-11.2676
▁per	-11.2677
▁부부의	-11.2678
▁펼쳤	-11.268
▁올렸	-11.2681
▁영구	-11.2684
▁편이	-11.2685
▁흉	-11.2686
▁파키스탄이	-11.2689
▁필수	-11.2694
▁시작되	-11.2695
시스	-11.2696
▁정찰	-11.2698
▁데뷔	-11.2702
▁국세청	-11.2702
▁상원의	-11.2704
쁜	-11.2709
렬	-11.2712
쇠	-11.2712
▁끌려	-11.2713
덩	-11.2713
▁baghdad	-11.2714
▁pakistan	-11.2714
▁ufo	-11.2714
▁과테말라	-11.2714
▁국가보안법	-11.2714
▁높였다	-11.2714
▁닌텐도	-11.2714
▁두개골	-11.2714
▁리얼리티	-11.2714
▁마호메트	-11.2714
▁베테랑	-11.2714
▁보건복지부	-11.2714
▁엔터테인먼트	-11.2714
▁정동영	-11.2714
▁조선중앙통신	-11.2714
▁조코비치	-11.2714
▁집행유예	-11.2714
▁추수감사절	-11.2714
▁토마토	-11.2714
▁퍼레이드	-11.2714
겹	-11.2714
▁bbk	-11.2714
▁health	-11.2714
▁당분간	-11.2714
▁싱가폴	-11.2714
▁열렬한	-11.2714
▁제네바	-11.2714
무장혁명군	-11.2714
▁의구심	-11.2714
▁콜레라	-11.2714
▁뉴욕증시	-11.2714
▁수족관	-11.2714
▁태어나	-11.2714
▁유태인	-11.2714
▁white	-11.2714
▁성사	-11.2714
▁링컨	-11.2714
▁원내대표	-11.2714
▁가볍	-11.2714
▁규명	-11.2714
▁좌익	-11.2714
▁대지진	-11.2714
▁의료보험	-11.2714
대사관	-11.2714
▁신용위기	-11.2714
▁결렬	-11.2714
▁꾸준	-11.2714
▁힌두교	-11.2714
▁검출	-11.2714
▁혼합	-11.2714
▁삼엄	-11.2715
▁참패	-11.2715
▁free	-11.2715
▁티켓	-11.2715
▁코미디언	-11.2715
▁비공개	-11.2715
▁배럭	-11.2715
▁연합뉴스	-11.2716
▁워커	-11.2716
▁설교	-11.2716
▁호주오픈	-11.2716
▁영예	-11.2716
▁나라에서	-11.2716
▁과잉	-11.2717
▁노리에가	-11.2717
▁사찰	-11.2717
▁신념	-11.2717
▁격분	-11.2717
▁세번째	-11.2717
▁검진	-11.2717
▁응원	-11.2717
▁광경	-11.2717
▁이정인	-11.2717
▁깜	-11.2718
▁태양계	-11.2718
▁관행	-11.2719
▁포스터	-11.2719
▁후보자들	-11.272
▁극심	-11.272
▁계단	-11.272
▁권유	-11.2721
▁서있	-11.2721
▁지폐	-11.2721
▁보수파	-11.2721
▁저격	-11.2722
▁순회	-11.2722
▁히트	-11.2723
▁레저	-11.2724
▁섞	-11.2725
▁suv	-11.2725
▁재생	-11.2725
▁발작	-11.2726
▁밀수	-11.2728
▁체인	-11.2728
▁단호	-11.2728
▁남겼다	-11.2728
▁여성에게	-11.2728
▁비자금	-11.2729
▁보류	-11.273
▁시사회	-11.273
▁더이상	-11.273
▁풍자	-11.2731
▁돌아갔다	-11.2732
▁맡게	-11.2732
▁dc	-11.2732
▁장관들	-11.2732
▁기념일	-11.2732
▁사우스	-11.2733
▁소방관들	-11.2733
▁차량은	-11.2733
▁오고	-11.2735
▁연예	-11.2736
▁zan	-11.2736
▁통신과	-11.2736
▁빨간	-11.2737
▁인플루엔자	-11.2739
▁국면	-11.274
▁장난	-11.274
▁발견돼	-11.2741
▁야간	-11.2743
▁달에	-11.2744
▁정상적으로	-11.2745
▁단백질	-11.2747
▁호우	-11.2747
▁애쓰고	-11.2751
▁현직	-11.2753
▁제프	-11.2755
▁미사	-11.2762
▁작곡가	-11.2763
▁하마스와	-11.2765
▁석상	-11.2765
▁결승에서	-11.2777
▁비율이	-11.2778
졌습니다	-11.278
▁년째	-11.2781
▁취해야	-11.2782
▁지명자	-11.2783
▁심정	-11.2784
▁가격에	-11.2785
▁계층	-11.2786
▁잡혀있	-11.2787
▁붙이	-11.2789
▁람	-11.2793
▁봐	-11.2794
oo	-11.2797
▁범죄자	-11.2797
▁찬사	-11.2798
위기	-11.2799
▁논의하고	-11.28
프리	-11.2801
▁이끌었다	-11.2803
▁시민단체	-11.2805
▁분기에	-11.2814
▁페이	-11.2818
▁정보가	-11.2823
▁친구들과	-11.2824
▁흔들리	-11.2825
▁하원에서	-11.2825
▁헤르	-11.2826
▁부수	-11.2828
▁와서	-11.2835
▁리사	-11.2839
▁가할	-11.2841
▁코커스에서	-11.2844
▁보아	-11.2847
▁팔려	-11.2848
▁진행하는	-11.285
▁나르	-11.2851
▁베를린에서	-11.2852
▁잡기	-11.2853
▁첸	-11.2857
▁러시아에서	-11.2857
▁감자	-11.2859
▁돌입했다	-11.2862
▁배정	-11.2866
▁사무소	-11.2866
▁강화했다	-11.2872
▁식으로	-11.2873
▁나갔다	-11.2874
▁홀에서	-11.2877
▁결승전에	-11.2877
▁어디에	-11.2878
▁수의사	-11.2878
▁제기한	-11.2879
▁수반과	-11.289
▁살아있는	-11.289
▁조사했다	-11.2892
▁개국이	-11.2893
▁재판소	-11.2893
▁의견에	-11.2897
▁해변에서	-11.29
▁문화적	-11.2901
▁가두	-11.2901
▁몬	-11.2904
▁파고	-11.2905
명이	-11.2905
▁칠	-11.291
응	-11.2915
▁어디	-11.2915
전문	-11.2919
ee	-11.2921
▁hd	-11.2923
피크	-11.2923
▁앤더슨	-11.2924
교회	-11.2925
휴	-11.2926
사령관	-11.2927
몽	-11.2927
첨	-11.2927
▁에바	-11.2927
컨	-11.2928
▁길에	-11.2928
오픈	-11.2931
돈	-11.2931
▁여행사	-11.2932
떨어진	-11.2932
▁정치범	-11.2933
▁미수	-11.2936
▁유지하는	-11.2944
임에	-11.295
▁참모	-11.2956
to	-11.2957
하일	-11.2962
▁헌신	-11.2964
▁폭발했다	-11.2966
▁기관들	-11.2968
▁요한	-11.2971
▁공격하는	-11.2971
▁비리	-11.2975
▁파르	-11.2976
수준	-11.2979
▁동원해	-11.298
주재	-11.2981
▁계획한	-11.2982
▁사태로	-11.2985
▁판매되	-11.2987
▁가담	-11.2991
▁초과	-11.2991
▁개헌안	-11.2993
▁갇혀	-11.3006
▁시작하는	-11.3012
▁빼	-11.3019
▁대리	-11.3019
▁기념하기	-11.3022
▁하락했	-11.3022
수사	-11.3027
▁대원	-11.3037
▁버렸다	-11.3041
▁덴버	-11.3044
▁개막식	-11.3045
▁주문했다	-11.3046
▁방문객	-11.3047
▁양곤	-11.3047
▁재미	-11.3048
▁공장에서	-11.3048
▁위반한	-11.3053
데일	-11.3054
발전	-11.3055
것을	-11.3057
▁윤리적	-11.3058
▁방문했	-11.3059
북한	-11.306
모어	-11.306
▁까	-11.3061
▁시작하기	-11.3066
ner	-11.3069
줘야	-11.3069
ure	-11.3074
▁쇼에	-11.3075
텍	-11.3081
▁하겠다	-11.3081
▁구조대원	-11.3082
▁바탕	-11.3084
▁무기한	-11.3087
▁q	-11.3087
▁도움으로	-11.3092
▁호흡	-11.3095
자들에	-11.3096
▁america	-11.3099
님	-11.3099
▁주사	-11.3103
롬	-11.3104
▁year	-11.3104
▁중동평화	-11.3108
▁정치에	-11.3112
▁wild	-11.3114
▁갤럭시	-11.3114
▁곤돌라	-11.3114
▁라왈핀디	-11.3114
▁루마니아	-11.3114
▁마닐라	-11.3114
▁아웅산수지	-11.3114
▁얀코비치	-11.3114
▁엔데버호	-11.3114
▁이데올로기	-11.3114
▁짝짓기	-11.3114
▁카라카스	-11.3114
▁카톨릭	-11.3114
▁타블로이드	-11.3114
▁폴라로이드	-11.3114
▁횟수	-11.3114
돋	-11.3114
룽	-11.3114
▁내비쳤다	-11.3114
▁농작물	-11.3114
▁동남아시아	-11.3114
▁로맨틱	-11.3114
▁로페즈	-11.3114
▁백화점	-11.3114
▁유망주	-11.3114
▁치렀	-11.3114
▁카리스마	-11.3114
▁페널티킥	-11.3114
▁report	-11.3114
▁페르난도	-11.3114
▁ftse	-11.3114
▁뮤직	-11.3114
▁자이툰	-11.3114
▁테이블	-11.3114
▁살모넬라균	-11.3114
▁평론가들	-11.3114
▁보스니아	-11.3114
준다	-11.3114
디오	-11.3114
▁대중교통	-11.3114
▁동점골	-11.3114
▁소수민족	-11.3114
▁대통합민주신당	-11.3114
▁소아과	-11.3114
▁결승골	-11.3114
▁밀접	-11.3114
▁brit	-11.3114
▁범람	-11.3114
▁가자시티	-11.3114
▁나중에	-11.3114
▁부정선거	-11.3114
▁패널	-11.3115
▁관광산업	-11.3116
▁울머	-11.3116
▁연예인	-11.3116
▁난폭	-11.3117
▁선택한	-11.3117
▁평생	-11.3117
▁오스틴	-11.3118
▁표적이	-11.3118
▁기둥	-11.3118
▁결별	-11.3119
▁온천	-11.312
▁경제성장률	-11.312
▁지칭	-11.312
▁홈페이지	-11.3121
▁연구조사	-11.3121
▁매사추세츠주	-11.3121
▁심장병	-11.3121
▁도착했을	-11.3122
▁면허	-11.3122
▁바이오	-11.3122
▁억압	-11.3123
▁동행	-11.3123
▁페퍼	-11.3123
▁감동	-11.3123
▁숨지게	-11.3123
▁줄어	-11.3123
▁바스크	-11.3124
▁면제	-11.3124
▁외각	-11.3124
▁세레나	-11.3124
▁책임감	-11.3126
▁관세	-11.3127
▁사절	-11.3128
▁감안	-11.3128
▁천연	-11.3128
▁맞이하	-11.3129
▁무너졌다	-11.313
느라	-11.313
▁드문	-11.3131
▁과실	-11.3132
▁버크	-11.3133
▁삼았다	-11.3133
▁조업	-11.3135
티드	-11.3136
군과	-11.3141
▁프린스	-11.3142
▁신비	-11.3143
▁반란	-11.3143
▁대승	-11.3144
▁뒤에서	-11.3145
▁여정	-11.3145
▁상임	-11.3145
▁국민당	-11.3146
▁이끈	-11.3147
net	-11.315
▁행운	-11.3153
▁투수	-11.3154
▁하는지	-11.3157
▁낙관적	-11.3158
▁질서	-11.316
▁누드	-11.3161
▁많았다	-11.3162
▁양당	-11.3163
▁that	-11.3164
▁넘어서	-11.3165
▁어선	-11.3174
▁빗	-11.3176
▁good	-11.3177
▁덩어리	-11.3179
▁후임으로	-11.3184
▁샘	-11.3186
ious	-11.3189
▁내기	-11.3191
▁번식	-11.3191
▁모닝	-11.3191
▁움직	-11.3192
▁이룬	-11.3196
▁의뢰인	-11.3199
되게	-11.3202
▁대처하기	-11.3202
▁걸스	-11.3207
전문가	-11.3207
▁살해됐다	-11.3208
▁무혐의	-11.3213
▁괴	-11.3216
▁별로	-11.3219
▁유명인사	-11.322
▁행동으로	-11.3222
▁방콕에서	-11.3223
▁불과했다	-11.3224
▁경선이	-11.3226
▁죽을	-11.3226
▁포기할	-11.3226
▁감기	-11.323
▁전통적으로	-11.3234
▁도로에	-11.3236
▁야당의	-11.3237
론자들	-11.3238
▁줄어들었다	-11.3239
▁we	-11.324
▁제안에	-11.3241
▁감행했다	-11.3242
▁지사	-11.3244
▁지정된	-11.3246
▁바스라에서	-11.3251
성과	-11.3252
▁당원들	-11.3252
코르	-11.3254
ef	-11.3254
▁동남	-11.3256
▁용의	-11.3258
노프	-11.3259
ical	-11.3259
▁이란에서	-11.3259
▁발생하기	-11.326
ls	-11.326
▁충고	-11.3262
▁취하	-11.3264
▁퇴원	-11.3266
▁맡기	-11.327
▁거라고	-11.3277
라이트	-11.3279
▁로한이	-11.3279
▁주자	-11.3282
▁red	-11.3283
▁험	-11.3286
▁물질이	-11.3288
윤	-11.329
▁국경지역에	-11.3292
▁안다	-11.3294
▁행한	-11.3297
▁분명한	-11.3298
▁구입한	-11.33
▁말하지	-11.3303
▁지구로	-11.3303
▁수감됐다	-11.3307
▁탑	-11.3308
▁소방	-11.3308
게이트	-11.3312
▁퍼지	-11.3312
▁심화	-11.3313
▁관광객이	-11.3325
▁태국에서	-11.3325
▁전선	-11.333
▁결승	-11.3331
▁선보였	-11.3332
▁협정에	-11.3334
헤드	-11.3338
▁sa	-11.3339
▁도시들	-11.3339
▁발표하지	-11.3339
▁정직	-11.3339
덤	-11.3341
즐	-11.3347
▁공직	-11.3348
▁start	-11.3351
▁이목	-11.3353
▁위치에	-11.3355
스텐	-11.3356
fc	-11.3356
▁파괴됐다	-11.3358
보고서	-11.3359
▁ps	-11.336
사람	-11.3364
▁겐	-11.3366
노동	-11.3373
▁남지	-11.3373
통제	-11.3374
어지고	-11.3375
▁후안	-11.3382
▁이어진	-11.3382
▁지원한	-11.3387
코스	-11.3389
빌리	-11.3392
▁단체에	-11.3394
▁발생한다	-11.3395
▁직면해	-11.3399
▁방송과	-11.3418
▁제어	-11.3421
▁다쳤	-11.3424
처리	-11.3425
▁강전	-11.3428
▁일요일에	-11.343
pp	-11.3435
▁통근	-11.3441
▁down	-11.3443
학원	-11.3443
▁의뢰	-11.3445
세르	-11.3446
▁민주당원들	-11.3446
▁이외	-11.3446
▁놓여	-11.3456
▁여객기에	-11.3458
▁석방했다	-11.3464
▁복용한	-11.3467
회에서	-11.3467
▁섬에	-11.3469
로프	-11.347
롭게	-11.3474
▁게임에서	-11.3477
▁보여준	-11.3479
▁관료들	-11.3479
▁획득했다	-11.348
▁맞았	-11.3483
▁침	-11.3485
▁한반도에서	-11.349
ok	-11.3491
▁선호	-11.3491
▁사정	-11.3491
▁수성	-11.3493
▁감염자	-11.3495
▁정부로부터	-11.3498
▁승리하는	-11.3502
법에	-11.3503
▁법무	-11.3513
▁san	-11.3517
▁괴한들	-11.3519
▁버몬트	-11.352
▁다국적	-11.3523
▁나눠	-11.3524
▁경제성장	-11.3524
쾌	-11.3527
▁자연적	-11.3527
▁공습이	-11.3528
▁브뤼셀	-11.353
▁oecd	-11.353
▁wwf	-11.353
▁가톨릭	-11.353
▁금융제재	-11.353
▁레젭	-11.353
▁몬타나	-11.353
▁무크타다	-11.353
▁버시바우	-11.353
▁부정부패	-11.353
▁사카쉬빌리	-11.353
▁쫓겨	-11.353
▁컨퍼런스	-11.353
▁콘크리트	-11.353
▁콜레스테롤	-11.353
▁프리메라리가	-11.353
▁합참의장	-11.353
윗	-11.353
쿤	-11.353
▁로널드	-11.353
▁임산부	-11.353
▁주장해	-11.353
▁기번스	-11.353
▁오마바	-11.353
▁팔루자	-11.353
▁휴양지	-11.353
▁힉스	-11.353
▁횡단	-11.353
▁쟁점	-11.353
▁about	-11.353
▁뒤덮	-11.353
▁이소연	-11.353
▁주니어	-11.353
▁아지즈	-11.353
▁크리켓	-11.353
▁페인트	-11.353
▁home	-11.3531
▁농촌	-11.3531
▁근접	-11.3531
▁소요사태	-11.3531
▁번호판	-11.3531
▁와중에	-11.3531
▁호르타	-11.3532
▁여객선	-11.3532
▁동북아	-11.3532
▁불쾌감	-11.3532
▁간첩	-11.3532
▁평창	-11.3532
▁엄중	-11.3533
▁통계청	-11.3533
▁최후	-11.3533
▁싸울	-11.3533
▁연애	-11.3533
ew	-11.3533
▁이루어질	-11.3534
▁총격사건	-11.3534
▁연습	-11.3534
▁평등	-11.3534
▁패션계	-11.3535
▁활력	-11.3535
▁피델	-11.3535
▁단절	-11.3536
▁정글	-11.3536
▁ab	-11.3536
▁말라위	-11.3536
▁팔렸다	-11.3537
스테이트	-11.3537
▁금지령	-11.3537
▁포격	-11.3537
▁union	-11.3537
▁평방	-11.3538
▁예금	-11.3538
▁테네시주	-11.3538
▁rights	-11.3539
돌프	-11.3539
▁변동	-11.3539
▁저지르	-11.3539
▁테러공격	-11.354
▁추모식	-11.354
▁황제	-11.354
▁본래	-11.354
▁수년간	-11.354
▁지나친	-11.354
▁베스트	-11.3541
▁즐거	-11.3541
▁완수	-11.3541
모토	-11.3542
▁인도와	-11.3542
▁울프	-11.3543
▁스탠리	-11.3544
▁철거	-11.3544
▁급파	-11.3545
▁테마	-11.3545
잡이	-11.3546
▁뉴저지주	-11.3546
▁반격	-11.3546
▁사격	-11.3547
▁건조	-11.3547
▁액수	-11.3547
▁태아	-11.3548
▁터진	-11.3548
▁구분	-11.3549
▁질식	-11.3549
▁선박에	-11.3551
▁발사된	-11.3552
▁신종	-11.3552
▁데이트	-11.3552
▁앙리	-11.3554
▁정유	-11.3554
▁파악하	-11.3554
▁루이	-11.3554
▁지도력	-11.3555
uni	-11.3555
▁스노	-11.3555
▁경찰청장	-11.3556
▁분양	-11.3558
▁안개	-11.3558
받을	-11.3559
▁휩싸였다	-11.356
▁상실	-11.356
▁외모	-11.356
▁압도	-11.3562
▁ak	-11.3562
▁분명하다	-11.3563
▁문학	-11.3563
▁살리	-11.3564
▁두목	-11.3564
▁가즈니주	-11.3565
▁상징적인	-11.3566
▁조그	-11.3566
▁만톤	-11.3568
di	-11.3568
▁피고인들	-11.357
자에	-11.357
▁일본인들	-11.357
▁반감	-11.3571
▁한국정부	-11.3572
▁도와	-11.3572
▁도박	-11.3575
▁작용할	-11.3576
▁허리	-11.3576
▁발사한	-11.3577
▁핵문제	-11.3577
▁열린다	-11.3579
▁독일과	-11.3579
▁은행이	-11.3581
▁미쳤다	-11.3584
▁가한	-11.3585
▁보수적인	-11.3585
▁억류된	-11.3586
▁인파	-11.3586
▁앤드	-11.3587
▁열리기	-11.3589
▁아카	-11.359
▁박물관에	-11.3592
▁이건	-11.3594
▁접근할	-11.3594
ame	-11.3595
▁작품상	-11.3599
▁배아	-11.36
▁흉기	-11.36
▁과일	-11.3601
▁높이고	-11.3604
▁당선된	-11.3605
▁중년	-11.3608
치기	-11.3608
▁차고	-11.361
▁가하고	-11.3613
▁우주비행사들	-11.3614
▁쉐	-11.3614
▁캄	-11.3614
ong	-11.3615
▁심각하다	-11.3615
▁만행	-11.3619
▁되면서	-11.3622
▁켄	-11.3623
레즈	-11.3624
▁노동자들이	-11.3624
▁군의	-11.3626
▁거물	-11.3627
▁전술	-11.3628
▁개혁안	-11.363
▁끝내고	-11.363
▁맺었다	-11.3632
▁아랍어	-11.3633
▁알바	-11.3637
주기	-11.3639
▁만족한다	-11.3643
ill	-11.3644
▁동해	-11.3645
▁피로	-11.3648
▁영화로	-11.3649
▁이상으로	-11.365
▁거부하	-11.3651
▁여성으로	-11.3655
ock	-11.3655
▁외교관들	-11.3659
▁차지할	-11.3659
▁이동했다	-11.366
▁이용자들	-11.3661
▁방위	-11.3662
▁교도	-11.3664
▁수직	-11.3665
아웃	-11.3669
간다	-11.367
▁발사했다	-11.3672
죄	-11.3672
코트	-11.3673
▁극적	-11.3675
▁경쟁에서	-11.3676
▁수습	-11.368
▁이견	-11.3682
▁치료제	-11.3683
▁열리고	-11.3688
▁등장하	-11.3693
▁시대에	-11.3694
ors	-11.3696
▁워싱턴에	-11.3699
험	-11.3702
▁전임	-11.3704
▁결정될	-11.3716
착륙	-11.3725
▁빚어	-11.3729
▁설립한	-11.3729
▁표기	-11.373
▁장소에	-11.373
▁앤더슨은	-11.3732
▁해치	-11.3734
마드	-11.3735
▁ve	-11.3735
▁공격하기	-11.374
이면	-11.374
▁고정	-11.3741
▁관대	-11.3742
▁들어가기	-11.3742
▁마르코	-11.3749
▁마이크로	-11.3753
▁플로	-11.3753
▁전경	-11.3755
▁can	-11.3757
▁고집	-11.3758
▁시스템에	-11.3763
▁참가국들	-11.3766
시에	-11.3768
▁파괴된	-11.377
장소	-11.3771
▁지지율로	-11.3774
▁실려	-11.3776
촉	-11.3777
▁중재자	-11.3784
사실	-11.3786
▁메가	-11.3791
나마	-11.3791
여행	-11.3796
▁합의안	-11.3797
▁하에서	-11.3797
▁장례식에	-11.3798
ore	-11.3799
ney	-11.3799
▁클럽에서	-11.3801
증권	-11.3802
▁난자	-11.3805
▁반군에	-11.3806
머스	-11.3806
▁대학생들	-11.381
▁일반인들	-11.381
▁특파원이	-11.3812
더미	-11.3815
▁수퍼대의원	-11.3819
마른	-11.3819
문서	-11.3824
▁통과한	-11.3827
▁내용이다	-11.3835
▁판매하는	-11.3838
▁명명	-11.384
학자인	-11.3841
안이	-11.3843
▁노력으로	-11.3846
▁지점에	-11.3847
▁이라크로	-11.3854
킨스	-11.3855
중국	-11.386
▁의원들과	-11.386
▁미국내	-11.386
해졌	-11.3874
▁교착상태	-11.3879
▁랜드	-11.3885
▁쓰이	-11.3889
▁게임에	-11.3892
▁인정하고	-11.3896
▁증가시키	-11.3897
▁치르는	-11.3902
▁곳곳	-11.3902
▁토로	-11.3906
▁최근까지	-11.3906
▁램	-11.3906
▁고전	-11.3907
▁들어갔	-11.3912
▁간다	-11.3914
▁나갔	-11.3916
▁정상에	-11.3921
▁겪었	-11.3924
▁전문의	-11.3926
▁저널	-11.393
▁강화하기	-11.3931
▁비전	-11.3936
▁pop	-11.3939
▁작년에	-11.3944
▁도달했다	-11.3945
▁경의	-11.3945
▁mi	-11.395
▁중태라	-11.3952
럭	-11.3955
▁매케인과	-11.3956
▁테네시	-11.3956
▁년대에	-11.3957
▁검문	-11.3957
▁점에서	-11.3961
롯	-11.3961
▁부상당했다	-11.3964
탔	-11.3964
▁선거일	-11.3964
▁풀려	-11.3965
▁페트로	-11.3965
▁냉전	-11.3965
셜	-11.3965
▁australia	-11.3965
▁school	-11.3965
▁그린스펀	-11.3965
▁급상승	-11.3965
▁낙하산	-11.3965
▁농산물	-11.3965
▁대량살상무기	-11.3965
▁디얄라	-11.3965
▁라우터바흐	-11.3965
▁롱고리아	-11.3965
▁선거캠페인	-11.3965
▁슈나이더	-11.3965
▁앨라배마	-11.3965
▁언색호	-11.3965
▁오차범위	-11.3965
▁잃게	-11.3965
▁지구온난화	-11.3965
▁카메론	-11.3965
▁테헤란	-11.3965
쭉	-11.3965
▁올랜도	-11.3965
▁마스터스	-11.3965
▁유시프	-11.3965
▁저녁식사	-11.3965
▁퇴역	-11.3965
▁획기적	-11.3965
▁클레이코트	-11.3965
▁administration	-11.3965
▁정부청사	-11.3965
▁리더십	-11.3965
▁괴롭	-11.3965
▁황교수	-11.3965
▁졸릭	-11.3965
▁사냥꾼	-11.3965
▁poll	-11.3965
▁검열	-11.3966
▁six	-11.3966
▁tax	-11.3966
▁gnp	-11.3966
▁자살폭탄	-11.3966
▁fun	-11.3966
▁검시관	-11.3966
▁아르빌	-11.3966
▁줄어든	-11.3967
▁호킨스	-11.3967
▁안젤리	-11.3967
▁무엇인가	-11.3967
▁토끼	-11.3967
▁동맹관계	-11.3967
▁우편	-11.3967
▁반도체	-11.3967
▁그린랜드	-11.3967
▁자본주의	-11.3967
▁친밀	-11.3969
▁보도자료	-11.3969
▁아바타	-11.3969
▁오만	-11.3969
▁기념품	-11.3969
▁재능	-11.3969
▁증산	-11.397
▁발송	-11.397
▁교역	-11.397
▁불경기	-11.397
▁증오	-11.397
▁자유로운	-11.3971
▁늘어난	-11.3971
▁내다봤	-11.3971
▁친절	-11.3972
▁jp	-11.3972
▁샤론	-11.3972
▁서열	-11.3973
▁살짜리	-11.3973
▁회색	-11.3973
▁주머니	-11.3973
▁교차	-11.3973
▁탈세	-11.3974
▁선거자금	-11.3975
▁섬유	-11.3975
▁출간	-11.3975
▁잔디	-11.3975
▁한국전쟁	-11.3975
▁누설	-11.3976
▁린다	-11.3977
▁호위	-11.3978
▁미시간주	-11.3978
▁라틴	-11.3978
▁악명	-11.3978
▁학자들	-11.3978
▁총살	-11.3979
▁지난밤	-11.3979
▁베이비	-11.3979
▁동요	-11.3979
▁인천	-11.3979
▁상표	-11.3979
▁없음	-11.398
▁십만	-11.398
▁시몬	-11.3981
▁온실	-11.3981
▁충돌했다	-11.3981
▁파워	-11.3983
▁태어났다	-11.3985
▁울리	-11.3985
▁타운	-11.3986
▁신설	-11.3986
▁들어보	-11.3986
▁스파이스	-11.3987
▁참수	-11.3989
▁생선	-11.3989
라기	-11.399
유지	-11.3991
▁탈당	-11.3992
▁노벨상	-11.3992
런스	-11.3992
▁죄수	-11.3992
▁끌어들이	-11.3994
▁양호	-11.3994
▁피터슨	-11.3995
▁루디	-11.3997
▁유타	-11.3998
be	-11.3998
▁물리적	-11.3999
▁본즈	-11.4
▁선제	-11.4
▁어미	-11.4
▁종전	-11.4
▁제조회사	-11.4001
▁aid	-11.4002
벨리	-11.4003
▁국토안보부	-11.4003
▁프로그램과	-11.4004
▁받았습니다	-11.4004
▁kt	-11.4004
▁단일	-11.4008
▁진상	-11.4008
게임	-11.4008
▁배에	-11.4008
▁모였다	-11.4009
up	-11.401
▁비공식	-11.4012
▁생활에	-11.4012
파인	-11.4013
▁피우	-11.4014
▁놀이	-11.4015
▁주입	-11.4015
▁진정시키	-11.4015
▁보호소	-11.4016
▁자루	-11.4016
센터에서	-11.4016
▁경유	-11.4016
▁설립자	-11.4016
▁비행선	-11.4017
단계	-11.4017
▁졸	-11.4018
▁못하면	-11.4018
▁주정부	-11.4021
▁경상	-11.4021
▁허용하는	-11.4023
▁제기되	-11.4025
▁의사당	-11.4025
▁끝나지	-11.4026
▁중국정부	-11.4026
▁싱글	-11.4027
▁이민법	-11.4027
▁만들어내	-11.403
▁기여	-11.403
물질	-11.4031
▁qu	-11.4032
▁들어서	-11.4032
▁들어주	-11.4035
▁주둔군	-11.4035
out	-11.4036
▁되려	-11.4036
▁돌아가는	-11.4036
▁신성	-11.4037
▁나아	-11.4038
▁토로했다	-11.4039
▁서울시장	-11.4039
▁활	-11.404
▁파업이	-11.4041
▁성능	-11.4042
▁기대된다	-11.4043
▁서쪽으로	-11.4046
▁외계인	-11.4047
▁불거	-11.4049
▁한가지	-11.4051
▁적군	-11.4053
ern	-11.4053
▁작전에	-11.4053
▁내리지	-11.4054
▁샤프	-11.4054
▁실종됐다고	-11.4056
▁밝혀지	-11.4056
▁미군에	-11.4064
▁줄었다	-11.4065
▁효과적인	-11.4065
여금	-11.4067
▁만대	-11.4068
▁자란	-11.4068
▁의미하는	-11.407
▁막는	-11.4074
▁대신해	-11.4075
▁알려졌	-11.4076
▁통과할	-11.4078
▁무서	-11.4078
▁서부지역	-11.4079
▁의원과	-11.4081
▁맞지	-11.4085
▁근거지	-11.4089
▁해준다	-11.409
▁말했었다	-11.409
▁격려	-11.4092
▁싶어하	-11.4096
▁팔레스타인과	-11.4099
▁생각된다	-11.4101
▁금지된	-11.4101
▁외곽에서	-11.4101
▁위크	-11.4105
것이	-11.4106
▁생각할	-11.4107
▁관여하	-11.4109
▁살상	-11.4111
▁항해	-11.4114
▁해결하는	-11.4116
▁지불할	-11.4118
cent	-11.4119
▁수만	-11.4127
마저	-11.4138
▁요구해	-11.4143
▁아나	-11.4146
▁정국	-11.4148
▁로즈	-11.4151
▁연인	-11.4154
▁시선	-11.4158
▁순간에	-11.4158
▁일종	-11.416
▁식당에서	-11.416
났	-11.4162
tt	-11.4163
▁실시됐다	-11.4164
▁증거로	-11.4165
▁되어야	-11.417
▁건물들	-11.4171
대에서	-11.4172
▁투자가들	-11.4173
▁공급받	-11.4175
▁공해	-11.4177
▁바비	-11.4184
▁수행했다	-11.4187
▁멘	-11.4188
one	-11.419
길에	-11.419
▁수행한	-11.42
▁마련된	-11.4204
팀이	-11.4209
▁국내에서	-11.4209
▁지방에	-11.4213
▁일이었다	-11.4216
▁제품들	-11.4218
▁ev	-11.4219
라트	-11.4219
리코	-11.422
▁시작한다	-11.4225
▁행위로	-11.4227
재단	-11.4228
퍼스	-11.4228
휘	-11.4228
▁아프리카에서	-11.423
괴	-11.4231
러운	-11.4233
톱	-11.4234
head	-11.4234
팬	-11.4237
혁명	-11.424
▁유럽에	-11.4241
스트라	-11.4242
번호	-11.4244
▁오르는	-11.4246
대책	-11.4247
▁주도하고	-11.4248
지점	-11.4249
▁작고	-11.4252
▁아파트에서	-11.4253
▁브레	-11.4255
▁적지	-11.4261
▁보도된	-11.4262
▁파기	-11.4265
▁다스	-11.4265
▁지배하	-11.4265
▁배달	-11.4271
방안	-11.4272
글리	-11.428
lin	-11.4284
워크	-11.4286
범죄	-11.4289
▁성공할	-11.4307
▁여진	-11.4307
▁sun	-11.4312
▁요인이	-11.4313
▁가사	-11.4316
▁지어	-11.4317
화물	-11.4317
der	-11.4317
▁정말로	-11.4322
▁진출에	-11.4322
예프	-11.4327
▁영화화	-11.4328
▁나비	-11.4331
▁def	-11.4332
▁결함이	-11.4334
▁효과적	-11.4334
▁사고에	-11.4334
▁후송	-11.434
▁카라치	-11.434
▁간부들	-11.4342
▁검찰에	-11.4347
▁연기됐다	-11.4347
별로	-11.4347
▁선포한	-11.4352
▁하스	-11.4359
▁바그다드에	-11.4361
▁떠났	-11.4362
적이지	-11.4362
▁친구와	-11.4365
▁대조	-11.4366
정권	-11.4366
▁내야	-11.4367
▁너	-11.4369
▁모여들	-11.437
▁파견했다	-11.4374
▁운전자들	-11.4376
▁일본군	-11.438
▁도착해	-11.4383
▁중단된	-11.4385
▁닉	-11.4385
▁산업이	-11.4394
▁압도적	-11.4399
▁선박들	-11.44
클리	-11.44
▁위반했다	-11.4401
▁우주비행	-11.4403
▁우려하는	-11.4404
교수	-11.4406
▁구조됐다	-11.441
▁발표에	-11.4412
▁휩싸	-11.4412
므	-11.4415
▁피의자	-11.4418
▁총기난사	-11.4419
▁summit	-11.442
▁아이슬란드	-11.442
▁전화통화	-11.442
▁푸에르토리코	-11.442
헴	-11.442
▁beijing	-11.442
▁claim	-11.442
▁defense	-11.442
▁hsbc	-11.442
▁movie	-11.442
▁nymex	-11.442
▁society	-11.442
▁street	-11.442
▁system	-11.442
▁가라앉	-11.442
▁국제사면위원회	-11.442
▁김경준	-11.442
▁돈세탁	-11.442
▁땅콩	-11.442
▁몰디브	-11.442
▁믿음	-11.442
▁베스트셀러	-11.442
▁손해배상	-11.442
▁신천옹	-11.442
▁아라파트	-11.442
▁애널리스트	-11.442
▁우비넨	-11.442
▁자부심	-11.442
▁자이언트	-11.442
▁찍었다	-11.442
▁콘텐트	-11.442
▁페르난데스	-11.442
▁해리왕자	-11.442
넥	-11.442
밭	-11.442
▁가금류	-11.442
▁가석방	-11.442
▁갱신	-11.442
▁무중력	-11.442
▁폭넓	-11.442
▁황박사	-11.442
▁발레리	-11.442
▁오페라	-11.442
▁프리킥	-11.442
▁break	-11.442
▁차세대	-11.442
▁진원지	-11.442
▁후쿠다	-11.442
▁놀랍	-11.442
▁플레이오프	-11.442
▁라시드	-11.442
▁남서쪽	-11.442
▁트레킹	-11.442
▁브라더스	-11.442
▁딜리	-11.442
▁익사	-11.442
▁프레슬리	-11.442
▁강아지	-11.442
▁설문조사	-11.442
▁선제골	-11.442
▁삭스	-11.442
ship	-11.442
▁아이팟	-11.442
▁gps	-11.442
▁푸켓	-11.4421
▁왕궁	-11.4421
▁공동성명	-11.4421
▁화폐	-11.4421
▁다툼	-11.4421
▁삼성그룹	-11.4421
▁포옹	-11.4421
▁탑재	-11.4421
▁이틀째	-11.4421
▁침실	-11.4421
▁지방선거	-11.4421
▁인디언	-11.4421
▁메이저	-11.4421
▁프라임	-11.4422
▁투항	-11.4422
▁기부금	-11.4422
▁물러난	-11.4422
▁미술관	-11.4422
▁기차역	-11.4423
▁지저스	-11.4423
▁보건당국	-11.4423
▁웃음	-11.4423
▁fund	-11.4423
▁우익	-11.4424
▁단축	-11.4424
▁post	-11.4424
▁진열	-11.4424
▁않으려	-11.4424
▁맞춘	-11.4424
▁헌터	-11.4424
▁감각	-11.4425
▁터너	-11.4425
▁낙찰	-11.4425
▁다룰	-11.4425
▁해산물	-11.4425
▁빈번	-11.4426
▁석탄	-11.4426
▁무패	-11.4426
▁정교회	-11.4426
▁데이브	-11.4427
▁직위	-11.4427
▁선진국	-11.4427
▁동등	-11.4427
▁live	-11.4427
▁때에	-11.4428
▁교정	-11.4428
▁시민이	-11.4428
▁왕위	-11.4428
▁시께	-11.4428
▁북경	-11.4428
▁대기권	-11.4429
▁방위군	-11.4429
▁공표	-11.4429
▁변형	-11.4429
▁디에고	-11.443
▁랜	-11.443
▁선언문	-11.443
▁공범	-11.443
▁일자	-11.443
▁복부	-11.443
▁사이먼	-11.443
▁프로디	-11.4431
▁공항으로	-11.4431
▁국토	-11.4431
▁나이키	-11.4431
▁연정	-11.4436
▁콜린스	-11.4436
▁판명	-11.4437
▁능력이	-11.4437
▁서버	-11.4438
▁보리스	-11.444
▁우주복	-11.4441
▁린치	-11.4441
▁나온다	-11.4441
▁솜	-11.4441
▁펴	-11.4441
▁골든	-11.4442
▁콜로라도주	-11.4442
▁조각상	-11.4443
▁선동	-11.4443
▁영아	-11.4444
▁비정부	-11.4445
▁호박	-11.4445
▁예보	-11.4447
▁역전	-11.4448
▁결성	-11.4448
▁시합	-11.4448
▁실바	-11.4448
▁채무	-11.4449
▁세르	-11.445
▁좋았다	-11.445
▁딴	-11.445
▁풀어주	-11.4451
▁폐허	-11.4451
▁조직원들	-11.4452
▁툴	-11.4452
▁리터	-11.4452
▁손님들	-11.4454
▁sg	-11.4455
▁동부에	-11.4455
▁하위	-11.4456
▁버스에	-11.4456
▁주립	-11.4458
▁포도	-11.4458
▁제작진	-11.4459
▁장관급	-11.446
▁잔인	-11.4461
▁설치한	-11.4461
▁근본주의	-11.4461
▁내려오	-11.4465
▁저명	-11.4466
▁주차장에서	-11.4466
▁연어	-11.447
슬러	-11.447
▁결정한	-11.447
부장	-11.4471
▁감독과	-11.4471
블리	-11.4473
대상	-11.4473
▁승려	-11.4475
▁게시	-11.4476
▁주식시장이	-11.4476
▁돌아간	-11.4479
▁법에	-11.4479
링턴	-11.4479
▁정부기관	-11.4483
▁보험사	-11.4483
▁비중	-11.4484
▁목표물	-11.4484
▁곳곳에서	-11.4488
▁본부장	-11.449
▁교황이	-11.4491
▁접어들	-11.4492
▁국제법	-11.4492
▁쓰지	-11.4493
▁겁	-11.4493
▁친구인	-11.4493
▁의류	-11.4495
단체인	-11.4496
▁그럴	-11.4498
▁몰린	-11.4504
▁소행	-11.4506
리언	-11.4507
▁남부지역에서	-11.4507
▁시사했다	-11.4507
조건	-11.4508
▁다루는	-11.4508
▁템	-11.4508
▁영해	-11.4511
▁무장세력들	-11.4513
▁발표하면서	-11.4515
▁경호원들	-11.4518
▁경제학자	-11.4518
▁병이	-11.4519
▁주목할	-11.4519
ence	-11.452
▁당선됐다	-11.452
▁아크	-11.452
▁후속	-11.4522
▁하사	-11.4524
▁줬	-11.4524
▁여행자	-11.4524
▁하퍼	-11.4525
▁한국계	-11.4529
▁낮게	-11.4529
▁재료	-11.4529
▁기르	-11.453
▁확인하지	-11.453
▁배상	-11.4536
▁류	-11.4541
▁간호사	-11.4543
▁갇혀있	-11.4543
▁관여한	-11.4544
▁타이거	-11.4545
▁날에	-11.4545
▁일부분	-11.4548
und	-11.4548
허가	-11.4548
마라	-11.4549
▁젠	-11.455
▁움직이는	-11.4554
▁일삼	-11.4556
▁베이징에	-11.4556
▁가계	-11.4557
▁결혼했다	-11.4558
▁박스	-11.4558
▁이유에	-11.456
▁노력했다	-11.456
▁이스트	-11.4562
▁esta	-11.4564
▁space	-11.4564
▁영화들	-11.4568
▁총리로	-11.4569
▁떠나지	-11.4569
지스	-11.4571
▁전반에	-11.4571
▁제시할	-11.4578
▁자신만	-11.4579
▁희생자들이	-11.4579
▁우주로	-11.4581
▁숨지	-11.4583
▁공화당원들	-11.4584
해줬다	-11.4588
io	-11.4592
▁설립된	-11.4593
▁사건에서	-11.4594
▁단계적	-11.4595
▁교통부	-11.4601
▁담겨	-11.4608
▁토론회에서	-11.4611
▁발표했	-11.4612
▁매케인에	-11.4615
▁투자가	-11.4619
▁이용자	-11.4622
▁완화하기	-11.4622
▁신자	-11.4625
▁바람에	-11.4625
▁인터넷에서	-11.4627
▁계속됐다	-11.4627
▁사항이	-11.4628
▁ira	-11.4643
▁프로젝트에	-11.4645
▁팔리	-11.4652
▁올림픽에	-11.4653
▁결정하기	-11.4653
▁결심했다	-11.4654
▁목록에	-11.4655
▁압수했다	-11.466
▁드리	-11.4675
▁나사	-11.4677
대통령	-11.4682
▁개들	-11.4684
▁결정된	-11.4691
▁파키스탄과	-11.4693
▁내부에	-11.4694
▁한반도에	-11.4694
▁국제적으로	-11.4695
▁참가국	-11.4696
▁진도	-11.4696
▁신체적	-11.4697
학자들	-11.4697
▁수행하는	-11.4698
▁폭락했다	-11.4698
ge	-11.4698
▁가정에서	-11.47
특	-11.4701
▁한국측	-11.4703
민들	-11.4705
딕	-11.4707
풀	-11.4709
form	-11.4709
탐	-11.4713
책임자	-11.4714
밴드	-11.4714
투쟁	-11.4714
배우	-11.4715
분쟁	-11.4715
▁퇴원했다	-11.4717
▁지아	-11.4724
sh	-11.4726
rs	-11.4728
▁이혼했다	-11.4728
요금	-11.4729
모양	-11.4729
▁지명에	-11.4729
▁철학	-11.4735
체계	-11.4739
▁지원했다	-11.4739
됐기	-11.4741
하기위해	-11.4742
웠던	-11.4742
리드	-11.4745
▁차지했	-11.4748
▁돼있다	-11.4749
▁그곳	-11.475
▁악화된	-11.475
▁선정했다	-11.4752
ron	-11.4754
▁앉아있	-11.4754
▁작가들	-11.4755
▁과정이	-11.4757
▁방송이	-11.4763
▁직원과	-11.4763
▁블리	-11.4764
▁뒤지	-11.4765
리야	-11.4775
▁홍콩에서	-11.4776
▁레바논에서	-11.4784
실적	-11.4785
▁이행하	-11.4785
▁로이	-11.4785
▁부분에	-11.4786
uri	-11.4788
▁엑스	-11.4791
▁고리	-11.4794
▁여인	-11.4795
▁집회에서	-11.4796
스러워	-11.4797
▁시점에	-11.48
▁근본	-11.4805
▁캘리포니아에서	-11.4807
▁해결에	-11.4807
▁중단시키	-11.4809
▁잡혀	-11.4815
▁소방대원	-11.482
바인	-11.4825
▁방안에	-11.4834
▁방문하고	-11.4836
▁항의했다	-11.4837
▁돌아왔	-11.4839
▁미얀마에서	-11.484
do	-11.4841
▁일조	-11.4842
▁치열	-11.4844
▁실종됐다	-11.4845
▁찾았	-11.4845
▁젊은이들이	-11.4848
▁느껴	-11.4849
▁ko	-11.4854
▁유대인들	-11.4854
▁나타냈	-11.4858
▁불행	-11.4858
▁반군들	-11.4859
케르	-11.4862
▁대표와	-11.4867
티아	-11.4871
▁일정에	-11.4874
▁ph	-11.4878
▁실험에	-11.4881
▁주장했	-11.4882
▁자바	-11.4883
▁protest	-11.4884
▁중력	-11.4884
▁미네소타	-11.4886
끔	-11.4887
▁미주리	-11.4889
흥	-11.4891
▁pre	-11.4893
리트	-11.4894
▁더미	-11.4894
셋	-11.4894
▁agree	-11.4895
▁촉구하고	-11.4895
▁얼룩	-11.4896
벡	-11.4896
▁black	-11.4896
▁candidate	-11.4896
▁ecb	-11.4896
▁official	-11.4896
▁public	-11.4896
▁science	-11.4896
▁가로질러	-11.4896
▁그랜드슬램	-11.4896
▁라스무센	-11.4896
▁레드삭스	-11.4896
▁마터호른	-11.4896
▁맞교환	-11.4896
▁매릴랜드	-11.4896
▁믿지	-11.4896
▁불필요	-11.4896
▁비아그라	-11.4896
▁빈라덴	-11.4896
▁생태계	-11.4896
▁소렌스탐	-11.4896
▁스콜세지	-11.4896
▁스탤론	-11.4896
▁식이요법	-11.4896
▁신용경색	-11.4896
▁싫어하	-11.4896
▁알자지라	-11.4896
▁얼어붙	-11.4896
▁와지리스탄	-11.4896
▁유네스코	-11.4896
▁제너럴	-11.4896
▁주미대사	-11.4896
▁질렀다	-11.4896
▁코네티컷	-11.4896
▁투탕카멘	-11.4896
▁팽팽	-11.4896
▁펌프	-11.4896
▁포틀랜드	-11.4896
▁푸에르타	-11.4896
덟	-11.4896
▁russia	-11.4896
▁아메드	-11.4896
▁국가정보원	-11.4896
▁고마움	-11.4896
▁로드맵	-11.4896
▁만델라	-11.4896
▁헝가리	-11.4896
▁가이트너	-11.4896
▁텔레콤	-11.4896
▁남동쪽	-11.4896
▁밀리밴드	-11.4896
▁핑크	-11.4896
▁본거지	-11.4896
▁파이프라인	-11.4896
▁이뤄져야	-11.4896
▁아로요	-11.4896
▁외딴	-11.4896
▁거세지	-11.4896
▁journal	-11.4896
▁블레이크	-11.4896
▁납북	-11.4896
▁버클리	-11.4896
▁commission	-11.4897
▁몬테	-11.4897
▁불러일으키	-11.4897
▁투옥	-11.4897
▁창고	-11.4897
▁park	-11.4897
▁완승	-11.4897
ease	-11.4897
▁노출되	-11.4898
ition	-11.4898
▁세웠	-11.4898
▁재처리	-11.4898
▁신분증	-11.4898
▁우호적	-11.4898
▁음란물	-11.4898
▁점유율	-11.4899
▁청색	-11.4899
▁보험금	-11.4899
▁철강	-11.4899
▁faa	-11.4899
▁나이로비	-11.49
▁정황	-11.49
▁로얄	-11.49
▁증권거래소	-11.49
과학	-11.49
▁러브	-11.4901
▁정확하게	-11.4901
▁사절단	-11.4901
▁봅	-11.4901
▁함정	-11.4901
▁사촌	-11.4901
▁그래함	-11.4901
▁위안화	-11.4902
▁잠재력	-11.4902
▁hit	-11.4902
▁교실	-11.4902
▁바이든	-11.4902
▁버려진	-11.4903
▁은폐	-11.4903
▁투병	-11.4903
▁wti	-11.4903
▁부착	-11.4904
▁inc	-11.4904
▁절단	-11.4904
용품	-11.4904
▁붙였다	-11.4904
▁유머	-11.4904
▁forces	-11.4905
▁경색	-11.4905
▁첫째	-11.4905
▁진심	-11.4906
▁있느냐	-11.4906
▁사탕	-11.4906
▁화물선	-11.4906
▁위헌	-11.4907
▁긴장감	-11.4907
▁노엘	-11.4907
▁통역	-11.4907
평가	-11.4909
▁앞서있다	-11.491
▁인준	-11.4911
▁육상	-11.4911
▁파타당	-11.4911
▁마샤	-11.4912
▁엔화	-11.4914
▁전인대	-11.4914
▁대통령궁	-11.4914
▁판결문	-11.4915
▁시청률	-11.4917
▁애정	-11.4917
▁육성	-11.4918
▁있을까	-11.4919
▁정당화	-11.492
▁투하	-11.492
▁달렸다	-11.492
▁쿠즈	-11.492
▁줄리아	-11.492
▁히스	-11.4921
▁들어있	-11.4921
▁자체적으로	-11.4921
▁차에	-11.4922
▁분배	-11.4923
▁박차	-11.4923
▁연맹	-11.4924
▁사람으로	-11.4925
▁금융계	-11.4925
▁치우	-11.4926
▁공공장소에서	-11.4926
▁장애물	-11.4927
▁가이드	-11.4928
▁장점	-11.4928
▁루즈	-11.4928
▁대열	-11.4929
▁집이	-11.4929
▁높았다	-11.493
▁감행한	-11.4932
▁금주	-11.4934
▁감수	-11.4935
▁석방에	-11.4935
▁발명	-11.4936
▁내달	-11.4937
▁팔아	-11.4937
▁합법적으로	-11.4938
▁치아	-11.4939
▁취업	-11.494
▁치료법	-11.494
▁전념	-11.4941
▁금연법	-11.4945
▁펜실베이니아주	-11.4947
▁테러범이	-11.4948
▁들어왔다	-11.4948
▁크라우	-11.4952
▁동상	-11.4953
▁매력적	-11.4954
▁인종차별	-11.4955
▁들소	-11.4956
▁합법적인	-11.4956
▁서울대	-11.4959
▁신선	-11.4959
▁남부지역	-11.4961
▁당이	-11.4962
▁샬	-11.4965
▁수영장	-11.4965
▁국가와	-11.4965
▁이사장	-11.4969
▁납치범	-11.4971
▁문어	-11.4974
▁왕국	-11.4976
▁사우	-11.4977
▁의존하고	-11.498
▁양곤에서	-11.4981
▁투표소	-11.4982
▁출판사	-11.4982
▁확산되	-11.4982
▁사단	-11.4982
▁예상치	-11.4983
▁견디	-11.4989
▁대통령으로서	-11.499
▁움	-11.499
▁기간이	-11.4991
▁비티	-11.4991
▁교착상태에	-11.4991
▁올드	-11.4994
▁라파	-11.4995
ger	-11.4995
▁경찰관들	-11.4996
▁언론인	-11.4996
▁측면에서	-11.4998
▁이라크인들	-11.4999
▁맞을	-11.5
▁이행할	-11.5001
▁실질적으로	-11.5003
▁조화	-11.5004
▁전용기	-11.5004
▁우주센터	-11.5006
▁빼고	-11.5006
▁주심	-11.5007
than	-11.5007
▁목에	-11.5008
▁혼인	-11.501
ton	-11.5012
▁음와	-11.5015
▁북한군	-11.5015
▁생물학적	-11.5017
▁영화관	-11.5018
▁분리주의자들	-11.5025
ift	-11.503
▁만회	-11.503
▁심리학	-11.5031
▁오르기	-11.5035
▁이슬라마바드에서	-11.5036
▁토레	-11.5038
레시	-11.5047
▁호주군	-11.5049
▁손상된	-11.5049
air	-11.505
▁변수	-11.5055
▁랩	-11.5057
▁카불에서	-11.5057
▁등정	-11.5058
▁적게	-11.506
▁이끌어내	-11.5064
▁모델로	-11.5068
시민	-11.5068
▁고고학자	-11.5072
▁확보해	-11.5079
▁조사팀	-11.508
▁전사들	-11.5081
▁궤도에	-11.5087
tive	-11.5089
▁작전이	-11.5089
▁친척들	-11.509
▁확보에	-11.5094
▁경찰관이	-11.5103
▁측근들	-11.5103
▁충돌해	-11.5104
▁조차	-11.5105
▁수용소에	-11.5105
▁대응할	-11.5106
▁임명했다	-11.5107
▁서명한	-11.5107
▁착용한	-11.511
▁연결하	-11.5111
▁자식	-11.5113
▁엔지니어	-11.5113
▁발효	-11.5114
▁등록된	-11.5116
▁중위	-11.512
▁명만	-11.5121
▁컨	-11.5122
▁그루	-11.5122
란다	-11.5123
내기	-11.5125
▁다치	-11.5129
▁검	-11.5132
▁사고기	-11.5132
▁fc	-11.5132
▁가나	-11.5137
▁벨리	-11.5138
▁하우스	-11.514
▁잃어	-11.5148
tter	-11.515
▁행정부에	-11.515
머니	-11.5151
▁안고	-11.5151
▁다운	-11.5152
훈련	-11.5154
▁결의안이	-11.5166
줬	-11.5171
▁입히	-11.5171
▁강화된	-11.5178
▁바라보	-11.5182
▁시도하	-11.5182
ile	-11.5183
▁유전적	-11.5184
illi	-11.5186
켜	-11.5187
▁우려해	-11.5193
▁얀	-11.5197
▁프로그램에서	-11.5197
▁하와	-11.5206
▁전비	-11.5207
▁제조업	-11.5207
첸	-11.5208
▁지원에	-11.5208
cy	-11.5208
털	-11.5211
사무소	-11.5211
week	-11.5212
핵	-11.5213
q	-11.5214
▁포기한	-11.5214
▁치명적	-11.5214
금융	-11.5216
음악	-11.5218
민족	-11.5219
▁중단됐	-11.5221
▁글로	-11.5223
▁나이에	-11.5225
▁폭발물이	-11.5227
▁일반인	-11.5229
▁대면	-11.5232
▁충족	-11.5234
▁고등	-11.5235
이라크	-11.5237
부족	-11.5239
▁좌	-11.5241
▁회복하고	-11.5242
노스	-11.5243
▁관계자와	-11.5247
공원	-11.525
▁흐	-11.5261
▁과다	-11.5264
▁배우자	-11.5267
▁교회에	-11.5269
▁무장세력과	-11.527
상품	-11.5271
메스	-11.5272
▁올림픽에서	-11.5273
있으며	-11.5274
▁합법적	-11.5289
▁벌여왔	-11.5295
▁혈	-11.5297
▁마련해	-11.5299
▁민영	-11.53
감시	-11.5301
▁집중적	-11.5301
▁소행이라	-11.5304
▁서기	-11.5305
▁처했다	-11.5308
▁요구한다	-11.5309
▁기업체	-11.531
▁해법	-11.5311
▁ag	-11.5312
▁시행되	-11.5312
▁걸리는	-11.5313
▁의문이	-11.5316
▁타지	-11.5317
▁공로	-11.5321
day	-11.5324
▁월말	-11.5324
▁팀에	-11.5331
▁외계	-11.5332
▁공산	-11.5334
▁스티	-11.5336
▁위험하다	-11.5337
▁트럭이	-11.5339
▁수단으로	-11.5339
▁이뤄졌	-11.5341
▁만나고	-11.5342
▁가혹	-11.5344
▁격돌한	-11.5348
▁파괴되	-11.5349
▁붕괴되	-11.535
▁중앙정보	-11.5356
▁정규	-11.5358
컷	-11.5359
투자	-11.536
▁나이로	-11.5362
▁미끄러	-11.5363
▁연구자들	-11.5365
▁사령관이	-11.5369
파크	-11.537
▁몰리	-11.5372
▁태어났	-11.5373
▁해역	-11.5378
▁제의	-11.5379
▁조세	-11.538
▁밀집	-11.5381
▁혐의와	-11.5382
어드	-11.5384
▁바다에	-11.5385
ful	-11.5385
▁수준에	-11.5386
▁기록됐다	-11.5388
번에	-11.5388
획	-11.5389
▁뒤따	-11.5392
▁관리들과	-11.5392
랙	-11.5395
돔	-11.5395
엽	-11.5396
펀	-11.5396
▁나이트클럽	-11.5396
▁앵커	-11.5396
랫	-11.5396
ough	-11.5396
▁rctv	-11.5396
▁support	-11.5396
▁uae	-11.5396
▁window	-11.5396
▁www	-11.5396
▁갖췄다	-11.5396
▁갤러리	-11.5396
▁끊어	-11.5396
▁네그로폰테	-11.5396
▁뉴욕상업거래소	-11.5396
▁뚜렷	-11.5396
▁매카트니	-11.5396
▁명확한	-11.5396
▁쌓인	-11.5396
▁쓰러져	-11.5396
▁아흐마디네자드	-11.5396
▁영유권	-11.5396
▁와이오밍	-11.5396
▁즈보나레바	-11.5396
▁초콜릿	-11.5396
▁해안경비대	-11.5396
▁햇볕	-11.5396
▁현수막	-11.5396
▁흑자	-11.5396
뜯	-11.5396
팍	-11.5396
푼	-11.5396
▁heart	-11.5396
▁신생아	-11.5396
▁자민당	-11.5396
▁glob	-11.5396
▁갱단	-11.5396
▁홈구장	-11.5396
▁딜런	-11.5396
▁아폴로	-11.5396
▁로날드	-11.5396
▁피해여성	-11.5396
▁포츠머스	-11.5396
▁마리화나	-11.5396
▁몰아넣	-11.5396
▁무자비	-11.5396
▁프리츨	-11.5396
▁함부르크	-11.5396
▁아이다호	-11.5396
uck	-11.5396
▁강원도	-11.5396
▁해들리	-11.5396
▁휴이트	-11.5396
▁발자국	-11.5396
▁마스리	-11.5396
▁독특	-11.5396
▁룰라	-11.5396
▁게놈	-11.5396
▁food	-11.5396
▁연못	-11.5396
▁봉착	-11.5396
▁자들	-11.5396
▁흘리	-11.5396
▁다이앤	-11.5396
▁이용했다	-11.5396
▁오스만	-11.5396
▁rock	-11.5396
▁가르시아	-11.5397
▁에어웨이	-11.5397
▁웰스	-11.5397
▁눈보라	-11.5397
▁노인들	-11.5397
▁출항	-11.5397
▁혜성	-11.5397
▁무하마	-11.5397
▁도미니카	-11.5397
▁혼잡	-11.5397
▁창업자	-11.5397
▁순결	-11.5397
que	-11.5398
▁잡혔다	-11.5398
▁잠비아	-11.5398
▁크로스	-11.5398
▁척추	-11.5398
▁매도프	-11.5398
▁라싸	-11.5399
▁막으려	-11.5399
▁사무국장	-11.5399
▁지방법원	-11.5399
▁제이슨	-11.5399
▁사나	-11.5399
▁거슬러	-11.5399
▁돌풍	-11.5399
▁내놓았다	-11.5399
▁연구하는	-11.54
▁선고받았다	-11.54
▁팔레스타인인	-11.54
▁바랍	-11.54
▁파이프	-11.5401
▁야외	-11.5401
▁참의원	-11.5401
▁test	-11.5401
▁단언	-11.5401
▁기원전	-11.5402
▁인질극	-11.5402
▁묻혀	-11.5402
▁훔쳐	-11.5402
▁떨어졌습니다	-11.5402
▁메모리	-11.5403
▁법령	-11.5404
▁독립국가	-11.5405
▁인텔	-11.5405
▁재앙	-11.5405
▁투여	-11.5405
▁해리슨	-11.5405
az	-11.5405
▁악마	-11.5406
▁막았다	-11.5406
▁걸음	-11.5406
▁사라질	-11.5406
▁도착하자	-11.5406
▁mid	-11.5406
▁조사결과	-11.5407
▁초드리	-11.5407
▁비참	-11.5407
▁green	-11.5408
▁인수위원회	-11.5408
▁복사	-11.5409
▁카이로	-11.5411
▁조립	-11.5411
▁농부들	-11.5411
▁조율	-11.5412
▁순수	-11.5412
▁공작	-11.5413
▁태세	-11.5413
▁남긴	-11.5414
▁실감	-11.5414
▁승진	-11.5417
▁부양	-11.5417
▁살리기	-11.5418
▁다행	-11.5419
▁케이스	-11.5419
▁prosecutor	-11.542
아주	-11.542
▁구두	-11.542
▁번개	-11.542
▁배역	-11.5421
light	-11.5422
비드	-11.5422
▁편집장	-11.5422
▁힐러리경	-11.5423
▁가져왔다	-11.5423
▁아이오와주	-11.5424
▁별개	-11.5424
▁심리학자	-11.5428
▁들려	-11.5429
▁점심	-11.5429
▁멍	-11.543
▁그래픽	-11.543
▁센트럴	-11.543
▁근본적	-11.5431
▁따내	-11.5432
▁서구	-11.5432
▁임상	-11.5433
▁정박	-11.5433
▁통과된	-11.5435
▁목성	-11.5435
▁부인이	-11.5435
▁기종	-11.5437
▁예산안	-11.544
▁레이드	-11.5441
▁버드	-11.5444
▁손길	-11.5444
▁불명	-11.5445
▁추종자들	-11.5446
▁마루	-11.5446
▁죽였다	-11.5447
▁동거	-11.5448
▁os	-11.5448
▁도피	-11.5448
▁기술자들	-11.545
▁포즈	-11.545
▁동력	-11.545
▁구성원	-11.545
▁미션	-11.5452
▁리우	-11.5452
▁포크	-11.5453
▁low	-11.5455
▁토드	-11.5455
▁카디	-11.5457
▁띠	-11.5458
▁참석하는	-11.5459
▁째	-11.5459
하느냐	-11.546
▁캐나다에서	-11.5461
▁티나	-11.5462
▁없었고	-11.5464
▁중립	-11.5464
▁본인	-11.5464
능력	-11.5467
▁적도	-11.5472
▁따라잡	-11.5474
▁ser	-11.5475
▁관광객들에게	-11.5477
▁개정된	-11.5478
▁조심	-11.5478
▁마시는	-11.5481
▁밀리	-11.5482
▁빨라	-11.5483
▁끌어내	-11.5483
▁기용	-11.5487
▁공개될	-11.5491
▁기각했다	-11.5495
▁발표되지	-11.5498
▁미얀마에	-11.55
▁ump	-11.5501
▁중태	-11.5502
▁추락해	-11.5506
▁만연	-11.5507
▁북해	-11.5508
▁무거	-11.5509
▁이제까지	-11.5509
▁버린	-11.5511
▁집어	-11.5513
▁여왕이	-11.552
▁공격해	-11.5525
내려	-11.5526
▁났	-11.5531
▁본회의	-11.5532
▁정해진	-11.5533
인당	-11.5534
eve	-11.5535
▁연행됐다	-11.5536
▁지지했다	-11.5537
▁마주	-11.5537
▁두번째로	-11.5538
▁law	-11.5538
▁부분에서	-11.5538
▁길게	-11.5539
▁지나간	-11.5541
▁나타난다	-11.5544
ord	-11.5546
카트	-11.5547
▁쓰인	-11.5549
판매	-11.5549
▁슈퍼대의원	-11.5552
▁숨어	-11.5554
▁주시하	-11.5555
▁빌라	-11.5559
▁신뢰할	-11.5561
스프링스	-11.5565
▁몰아내	-11.5567
bar	-11.5567
▁잘라	-11.5568
▁션	-11.5572
▁이집트에서	-11.5581
▁노린	-11.5582
ark	-11.5586
▁해일	-11.5587
▁ver	-11.5589
이상	-11.559
다르	-11.5593
▁잡았	-11.5594
건설	-11.5597
아갈	-11.5598
▁가져가	-11.5601
▁제품이	-11.5602
▁광장에서	-11.5602
▁이겨	-11.5604
▁교사들	-11.5604
▁head	-11.5605
▁위협받	-11.5609
▁주석이	-11.5611
비안	-11.5615
▁시간만	-11.5616
▁발견해	-11.5631
▁ya	-11.5632
▁조사관	-11.5632
▁지켜보고	-11.5635
▁해안가	-11.5637
▁결정하지	-11.5646
▁무대에	-11.5652
데릭	-11.5654
▁가야	-11.5655
낸다	-11.5655
▁납치됐	-11.566
▁주최한	-11.5661
▁차이나	-11.5661
▁경기장에서	-11.5667
▁라드	-11.567
▁시간으로	-11.567
워스	-11.5671
▁대장	-11.5673
봤다	-11.5676
▁월스트리트에서	-11.5678
▁주도하	-11.5679
▁외곽에	-11.5679
▁동물원에서	-11.5682
보면	-11.5683
▁높이기	-11.5687
▁아서	-11.5687
▁센터에서	-11.5688
▁여당이	-11.5688
▁이었다	-11.5694
▁월터	-11.5703
물리학	-11.5708
▁보내지	-11.572
▁구속했다	-11.5721
▁샌프란시스코에서	-11.5725
▁구속됐다	-11.5729
▁운영되	-11.5729
our	-11.5733
뜨	-11.5734
앞	-11.5735
▁북한측	-11.5736
끄	-11.5736
재판소	-11.5736
전략	-11.5739
앨	-11.5739
▁동의한다	-11.5742
▁운항이	-11.5747
브레	-11.5747
▁상점들	-11.5749
red	-11.5751
관광	-11.5753
할때	-11.5758
에너지	-11.5759
연방	-11.576
▁생산된	-11.576
▁하드	-11.5779
▁팔레스타인인들	-11.5779
▁대상자	-11.5781
▁bl	-11.5787
호프	-11.5787
신원	-11.5789
▁제국	-11.5793
no	-11.5794
단지	-11.5794
▁심리적	-11.5796
▁효율	-11.5804
▁내부에서	-11.5807
▁아사	-11.5808
▁고속도로에서	-11.5811
▁mp	-11.5811
▁정신병	-11.5817
▁앗아	-11.5824
▁실종됐	-11.5825
▁방문한다	-11.5826
▁않았다면	-11.5826
▁졌다	-11.5827
▁방에서	-11.5829
▁임무에	-11.5835
▁하기로	-11.5836
▁전제	-11.5836
▁마드리드에서	-11.5836
▁나간	-11.5843
▁십년	-11.5843
▁모가디슈	-11.5845
마크	-11.5845
▁차장	-11.5845
전화	-11.5848
▁역할에	-11.5851
벨라	-11.5853
pt	-11.5854
▁sen	-11.5856
▁금요일에	-11.5862
▁조사하는	-11.5863
▁하루만	-11.5865
▁che	-11.5867
▁구사	-11.5867
▁들어왔	-11.5874
▁설립했다	-11.5879
▁인체	-11.5879
▁해왔	-11.5879
▁절반이	-11.5882
▁회사에서	-11.5888
▁업무에	-11.5893
요원들	-11.59
▁기념하	-11.5901
▁아비	-11.5901
모리	-11.5903
▁했는지	-11.5905
▁시청자	-11.591
▁right	-11.5912
븐	-11.5914
▁수개월	-11.5915
칙	-11.5917
첩	-11.5918
듬	-11.592
깃	-11.592
▁meet	-11.592
▁혐오	-11.5921
▁첨단	-11.5922
뮤	-11.5922
employ	-11.5922
▁economy	-11.5922
▁hostage	-11.5922
▁strike	-11.5922
▁travel	-11.5922
▁가깝게	-11.5922
▁가솔린	-11.5922
▁꿀벌	-11.5922
▁낳았다	-11.5922
▁니스텔로이	-11.5922
▁동성결혼	-11.5922
▁디스플레이	-11.5922
▁르완다	-11.5922
▁리트비넨코	-11.5922
▁메르세데스	-11.5922
▁미항공우주국	-11.5922
▁박정희	-11.5922
▁방코델타아시아	-11.5922
▁버틀러	-11.5922
▁베를루스코니	-11.5922
▁북대서양	-11.5922
▁불매운동	-11.5922
▁선거유세	-11.5922
▁성매매	-11.5922
▁아제르바이잔	-11.5922
▁앙카라	-11.5922
▁애틀랜티스호	-11.5922
▁요하네스버그	-11.5922
▁인공위성	-11.5922
▁자르카위	-11.5922
▁정권인수팀	-11.5922
▁조선일보	-11.5922
▁좋겠다	-11.5922
▁찍힌	-11.5922
▁칠면조	-11.5922
▁키드먼	-11.5922
▁토튼햄	-11.5922
▁핸드폰	-11.5922
늬	-11.5922
옌	-11.5922
▁usgs	-11.5922
▁니제르	-11.5922
▁밀라노	-11.5922
▁순이익	-11.5922
▁스즈키	-11.5922
▁영사관	-11.5922
▁잠수함	-11.5922
▁재규어	-11.5922
▁합법화	-11.5922
콥	-11.5922
▁power	-11.5922
▁나뉘어	-11.5922
▁오사카	-11.5922
▁원자재	-11.5922
▁사직서	-11.5922
▁카펠로	-11.5922
▁비너스	-11.5922
▁징조	-11.5922
▁와일드	-11.5922
▁핀란드	-11.5922
▁막바지	-11.5922
▁옥스포드	-11.5922
▁셰퍼드	-11.5922
▁관절염	-11.5922
▁대운하	-11.5922
▁사형선고	-11.5922
▁심장질환	-11.5922
▁반세기	-11.5922
▁페라로	-11.5922
▁블랙워터	-11.5922
▁참혹	-11.5922
▁프라이스	-11.5922
▁반짝이	-11.5922
▁묵념	-11.5922
▁즐거움	-11.5922
▁노숙자	-11.5923
▁하이킹	-11.5923
▁그리핀	-11.5923
▁몸싸움	-11.5923
▁액션	-11.5923
▁체첸	-11.5923
▁아이튠	-11.5923
▁역전승	-11.5923
▁파란색	-11.5923
▁드라이브	-11.5923
▁bill	-11.5923
▁move	-11.5923
▁빠져나가	-11.5923
▁음향	-11.5923
point	-11.5923
▁휘말	-11.5923
▁인내심	-11.5923
▁번화가	-11.5923
▁그린존	-11.5924
▁부유층	-11.5924
▁군복무	-11.5924
▁재건축	-11.5924
▁바오로	-11.5924
▁크리스틴	-11.5924
▁롭	-11.5924
▁곤경에	-11.5924
▁관례	-11.5924
▁농부	-11.5924
▁쏟아져	-11.5924
▁형벌	-11.5924
▁휴먼	-11.5925
▁소방차	-11.5925
▁파라오	-11.5925
▁불빛	-11.5925
▁원주민들	-11.5925
▁좌우	-11.5925
▁정회장	-11.5925
▁오닐	-11.5925
▁soldiers	-11.5925
▁노워크	-11.5925
▁가정집	-11.5926
▁꾸미	-11.5926
▁괴물	-11.5926
▁연봉	-11.5926
▁생물체	-11.5927
▁환급	-11.5927
▁직무	-11.5928
▁뭉	-11.5928
▁같아	-11.5928
▁아흐메드	-11.5928
▁연합통신	-11.5928
▁이송됐으	-11.5928
▁마스크	-11.5928
▁어디서	-11.5929
▁카타르	-11.5929
▁난항	-11.5929
▁라이더	-11.5929
▁부국장	-11.5929
▁접종	-11.5929
▁리틀	-11.5929
▁요구사항	-11.593
▁숨져	-11.593
▁푸미	-11.593
▁미주리주	-11.593
▁가져오	-11.593
▁샤리아	-11.593
시킴	-11.5931
▁우표	-11.5931
▁드러나	-11.5931
▁deal	-11.5931
▁카누	-11.5931
▁표범	-11.5932
▁기다렸다	-11.5932
▁티모	-11.5932
▁꼬리	-11.5932
▁제약회사	-11.5932
▁사귀	-11.5932
▁과거사	-11.5933
▁친분	-11.5933
▁난처	-11.5934
▁미시건주	-11.5934
▁반란군	-11.5934
▁속출	-11.5934
▁비틀	-11.5935
▁휘트	-11.5936
▁건이	-11.5936
▁유타주	-11.5936
▁사과문	-11.5937
▁aft	-11.5937
▁굽	-11.5938
▁경감	-11.5938
▁지켜봤다	-11.5938
▁카렌	-11.594
▁루이지애나주	-11.594
▁타개	-11.594
▁그레이스	-11.594
▁사립	-11.594
▁놓인	-11.594
▁각료회의	-11.5941
▁백만명	-11.5941
▁만들어졌다	-11.5941
▁구제금융안	-11.5942
▁테디	-11.5943
▁생길	-11.5943
▁그런데	-11.5943
▁애리조나주	-11.5944
▁며칠간	-11.5944
▁때가	-11.5945
뒀다	-11.5946
▁여건	-11.5946
▁넘겼다	-11.5946
▁김영	-11.5947
▁매설	-11.5947
▁벤치	-11.5948
▁표정	-11.5952
▁회복세	-11.5952
▁형량	-11.5952
▁펜실베니아주	-11.5954
▁해커	-11.5954
▁외신	-11.5954
▁치타	-11.5956
▁적들	-11.5957
▁기준에	-11.596
▁거행	-11.596
▁않았기	-11.5961
▁들렸다	-11.5961
▁들어있다	-11.5963
▁블루스	-11.5967
▁민족주의	-11.5967
clu	-11.5967
▁확정된	-11.5967
▁해외로	-11.5967
▁반경	-11.5969
▁연관성	-11.5971
▁주장했었다	-11.5971
▁소원	-11.5972
▁총력	-11.5972
▁돌진	-11.5973
▁날려	-11.5974
▁반응이	-11.5974
▁구직	-11.5974
▁쉴	-11.5976
▁이빨	-11.5976
▁카카	-11.5977
▁압도적으로	-11.5978
▁문명	-11.5978
▁찔	-11.5978
▁인내	-11.5982
▁책상	-11.5982
▁은신	-11.5982
▁여론조사에	-11.5983
▁질병에	-11.5983
▁쉽다	-11.5984
▁레비	-11.5985
▁불행한	-11.5988
▁보잉사	-11.5988
▁퓨	-11.5988
▁끝나기	-11.5989
▁수송기	-11.5989
▁루트	-11.5989
▁입원해	-11.5991
▁최다	-11.5997
▁우수	-11.5999
▁나포	-11.6
▁정보원	-11.6001
▁벌인다	-11.6001
▁가담한	-11.6001
변화	-11.6004
▁스트리트	-11.6009
▁의약	-11.6011
▁저하	-11.6012
▁언론들	-11.6012
▁산책로	-11.6013
▁나노	-11.6014
▁예상한	-11.6015
▁구속력	-11.6016
▁자질	-11.6016
▁개체	-11.6017
▁urge	-11.6018
▁복도	-11.6019
▁cut	-11.6019
▁명절	-11.6019
▁통과했다	-11.6019
▁호전	-11.6019
▁컬	-11.602
▁상징으로	-11.6021
dict	-11.6023
▁놓치	-11.6026
▁한창	-11.6026
▁국가적	-11.6028
ism	-11.6029
▁주행	-11.6034
▁힘들었	-11.6039
▁모색하고	-11.604
▁교류	-11.6044
▁플로리다에	-11.605
▁국경지역에서	-11.6052
▁건스	-11.6052
▁다닐	-11.6052
▁천국	-11.6054
▁정서	-11.6055
ler	-11.6055
ey	-11.6059
▁가시	-11.6062
▁이겼다	-11.6063
▁병장	-11.6069
▁단계로	-11.6071
▁사원에	-11.6072
▁인사들과	-11.6072
▁매도	-11.6072
▁추방된	-11.6083
▁남쪽에	-11.6091
▁인종적	-11.6094
바드	-11.6095
▁법규	-11.61
▁진압하기	-11.6101
▁지시한	-11.6102
▁석유회사	-11.6104
▁청문회에서	-11.6106
▁국가들에	-11.612
▁클레이	-11.6126
▁고독	-11.6128
▁제한하	-11.6132
▁번에	-11.6135
▁추측이	-11.6136
▁희생됐다	-11.6137
▁실직자	-11.6138
▁얼굴에	-11.6138
▁행복한	-11.6139
▁시위대에	-11.6146
▁분주	-11.6148
▁고민	-11.6148
▁기기	-11.6149
▁권했다	-11.6152
▁수단이	-11.6153
밀리에	-11.616
arly	-11.6162
▁결혼한	-11.6164
▁wid	-11.6165
▁자랑하	-11.6167
▁조심스럽	-11.6169
▁기업에	-11.6169
▁크루	-11.617
▁환경에서	-11.6175
▁물건들	-11.6175
▁사람들에	-11.6175
▁이재민들	-11.6176
▁프린	-11.6185
rop	-11.6187
곳	-11.6189
▁시드니에서	-11.6193
▁이르다	-11.6194
▁목적지	-11.6194
▁섭	-11.6194
men	-11.6195
▁져야	-11.6195
▁도발적	-11.6196
▁번호	-11.6201
▁증상이	-11.6205
▁거부할	-11.6206
ling	-11.621
▁참여하고	-11.6212
▁매춘부	-11.6213
▁위원회에	-11.6214
▁콜로	-11.6216
▁보스	-11.6217
▁때보다	-11.622
타카	-11.6222
▁부각	-11.6222
▁주어진	-11.6229
▁살아있	-11.6229
▁bp	-11.6233
가렛	-11.6238
hot	-11.6238
▁자원봉사자들	-11.6239
빨	-11.6239
브리지	-11.624
▁동원됐다	-11.6243
▁세상에	-11.6247
▁죽었	-11.6252
▁이어져	-11.6254
정치	-11.6254
▁임원들	-11.6255
▁레인	-11.6259
닐	-11.626
▁북쪽에	-11.6264
▁만들어지	-11.6271
▁위원회에서	-11.6273
▁지지해	-11.6274
밤	-11.6276
▁비난해	-11.6278
▁부문에	-11.6279
▁현대적	-11.6291
랩	-11.6292
붙	-11.6294
턱	-11.6294
▁후보였	-11.6294
시리즈	-11.6296
뒤	-11.6296
카니	-11.6296
▁국무장관과	-11.6297
최초	-11.6297
▁다리에	-11.6302
진압	-11.6307
▁불만이	-11.6308
워터	-11.6312
▁마티	-11.6315
▁정상회담에	-11.6317
화씨	-11.6319
▁프로그램들	-11.632
▁미미	-11.6323
▁소녀들	-11.6329
▁롱	-11.6331
▁어기	-11.6333
▁죽고	-11.6336
▁명이었다	-11.6337
▁권장	-11.6345
▁조사관들	-11.6346
▁별장	-11.6348
▁기독교인	-11.6349
▁사용된다	-11.635
ali	-11.635
방식	-11.6353
rate	-11.6357
▁이동하	-11.6361
▁차량과	-11.6364
▁아프간군	-11.6365
▁제작했다	-11.6366
▁상반	-11.6379
▁생겼	-11.6384
▁다해	-11.6385
루드	-11.6385
▁손실이	-11.6386
▁시달리	-11.6387
▁느끼지	-11.6389
▁노출된	-11.6392
▁존재하	-11.6394
▁통과하	-11.6394
▁달했다	-11.6399
▁im	-11.6399
▁헌법에	-11.6399
▁전차	-11.6401
철도	-11.6403
▁모델이	-11.6404
▁허용했다	-11.6408
바락	-11.6414
▁거부하는	-11.6417
▁따르지	-11.6421
▁의거	-11.6427
▁설명하지	-11.643
▁단계에서	-11.6434
▁벌이다	-11.6436
관리국	-11.6437
ncy	-11.644
▁좋았	-11.6441
action	-11.6442
▁유학	-11.6444
▁훔	-11.6445
자키	-11.6447
▁촉진시키	-11.6451
지역으로	-11.6452
▁corp	-11.6455
▁터뜨	-11.6459
▁덧붙였	-11.6459
심리	-11.6461
▁극단주의	-11.6461
▁계열	-11.6462
▁역설	-11.6466
▁바람직	-11.6467
▁기사에	-11.6473
▁사진기자	-11.6473
옹	-11.6474
▁신행정수도	-11.6475
▁kill	-11.6477
▁힌두	-11.6477
▁살모넬라	-11.6477
▁변호사와	-11.6478
▁expect	-11.6478
▁business	-11.6478
▁california	-11.6478
▁committee	-11.6478
▁dead	-11.6478
▁epl	-11.6478
▁isaf	-11.6478
▁nhc	-11.6478
▁paris	-11.6478
▁return	-11.6478
▁개성공단	-11.6478
▁걸림돌	-11.6478
▁경기후퇴	-11.6478
▁국제올림픽위원회	-11.6478
▁금강산	-11.6478
▁긱스	-11.6478
▁남우주연상	-11.6478
▁뉴잉글랜드	-11.6478
▁늦추	-11.6478
▁독극물	-11.6478
▁라크시미	-11.6478
▁상임이사국	-11.6478
▁새크라멘토	-11.6478
▁샌안토니오	-11.6478
▁서둘러	-11.6478
▁선거기부금	-11.6478
▁세골렌	-11.6478
▁아프카니스탄	-11.6478
▁악천후	-11.6478
▁애슐리	-11.6478
▁엑스파일	-11.6478
▁여러차례	-11.6478
▁옮겼다	-11.6478
▁유엔사무총장	-11.6478
▁이바노비치	-11.6478
▁재결합	-11.6478
▁제퍼슨	-11.6478
▁지켰다	-11.6478
▁췌장암	-11.6478
▁컸다	-11.6478
▁쿠즈넷소바	-11.6478
▁키티호크	-11.6478
▁하드웨어	-11.6478
▁헐리우드	-11.6478
▁홍석현	-11.6478
▁화성탐사	-11.6478
▁히스패닉	-11.6478
캇	-11.6478
▁grow	-11.6478
▁million	-11.6478
쯔	-11.6478
▁깁슨	-11.6478
▁나타날	-11.6478
▁불공정	-11.6478
▁석유수출	-11.6478
▁승부차기	-11.6478
▁유동성	-11.6478
▁추기경	-11.6478
▁깁스	-11.6478
▁대법관	-11.6478
▁스프레이	-11.6478
▁다둘라	-11.6478
▁루카스	-11.6478
▁산체스	-11.6478
▁하니야	-11.6478
▁회교도	-11.6478
▁백과사전	-11.6478
▁즐겁	-11.6478
▁욕구	-11.6478
▁어쩔	-11.6478
▁무효	-11.6478
▁개구리	-11.6478
▁바시르	-11.6478
▁music	-11.6478
▁희귀	-11.6478
▁height	-11.6478
▁캐롤라인	-11.6478
▁진짜	-11.6478
▁진상조사	-11.6478
▁어렸을	-11.6478
▁교도통신	-11.6478
▁적혀있	-11.6478
▁글로리아	-11.6478
▁게이머	-11.6478
▁탈퇴	-11.6478
▁바레인	-11.6479
ress	-11.6479
▁즐겨	-11.6479
▁되자	-11.6479
▁부모님	-11.6479
▁기념행사	-11.6479
▁항구도시	-11.6479
▁밀매	-11.6479
▁four	-11.6479
▁sex	-11.6479
▁출현	-11.6479
▁궁금	-11.6479
▁진척	-11.6479
▁잠자리	-11.6479
▁그만두	-11.6479
▁uci	-11.648
▁핵연료	-11.648
▁벌어질	-11.648
▁오래전부터	-11.648
▁big	-11.648
▁case	-11.648
▁양육	-11.648
▁내보냈	-11.6481
▁어워드	-11.6481
▁액체	-11.6481
▁잠겨	-11.6481
▁주어지	-11.6481
▁컬럼비아호	-11.6481
▁쿠마르	-11.6481
▁플루	-11.6481
▁찰리	-11.6481
▁거래되	-11.6481
▁디젤	-11.6481
▁호황	-11.6481
▁들어올	-11.6481
▁어윈	-11.6481
▁평화협정	-11.6482
▁빙산	-11.6482
▁소방서	-11.6482
▁무척	-11.6482
▁실망감	-11.6482
▁오디오	-11.6482
▁야채	-11.6483
▁루머	-11.6483
▁이어갔다	-11.6484
▁돌파구	-11.6484
▁국제축구연맹	-11.6484
▁오리건주	-11.6485
▁항공편	-11.6485
▁attacks	-11.6485
▁에밀리	-11.6485
▁지하실	-11.6485
▁대위	-11.6485
▁중동평화회의	-11.6486
▁기네스	-11.6486
▁수익금	-11.6487
▁변호인단	-11.6487
▁강철	-11.6488
▁충성	-11.6488
▁꺼내	-11.6489
▁누출	-11.6489
▁빅토	-11.6489
▁이뤘	-11.6489
▁집결	-11.6489
▁왕조	-11.649
▁모여들었다	-11.649
▁말레이시아에서	-11.649
▁현저	-11.6491
▁탈선	-11.6491
▁출산율	-11.6491
▁진동	-11.6492
▁표본	-11.6492
▁밝혀질	-11.6492
▁제왕	-11.6492
▁ces	-11.6493
▁의논	-11.6493
▁기대감	-11.6494
▁궁극적으로	-11.6494
▁어류	-11.6494
▁부의장	-11.6495
▁아담스	-11.6496
▁종사하	-11.6496
▁bid	-11.6497
▁won	-11.6497
▁소유즈	-11.6499
대학교	-11.6499
▁드물	-11.65
▁지었다	-11.65
▁로렌스	-11.65
▁관람객	-11.6501
▁비스타	-11.6502
▁과속	-11.6502
▁통제권	-11.6502
▁코란	-11.6502
▁표결에	-11.6502
▁set	-11.6503
▁만평	-11.6503
▁정복	-11.6503
▁요청했	-11.6503
▁않을까	-11.6504
▁과감	-11.6504
▁토티	-11.6504
▁상태였	-11.6505
eic	-11.6506
▁감당	-11.6507
▁king	-11.6507
▁안았다	-11.6508
▁세기에	-11.6508
▁조장하	-11.6509
▁난관	-11.6509
▁망치	-11.6511
▁재계	-11.6511
▁친미	-11.6512
▁로렌	-11.6513
▁사료	-11.6513
▁알아야	-11.6513
▁적법	-11.6513
▁썩	-11.6515
▁파이낸셜	-11.6515
▁수사팀	-11.6516
▁분개	-11.6516
▁점유	-11.6516
▁가져야	-11.6518
▁성실	-11.6519
▁준결승전에서	-11.6521
프랑	-11.6521
▁금지했다	-11.6522
▁북극해	-11.6523
▁자재	-11.6526
▁거울	-11.6526
마트	-11.6527
▁되는데	-11.6528
▁불량	-11.6528
▁원형	-11.6529
▁옮겨졌다	-11.653
주간	-11.6533
▁소비자들에게	-11.6533
▁부패혐의	-11.6534
▁스티븐스	-11.6536
▁운동화	-11.6537
▁청와대에서	-11.6538
▁주관	-11.6538
▁벗어나기	-11.6538
▁분리된	-11.6539
▁한국어	-11.654
▁바탕으로	-11.654
▁야드	-11.654
▁변하지	-11.6541
▁리마	-11.6542
▁체스	-11.6543
imp	-11.6543
▁가혹한	-11.6544
클라	-11.6544
▁눈으로	-11.6545
▁지냈다	-11.6545
▁제압	-11.655
▁확정됐다	-11.655
자산	-11.6552
▁새우	-11.6557
▁군용	-11.6557
▁계획이었다	-11.6558
▁쿠폰	-11.656
▁그녀에게	-11.6562
▁음식점	-11.6563
▁계약서	-11.6564
▁자국민	-11.6565
▁주말까지	-11.6567
▁편에	-11.6568
▁트럭에	-11.6574
▁명씩	-11.6574
▁클라인	-11.6574
▁bet	-11.6575
▁내역	-11.6581
▁franc	-11.6584
▁카라치에서	-11.6584
▁반대해	-11.6584
▁선교	-11.6585
▁삼바	-11.6587
▁선서	-11.659
▁위권	-11.6591
▁생명에	-11.6594
▁플로리다에서	-11.6595
▁지질학	-11.6598
▁이탈리아에서	-11.6598
▁육지	-11.6598
▁중심부에서	-11.66
▁사임한	-11.66
▁축하하기	-11.6602
▁독자적	-11.6607
▁담당하	-11.6612
▁공약으로	-11.6614
▁싼	-11.6614
▁나빠	-11.6615
적이었다	-11.6619
▁바꾸기	-11.6624
▁생사	-11.6629
▁자동차회사	-11.6632
▁사령부	-11.6635
▁떠나기	-11.664
탈루	-11.664
▁통제하는	-11.6642
▁대미	-11.6648
▁가루	-11.6652
▁철회할	-11.6655
ness	-11.6658
▁농장에서	-11.666
▁발표되	-11.667
▁농구	-11.6671
▁뜨	-11.6673
▁사라져	-11.668
▁우주국	-11.668
▁다양성	-11.668
▁주식시장에서	-11.6681
▁배우들	-11.6682
▁호스	-11.6684
▁일부에서	-11.6687
ust	-11.6692
▁신뢰도	-11.6697
▁생산성	-11.6697
mas	-11.6705
▁타계했다	-11.6709
▁가하는	-11.6709
▁다녀	-11.6711
▁관중들	-11.6713
▁화면에	-11.6714
▁부위에	-11.6715
▁자백	-11.672
▁베니스	-11.6734
▁살아있다	-11.6736
▁예루살렘에서	-11.6736
문제에	-11.6738
▁장애인	-11.6741
▁누구에게	-11.6749
▁way	-11.6754
▁컴	-11.6755
▁허가했다	-11.6755
▁회사측	-11.6756
▁중심부에	-11.6759
하드	-11.6762
▁죽음이	-11.6766
▁웬	-11.6766
▁합류했다	-11.6767
▁참석자들	-11.6774
▁팀장	-11.6784
▁외무장관이	-11.6786
▁그외	-11.6787
상태에	-11.6788
▁블로거	-11.6788
▁사무실에	-11.6789
▁중단해야	-11.6789
▁당사자들	-11.6794
▁개별	-11.6795
▁냈	-11.6797
▁통신원	-11.6805
▁협력해	-11.6806
▁폭도	-11.6808
▁흔적이	-11.6815
▁학자	-11.6816
▁파티에	-11.6817
▁혁신적	-11.6819
라프	-11.6825
con	-11.6825
▁거점	-11.6825
원장	-11.6827
▁자백했다	-11.6829
▁납부	-11.6829
▁환자에게	-11.6833
▁취하는	-11.6834
▁물자	-11.6842
▁텐	-11.6844
▁마련하고	-11.6846
▁거주자	-11.6847
▁취하기	-11.6851
▁사자	-11.6853
▁라만	-11.6854
▁정부측	-11.6857
▁흥분한	-11.6858
▁제한된	-11.6859
ang	-11.6861
▁보니	-11.6865
▁출연할	-11.6865
▁전화기	-11.6868
▁시신들	-11.687
죽	-11.6871
▁집권한	-11.6871
ator	-11.6872
▁시작된다	-11.6874
▁당선되	-11.6875
▁이해하는	-11.6875
바오	-11.6875
▁사회에서	-11.6879
space	-11.6881
▁존재하지	-11.6883
자동차	-11.6884
랭킹	-11.6884
검찰	-11.6885
▁신자들	-11.6885
▁센터에	-11.6886
업무	-11.6893
집단	-11.6899
누르	-11.6901
▁제공되	-11.6902
신청	-11.6907
▁여론이	-11.6913
▁딸들	-11.6915
▁경제학	-11.6919
하든	-11.6924
▁감소하고	-11.6924
▁cur	-11.6924
▁상황으로	-11.6925
▁대중들	-11.6926
▁bar	-11.6927
▁보라	-11.6933
시절	-11.6934
▁넘었다	-11.6934
중단	-11.6939
▁발사됐다	-11.6939
▁전해진	-11.694
▁수학	-11.6944
▁wh	-11.6949
▁보장하	-11.6951
ag	-11.6954
▁적었다	-11.6957
▁under	-11.6961
▁알았	-11.6967
▁의대	-11.697
▁다나	-11.6978
▁충격적	-11.6981
▁일생	-11.6983
▁다할	-11.6986
글판	-11.6987
▁cas	-11.6992
▁유독	-11.6993
▁대항하는	-11.6994
▁압력에	-11.6996
▁해변에	-11.6997
▁산업에	-11.6998
▁나토군이	-11.7015
▁분리주의	-11.7017
▁act	-11.7025
운영	-11.7027
▁소실	-11.703
▁메디컬	-11.7034
▁결정하는	-11.7035
▁기지에	-11.7038
▁정해	-11.704
받았	-11.7048
▁거래에서	-11.7049
▁작동되	-11.705
혁	-11.7051
▁주차장	-11.7051
▁미시건	-11.7052
▁브랜	-11.7054
▁이슬람교도들	-11.7055
▁준결승	-11.7056
▁국민과	-11.7057
▁죽어	-11.7061
둬	-11.7063
륜	-11.7064
왓	-11.7064
놔	-11.7066
툰	-11.7066
쿼	-11.7066
▁thai	-11.7066
▁church	-11.7066
▁demand	-11.7066
▁eads	-11.7066
▁earth	-11.7066
▁industr	-11.7066
▁iwc	-11.7066
▁organization	-11.7066
▁program	-11.7066
▁unhcr	-11.7066
▁고르바초프	-11.7066
▁공상과학	-11.7066
▁구소련	-11.7066
▁더글라스	-11.7066
▁듣게	-11.7066
▁리우데자네이루	-11.7066
▁먹어	-11.7066
▁멋지	-11.7066
▁메릴린치	-11.7066
▁몰랐다	-11.7066
▁미확인	-11.7066
▁민주노동당	-11.7066
▁바나프샤	-11.7066
▁볼티모어	-11.7066
▁블래터	-11.7066
▁빈민층	-11.7066
▁샀다	-11.7066
▁스필버그	-11.7066
▁시에라리온	-11.7066
▁식품의약국	-11.7066
▁신시내티	-11.7066
▁아디다스	-11.7066
▁암스테르담	-11.7066
▁여중생	-11.7066
▁영업이익	-11.7066
▁예방접종	-11.7066
▁위태롭게	-11.7066
▁인신매매	-11.7066
▁정찰위성	-11.7066
▁조류독감	-11.7066
▁좁혀	-11.7066
▁준이치로	-11.7066
▁타이타닉	-11.7066
▁통합민주당	-11.7066
▁트러스트	-11.7066
▁트리폴리	-11.7066
▁포유류	-11.7066
▁햇빛	-11.7066
▁확립	-11.7066
▁흩어져	-11.7066
띤	-11.7066
샨	-11.7066
텀	-11.7066
퐁	-11.7066
▁irna	-11.7066
▁뇌졸중	-11.7066
▁마스터즈	-11.7066
▁언젠가	-11.7066
▁자페타	-11.7066
▁정보통신부	-11.7066
▁존엄성	-11.7066
▁찍어	-11.7066
▁항공모함	-11.7066
▁헤드폰	-11.7066
▁다이어트	-11.7066
▁사이언스	-11.7066
▁상무부	-11.7066
▁kbs	-11.7066
▁메이도프	-11.7066
▁에스트라다	-11.7066
▁타디치	-11.7066
▁흥정	-11.7066
▁노던록	-11.7066
▁카펫	-11.7066
▁버나드	-11.7066
▁대성당	-11.7066
▁스틸러스	-11.7066
▁치뤄	-11.7066
▁놀이공원	-11.7066
▁쿼터백	-11.7066
▁버크헤드	-11.7066
▁사진작가	-11.7066
▁강대국	-11.7066
▁고등학생	-11.7066
▁패트로스	-11.7066
▁검정색	-11.7066
▁경수로	-11.7066
▁senate	-11.7066
▁북아일랜드	-11.7066
▁슬픈	-11.7066
▁트랙	-11.7066
▁낭독	-11.7066
▁정착촌	-11.7066
▁고아원	-11.7066
▁작가조합	-11.7066
▁출혈	-11.7066
▁국영언론	-11.7066
▁현대자동차	-11.7066
▁당뇨병	-11.7066
▁씨앗	-11.7067
▁도망쳤다	-11.7067
▁cru	-11.7067
▁체험	-11.7067
▁gdp	-11.7067
▁블랙홀	-11.7067
▁클릭	-11.7067
▁휴전협정	-11.7067
▁식별	-11.7067
▁검역	-11.7067
▁헬렌	-11.7067
▁볼드윈	-11.7067
▁극도로	-11.7067
▁항의시위	-11.7068
▁십자가	-11.7068
▁총파업	-11.7068
▁차량에서	-11.7068
▁유대교	-11.7068
▁tsa	-11.7068
▁리옹	-11.7068
▁출처	-11.7068
▁신흥	-11.7068
▁축복	-11.7069
▁계승	-11.7069
▁키팅	-11.7069
▁다저스	-11.7069
▁조세프	-11.7069
▁크랜	-11.7069
▁몰락	-11.7069
▁force	-11.7069
▁무효화	-11.7069
▁부활절	-11.707
▁탄원서	-11.707
▁절망	-11.707
▁연립	-11.707
▁무장조직	-11.707
▁살인사건	-11.7071
▁내륙	-11.7071
▁보건장관	-11.7071
▁올라왔다	-11.7071
▁mtv	-11.7071
▁용감	-11.7071
▁ask	-11.7072
▁제휴	-11.7072
▁흠	-11.7072
▁운용	-11.7072
▁머무르	-11.7072
▁특혜	-11.7073
▁작위	-11.7073
▁완구	-11.7073
▁프린트	-11.7073
▁최신작	-11.7073
▁엔론	-11.7073
▁로리언	-11.7074
▁야망	-11.7074
ble	-11.7074
▁종목	-11.7074
▁소년병	-11.7075
▁피켓	-11.7075
▁켄트	-11.7075
▁청산	-11.7075
▁바다위	-11.7075
▁돌렸다	-11.7075
▁절정	-11.7076
▁결정적	-11.7076
▁근방	-11.7076
▁상환	-11.7076
▁환경단체	-11.7076
▁물리학자	-11.7077
▁열광	-11.7077
▁견제	-11.7077
▁넘긴	-11.7078
▁통신망	-11.7078
▁오델	-11.7078
▁최장	-11.7078
▁폴락	-11.7079
▁즉석	-11.7079
▁최적	-11.7079
▁할렘	-11.708
▁aids	-11.7081
▁강탈	-11.7082
▁귀중	-11.7082
▁years	-11.7083
▁관제	-11.7083
▁경쟁자들	-11.7084
▁오찬	-11.7085
▁차이점	-11.7085
▁국무회의	-11.7086
▁공석	-11.7086
▁동점	-11.7086
▁황소	-11.7087
ird	-11.7088
▁악수	-11.7089
▁도보	-11.7089
▁지휘자	-11.709
▁타워	-11.7091
▁경찰국장	-11.7091
▁기지에서	-11.7092
▁배출량	-11.7092
▁휴전선	-11.7093
▁밀크	-11.7093
보관소	-11.7093
▁격전	-11.7094
▁배아줄기세포	-11.7095
▁인터내셔널	-11.7095
▁테크	-11.7095
▁쇼에서	-11.7096
▁주의보	-11.7096
▁지상군	-11.7097
▁파란	-11.7098
▁소포	-11.7099
드미	-11.71
▁틸리	-11.7101
▁원석	-11.7101
▁결선	-11.7102
▁어조	-11.7102
▁진술서	-11.7102
▁관점	-11.7102
▁정문	-11.7103
▁관용	-11.7105
▁메모리얼	-11.7106
▁보내졌다	-11.7109
▁되도록	-11.7109
▁다량	-11.711
▁의장직	-11.711
▁체력	-11.7111
▁중요하게	-11.7111
▁캐시	-11.7111
▁실업자	-11.7113
▁부친	-11.7113
▁기자실	-11.7113
▁베일	-11.7115
▁찾아야	-11.7116
▁뻔	-11.7117
▁희생된	-11.7118
▁내외	-11.7119
▁처사	-11.712
▁천원	-11.712
▁스페인에서	-11.7121
됐음	-11.7122
▁수천만	-11.7125
▁고객들에게	-11.7126
▁마신	-11.7126
▁실명	-11.7126
▁빛나	-11.7127
▁아마드	-11.7129
▁노동조합	-11.713
▁기자와	-11.713
▁worker	-11.713
학술	-11.7132
▁민주당원	-11.7134
▁사업체	-11.7134
▁구조물	-11.7134
▁봤을	-11.7136
▁프레이	-11.7136
▁넘쳐	-11.7137
군사훈련	-11.7137
▁공동체	-11.7138
▁불법적으로	-11.7139
▁마카	-11.714
▁숨어있	-11.7141
▁오르지	-11.7143
▁양식	-11.7144
투성이	-11.7144
없	-11.7144
▁마오	-11.7145
행해진	-11.7148
▁소치	-11.7148
▁평양에	-11.7149
▁손잡	-11.7149
▁정찰기	-11.7149
▁이슬람교도	-11.7152
▁딱	-11.7152
▁부탁했다	-11.7152
▁헌법상	-11.7152
▁스토	-11.7152
▁유지될	-11.7155
▁에너지부	-11.7156
▁교장	-11.716
▁반대파	-11.7162
▁크리	-11.7163
▁장르	-11.7163
▁패했다	-11.7163
▁피지	-11.7163
▁화성에	-11.7163
▁놈	-11.7163
▁시급	-11.7165
▁오프	-11.7168
▁집계됐다	-11.7168
▁꼬	-11.7173
▁합의했	-11.7174
▁급락했다	-11.7177
▁말하자	-11.7178
▁영화계	-11.7179
▁수신	-11.7185
▁셈	-11.7186
▁미렌	-11.719
▁세울	-11.7194
때로	-11.72
▁개통	-11.72
▁주었	-11.7201
▁살기	-11.7201
▁태워	-11.7201
▁수염	-11.7204
▁묵인	-11.7205
▁맞이했다	-11.7205
로윈	-11.7205
▁많았	-11.7205
▁자카르타에서	-11.7206
헌재	-11.7208
▁신청했다	-11.7209
▁홀리	-11.7211
▁장군이	-11.7212
▁자동차업체	-11.7214
▁총리실	-11.7214
▁범인들	-11.7216
▁발견되었	-11.7217
well	-11.7218
▁볼트	-11.7219
▁승리해야	-11.7219
▁건물들이	-11.722
▁후회	-11.722
▁희	-11.7223
롤라	-11.7227
▁보석으로	-11.7227
▁끝이	-11.723
▁당선이	-11.7231
▁지역구	-11.7232
▁수출국	-11.7233
▁조니	-11.7233
스럽다	-11.7233
▁대구	-11.7236
▁문화원	-11.7237
▁자진	-11.7239
▁워싱턴주	-11.724
▁해안지역	-11.724
▁뷰	-11.7244
▁마자	-11.7247
▁비슷하다	-11.725
▁재개했다	-11.7253
▁gra	-11.7257
▁개제	-11.7264
▁깨어	-11.7266
▁한동안	-11.7267
▁향상시키	-11.727
▁대응하기	-11.7271
▁갖지	-11.7272
▁목장	-11.7275
사르	-11.728
▁파장	-11.7282
▁않았었다	-11.7287
▁흥미로	-11.7294
▁초기에	-11.7296
▁지도부와	-11.7298
▁왔었다	-11.7299
▁통과시키	-11.7299
프레드	-11.7307
▁장군과	-11.7309
▁일축	-11.7313
▁정했다	-11.7315
▁뒷받침	-11.7321
▁pm	-11.7327
베르트	-11.7331
▁사망률	-11.7332
지도자	-11.7334
▁유가족들	-11.7334
▁장착한	-11.7334
▁이민자	-11.7344
▁전후	-11.7345
▁당사자	-11.7346
▁월경	-11.7347
▁수니파와	-11.7349
담당자	-11.735
▁일으키고	-11.7352
▁대법원에	-11.7352
▁모아이	-11.7354
▁하늘에서	-11.7362
▁터지	-11.7364
▁도드	-11.7365
▁없다면	-11.7368
▁요가	-11.7368
▁초까지	-11.7369
▁위력	-11.7369
호선	-11.737
ube	-11.7375
▁억명	-11.7377
▁채워	-11.7378
대비	-11.738
▁보자	-11.7383
▁잠들	-11.7384
▁패배한	-11.7388
▁올라와	-11.7393
▁분쟁에	-11.7395
▁확산되는	-11.7396
▁보이기	-11.7398
▁아들에게	-11.7399
나단	-11.74
▁경매에서	-11.7403
▁여러분이	-11.7409
블라	-11.7414
▁사라졌	-11.7415
▁생물학자	-11.742
▁선정한	-11.742
▁임명됐다	-11.7428
노동자당	-11.7429
▁사르	-11.7432
▁브라질에서	-11.7435
스텔	-11.7437
time	-11.744
had	-11.7441
▁지원자들	-11.7442
▁실시하고	-11.746
▁인용했다	-11.746
▁대행	-11.7466
정지	-11.7466
최	-11.7467
▁청년들	-11.7472
▁도와주	-11.7476
▁타계	-11.7477
▁베니	-11.7477
▁바라지	-11.748
▁바커	-11.7485
▁실적이	-11.7486
▁토론회에	-11.749
해냈다	-11.7491
▁시작되었	-11.7492
▁회의적	-11.7493
▁죽음으로	-11.7494
▁천장	-11.7494
꾸	-11.75
nois	-11.7503
틸	-11.7503
잎	-11.7503
뷰	-11.7504
tory	-11.7504
눈	-11.7505
▁주도했다	-11.7505
▁영하	-11.7506
프로그램	-11.7506
공화국	-11.7508
잘	-11.7509
반응	-11.7511
테니스	-11.7511
▁유튜브에	-11.7512
차관보	-11.7512
처분	-11.7514
ps	-11.7514
▁거래소	-11.7519
ana	-11.7523
▁생각했	-11.7525
▁유명인사들	-11.7526
공연	-11.7527
방위	-11.7537
▁조각들	-11.7538
재정	-11.7538
▁강타했다	-11.7545
▁폭도들	-11.7549
▁제압하	-11.755
▁맺어	-11.7552
▁시위대들	-11.7552
데라	-11.7553
아래	-11.7557
ama	-11.7558
▁주인공이	-11.7558
▁기여한	-11.7561
브리	-11.7565
▁사유	-11.7566
▁지장	-11.7566
▁멕시코에서	-11.7574
▁jon	-11.7582
▁선보이	-11.7583
바라크	-11.7585
강한	-11.759
▁정당한	-11.7601
▁해결되	-11.761
▁않겠	-11.761
▁come	-11.7611
▁불확실	-11.7612
▁선호하	-11.7615
▁케냐에서	-11.7618
금치	-11.7618
▁태우	-11.762
▁비공식적	-11.7623
wi	-11.7624
▁생중계	-11.7626
▁라벨	-11.7629
▁베트남전	-11.7629
▁스타디움	-11.763
▁시도했으	-11.7634
▁달링	-11.7644
▁다르지	-11.7649
봐야	-11.7649
▁타마	-11.765
▁베드	-11.765
▁거뒀	-11.7655
▁팬이	-11.7656
국적	-11.7664
저널	-11.7664
▁관람객들	-11.7665
▁연구실	-11.7667
▁빠졌	-11.7669
▁타임즈와	-11.7669
▁공원에	-11.7672
▁알렉산드	-11.7674
▁천문학	-11.7674
▁모국	-11.768
▁메인	-11.7681
nts	-11.7682
▁면역	-11.7685
▁우려했다	-11.7688
▁불러일으	-11.7689
own	-11.769
▁수마트라	-11.769
▁변했다	-11.7691
▁냉각	-11.7691
톡	-11.7691
▁academy	-11.7691
▁capital	-11.7691
▁christ	-11.7691
▁conference	-11.7691
▁country	-11.7691
▁institute	-11.7691
▁job	-11.7691
▁second	-11.7691
▁갤론	-11.7691
▁건강검진	-11.7691
▁걷기	-11.7691
▁국가평의회	-11.7691
▁깨달았다	-11.7691
▁나미비아	-11.7691
▁나폴리타노	-11.7691
▁남동생	-11.7691
▁냉장고	-11.7691
▁대검찰청	-11.7691
▁디카프리오	-11.7691
▁떠올랐다	-11.7691
▁래드클리프	-11.7691
▁리투아니아	-11.7691
▁멜버른	-11.7691
▁멤피스	-11.7691
▁모레스모	-11.7691
▁바랐다	-11.7691
▁밸리	-11.7691
▁부동층	-11.7691
▁부총재	-11.7691
▁불균형	-11.7691
▁불러일으켰다	-11.7691
▁블록버스터	-11.7691
▁사무차장	-11.7691
▁사이언톨로지	-11.7691
▁알츠하이머	-11.7691
▁알카티리	-11.7691
▁옥수수	-11.7691
▁이스마일	-11.7691
▁전자메일	-11.7691
▁찾으려	-11.7691
▁츠방기라이	-11.7691
▁카르발라	-11.7691
▁퀘벡	-11.7691
▁트레일러	-11.7691
▁파키스탄인민당	-11.7691
▁프랑크푸르트	-11.7691
▁플레이스테이션	-11.7691
▁혹등고래	-11.7691
▁휠체어	-11.7691
▁흡입	-11.7691
랏	-11.7691
쑤	-11.7691
윅	-11.7691
팡	-11.7691
▁기울여야	-11.7691
▁매몰된	-11.7691
▁배트맨	-11.7691
▁볼리비아	-11.7691
▁옵션	-11.7691
▁재경부	-11.7691
▁구속영장	-11.7691
▁헬만드	-11.7691
▁비무장지대	-11.7691
▁인수제안	-11.7691
▁리브니	-11.7691
▁사로잡	-11.7691
▁wall	-11.7691
▁레코드	-11.7691
▁서두르	-11.7691
▁스콜스	-11.7691
▁메케인	-11.7691
▁자위대	-11.7691
▁산악지대	-11.7691
▁중질유	-11.7691
▁따돌렸	-11.7691
▁원동력	-11.7691
▁로드아일랜드	-11.7691
▁불가사의	-11.7691
▁산시성	-11.7691
▁africa	-11.7691
▁수수료	-11.7691
▁올림피	-11.7691
▁threaten	-11.7691
▁엘리엇	-11.7691
▁화학물질	-11.7691
▁train	-11.7691
▁trans	-11.7691
▁bomb	-11.7692
▁압델	-11.7692
▁벗겨	-11.7692
▁철폐	-11.7692
▁trial	-11.7692
▁레빈슨	-11.7692
▁교훈	-11.7692
▁watch	-11.7692
그너	-11.7692
▁국가안보회의	-11.7692
▁봉투	-11.7692
▁추억	-11.7692
▁그래미	-11.7692
기동대	-11.7692
▁차량폭탄	-11.7693
▁당첨	-11.7693
▁도서관	-11.7693
▁불륜	-11.7693
▁이루어졌	-11.7693
▁마피아	-11.7693
▁list	-11.7693
▁부대변인	-11.7693
▁별칭	-11.7693
▁abn	-11.7693
▁슬림	-11.7693
▁놀라움	-11.7693
▁숙박	-11.7693
▁멜론	-11.7693
▁도둑	-11.7694
▁그레그	-11.7694
▁killed	-11.7694
▁입후보	-11.7694
▁게시물	-11.7694
▁희미	-11.7694
▁스튜	-11.7694
▁축구선수	-11.7694
▁장례	-11.7694
▁우주여행	-11.7694
▁생애	-11.7694
▁대리모	-11.7694
▁정몽	-11.7694
▁예상됩니다	-11.7694
▁알라위	-11.7695
▁필름	-11.7695
▁나눈	-11.7695
▁제국주의	-11.7696
▁케이프	-11.7696
▁벤처	-11.7696
▁청원서	-11.7696
▁대슐	-11.7696
▁집값	-11.7696
▁공헌	-11.7697
▁급증했다	-11.7697
▁로빈슨	-11.7697
▁신기록	-11.7697
▁출입국	-11.7697
▁태생	-11.7697
▁오웬	-11.7697
▁범죄행위	-11.7697
▁우편물	-11.7698
▁지불했다	-11.7698
▁학계	-11.7698
▁단결	-11.7698
▁팻	-11.7698
▁누구인지	-11.7698
▁생생	-11.7698
▁관통	-11.7698
▁단편	-11.7698
▁centr	-11.7698
▁프로스트	-11.7698
▁증파	-11.7698
▁홀더	-11.7698
▁절실	-11.7699
▁공공연	-11.7699
▁조롱	-11.77
▁레빈	-11.77
▁코웰	-11.77
▁불법행위	-11.77
▁지방정부	-11.77
▁대피시켰다	-11.77
▁자동차산업	-11.7701
▁언니	-11.7701
▁법무상	-11.7701
▁지명되기	-11.7702
로프트	-11.7702
▁심슨이	-11.7703
▁아델	-11.7703
▁바꾼	-11.7703
▁이맘	-11.7704
▁골절	-11.7705
▁생계	-11.7705
▁생체	-11.7705
▁조직위	-11.7705
▁물러났다	-11.7705
▁허브	-11.7705
▁od	-11.7705
▁군사정부	-11.7705
▁신랑	-11.7705
▁신년	-11.7706
▁자폭	-11.7706
▁팬더	-11.7706
▁메인주	-11.7706
▁증대	-11.7707
▁왕관	-11.7707
▁포탄	-11.7707
▁주연상	-11.7708
▁던졌	-11.7708
▁실망했다	-11.7709
▁무력화	-11.7709
▁놓여있다	-11.7709
▁브라이언트	-11.771
▁건축물	-11.771
▁찾아온	-11.7711
▁풀려나	-11.7711
▁전해드	-11.7712
▁마술	-11.7712
▁루터	-11.7713
▁호건	-11.7713
▁외국인들이	-11.7714
▁비축	-11.7714
▁대사와	-11.7714
▁해골	-11.7714
▁발판	-11.7715
▁라마	-11.7716
▁아스	-11.7717
▁통상적	-11.7718
▁우위	-11.7718
▁사지	-11.7718
▁거액	-11.7719
▁어려움에	-11.7719
▁중단시켰다	-11.7721
▁부주의	-11.7721
▁변명	-11.7721
▁부분적으로	-11.7722
▁인권문제	-11.7723
▁times	-11.7723
▁우정	-11.7723
▁꾸며	-11.7723
▁유실	-11.7724
▁there	-11.7724
▁동의안	-11.7725
▁경미	-11.7725
▁유로화	-11.7725
▁분노한	-11.7726
펠드	-11.7726
▁states	-11.7726
▁주일간	-11.7727
▁찾아냈다	-11.7728
▁모방	-11.773
▁남북간	-11.773
▁도출	-11.7731
▁국회의장	-11.7731
▁궁지에	-11.7732
▁상속	-11.7732
▁신씨	-11.7733
▁차분	-11.7735
▁과오	-11.7738
▁신차	-11.774
▁당내	-11.7741
▁있냐	-11.7741
▁궁전	-11.7742
▁아니었	-11.7742
▁반사	-11.7743
키마	-11.7744
쿠르	-11.7745
▁주립대학	-11.7745
▁유니버	-11.7746
▁깨진	-11.7746
▁벗기	-11.7747
▁말해주	-11.7748
▁주최하	-11.7749
▁당파	-11.7749
우트	-11.775
▁자리잡	-11.7752
▁하나였다	-11.7753
▁보았	-11.7754
▁등장한다	-11.7756
▁중단되	-11.7756
▁요리사	-11.7757
▁주범	-11.7757
▁친부	-11.7758
▁박탈당	-11.7759
▁페어	-11.7764
▁순교자	-11.7764
▁기뻐	-11.7765
▁생산업체	-11.7767
▁감사원	-11.7768
▁있었는데	-11.7769
▁연상	-11.777
▁어스	-11.777
▁킴	-11.7771
▁정치인들이	-11.7771
▁정세	-11.7772
▁대금	-11.7773
▁섬에서	-11.7775
▁키트	-11.7776
dom	-11.7779
▁대개	-11.778
▁캘	-11.7783
▁편리	-11.7783
▁유발할	-11.7786
▁랜디	-11.7789
▁살레	-11.779
▁예외	-11.7791
▁덴	-11.7792
▁합쳐	-11.7794
▁밝혀져	-11.7797
▁설명할	-11.7799
교사	-11.78
▁경찰서로	-11.7801
▁소방대원들	-11.7802
공학	-11.7805
▁east	-11.7807
▁좋아지	-11.7808
▁xp	-11.7809
▁emi	-11.781
▁발표되었다	-11.781
▁art	-11.7811
▁개막식에	-11.7811
▁구매자	-11.7813
▁애인	-11.7814
▁크라	-11.7815
제작	-11.7816
▁지구와	-11.7817
▁제출된	-11.7817
▁교대	-11.7819
▁종업원	-11.7822
▁늘었다	-11.7822
▁낭	-11.7826
▁펼쳐지	-11.7826
▁위함	-11.783
▁흙	-11.7832
▁dai	-11.7833
▁죽어가	-11.7834
▁부모에게	-11.7835
▁받아들이기	-11.7838
▁비판하는	-11.7838
▁코드	-11.7838
▁가속	-11.7839
▁입소	-11.7843
▁애플사	-11.7844
부장관	-11.7844
▁의사회	-11.7844
▁정면	-11.7851
렉스	-11.7851
▁오바	-11.7851
▁직원들에게	-11.7853
받지	-11.7856
▁테러리스트들이	-11.7858
▁주변국들	-11.7861
▁미세	-11.7863
ague	-11.7867
▁로게	-11.7867
▁유지해	-11.7867
rm	-11.7868
▁소매업	-11.7869
▁해당한다	-11.7871
ek	-11.7873
▁노르	-11.7875
▁양도	-11.7877
▁결승에	-11.7877
▁살해되	-11.7877
▁사이트에서	-11.7879
▁돌아보	-11.788
▁목록에서	-11.7885
▁놓았	-11.7887
▁영국으로부터	-11.7889
브론	-11.789
▁초고속	-11.7894
hoo	-11.7897
▁전락	-11.7901
공유	-11.7903
▁rate	-11.7908
표한다	-11.7913
▁쥐들	-11.7914
▁유사하다	-11.7918
▁남동부에서	-11.792
war	-11.7926
▁안면	-11.7927
▁올라갔	-11.7929
시피	-11.7931
▁켜	-11.7932
▁장갑	-11.7932
▁축출된	-11.7939
▁쓰여	-11.7941
버렸	-11.7942
ka	-11.7943
▁도와주는	-11.7948
▁sur	-11.7948
▁정보통	-11.795
▁단원	-11.7954
▁축구팬들	-11.7956
den	-11.7959
▁촉	-11.796
▁죽인	-11.7965
▁에드로	-11.7968
▁파견한	-11.7969
han	-11.7971
분별	-11.7974
▁카바	-11.7976
go	-11.7977
gle	-11.7981
▁파라	-11.7984
▁특성	-11.7984
▁착륙했다	-11.7986
▁케인	-11.7992
▁탐험가	-11.7995
▁묘사한	-11.7996
▁엑	-11.7997
리프	-11.8008
▁베티	-11.8012
▁감정적	-11.8014
▁명중	-11.8018
▁투표했다	-11.8029
키야	-11.8031
달아	-11.8037
저스	-11.8038
▁나간다	-11.8039
▁영국인들	-11.8045
▁인부	-11.8047
▁출발한	-11.805
▁확산됐다	-11.8051
▁아타	-11.8054
▁her	-11.8055
매장	-11.8056
▁회복할	-11.8062
▁대비하고	-11.8063
▁los	-11.808
▁축구팬	-11.8082
▁폐쇄됐다	-11.809
▁제조업체들	-11.8092
▁참석한다	-11.8093
▁압박했다	-11.8095
▁알려왔	-11.8102
▁빛이	-11.8104
자본	-11.8105
▁하락하고	-11.8106
티브	-11.8109
늘	-11.8111
▁언론사	-11.8113
▁월드컵에서	-11.8117
끈	-11.8117
버거	-11.8126
▁인정한다	-11.813
▁삼아	-11.8136
uch	-11.8138
▁관계없	-11.8138
▁hel	-11.814
▁존재한다	-11.8143
기남	-11.8151
혹	-11.8152
있게	-11.8153
▁반기	-11.8155
▁지나면	-11.8157
▁전신	-11.8158
▁상대적	-11.816
▁공정하	-11.8161
▁연결된	-11.8162
회사들	-11.8163
▁yout	-11.8166
▁페이지에	-11.8167
▁시도할	-11.8168
사령부	-11.8171
페이스	-11.8172
칩	-11.8173
엠	-11.8173
쥐	-11.8175
잠	-11.8175
▁교수들	-11.8178
트너	-11.8184
▁딸에게	-11.8186
조합	-11.8186
km	-11.8192
▁안된	-11.8194
▁슬로	-11.8199
▁추진해	-11.8203
키스	-11.8205
▁나쁘	-11.8207
▁신문들	-11.8211
▁편으로	-11.822
▁이외에	-11.8223
▁인도주의	-11.8225
▁폐쇄하기	-11.8233
▁들지	-11.8237
ki	-11.8238
행진	-11.8239
▁방영되	-11.8244
퍼트	-11.8245
▁mon	-11.8247
▁남성에게	-11.8256
레이즈	-11.8263
러진	-11.8263
▁관리하는	-11.8264
▁아파	-11.8265
▁경신	-11.8271
line	-11.8275
보라	-11.8276
연금	-11.8283
▁주마	-11.8283
▁저질렀	-11.8289
▁stop	-11.8296
ash	-11.8297
펙	-11.8298
▁탈북자들	-11.83
▁적합	-11.8303
▁흉내	-11.8305
▁순례	-11.8308
▁열정적	-11.8309
▁공적	-11.8313
▁vote	-11.8314
▁걸렸	-11.8315
bel	-11.832
▁비싸	-11.8322
략	-11.8322
▁싶었	-11.8324
nsc	-11.8329
▁마쳤	-11.8337
▁입찰	-11.8337
▁창립	-11.8337
랍	-11.8346
▁북동	-11.8347
얄	-11.835
▁마텔	-11.8352
홉	-11.8354
▁디스커버리	-11.8355
▁원정	-11.8355
▁콜롬	-11.8355
▁도미니	-11.8355
▁part	-11.8356
콕	-11.8356
궈	-11.8357
▁오피니언	-11.8357
▁alliance	-11.8357
▁federal	-11.8357
▁hyun	-11.8357
▁iucn	-11.8357
▁joint	-11.8357
▁problem	-11.8357
▁record	-11.8357
▁국제영화제	-11.8357
▁끊겼	-11.8357
▁남태평양	-11.8357
▁다비덴코	-11.8357
▁댓글	-11.8357
▁루고보이	-11.8357
▁만토바니	-11.8357
▁무기징역	-11.8357
▁발렌시아	-11.8357
▁부드러운	-11.8357
▁비정상적	-11.8357
▁서유럽	-11.8357
▁세컨드라이프	-11.8357
▁애틀랜틱	-11.8357
▁어소시에이션	-11.8357
▁유투브	-11.8357
▁잉그리드	-11.8357
▁출퇴근	-11.8357
▁칼데론	-11.8357
▁캠브리지	-11.8357
▁키프로스	-11.8357
▁타임스퀘어	-11.8357
▁티크리트	-11.8357
▁프랑수아	-11.8357
▁하르툼	-11.8357
▁해밀턴	-11.8357
긍	-11.8357
덱	-11.8357
▁buy	-11.8358
▁invest	-11.8358
▁major	-11.8358
▁견뎌	-11.8358
▁대배심	-11.8358
▁미식축구	-11.8358
▁빈센트	-11.8358
▁서포터	-11.8358
▁슈퍼마켓	-11.8358
▁스타워즈	-11.8358
▁시트콤	-11.8358
▁아르메니아	-11.8358
▁전두환	-11.8358
▁테러리즘	-11.8358
▁파딜라	-11.8358
▁핵폐기	-11.8358
▁depart	-11.8358
▁politic	-11.8358
▁어리석	-11.8358
▁즐긴다	-11.8358
▁크라이튼	-11.8358
▁패터슨	-11.8358
▁georg	-11.8358
▁아메바	-11.8358
▁여기저기	-11.8358
▁은하계	-11.8358
▁dax	-11.8358
▁제레미	-11.8358
▁돌려보내	-11.8358
▁보너스	-11.8358
▁바이에른	-11.8358
▁미생물	-11.8358
▁국가안보보좌관	-11.8358
▁유연한	-11.8358
▁금리인하	-11.8358
▁무언가	-11.8358
▁전비법안	-11.8358
▁뛰어넘	-11.8358
▁어쩌	-11.8358
▁말리부	-11.8358
▁갑작스럽	-11.8358
▁구제금융법안	-11.8358
▁아스카리	-11.8358
▁부녀자	-11.8358
▁세르게이	-11.8358
▁선거인단	-11.8358
▁알라스카	-11.8358
▁종지부	-11.8358
▁some	-11.8358
▁소비에트	-11.8358
▁벗어났다	-11.8358
▁산업자원부	-11.8358
▁어둠	-11.8358
▁얼룩말	-11.8358
▁마지드	-11.8358
▁peta	-11.8358
▁베이징올림픽	-11.8358
▁용도로	-11.8358
▁소방당국	-11.8358
▁탈옥	-11.8358
▁just	-11.8358
▁낫다	-11.8359
▁작별	-11.8359
▁thre	-11.8359
▁수감생활	-11.8359
도날드	-11.8359
▁겨누	-11.8359
▁건강보험	-11.8359
▁군사행동	-11.8359
▁홈경기	-11.8359
▁미뤄	-11.8359
▁십먼	-11.8359
▁투명성	-11.8359
▁슈렉	-11.8359
▁북극광	-11.836
▁스마트	-11.836
▁포털	-11.836
▁디즈니랜드	-11.836
▁약물검사	-11.836
▁압류	-11.836
▁층짜리	-11.836
객들	-11.836
▁피난처	-11.836
▁우발적	-11.836
▁날카로	-11.836
▁콜롬보	-11.836
▁order	-11.836
▁업종	-11.836
▁비밀요원	-11.836
▁봉급	-11.8361
▁복음	-11.8361
▁보험회사	-11.8361
▁부정행위	-11.8361
▁드럼	-11.8361
▁머독	-11.8361
▁meeting	-11.8361
▁푸른	-11.8361
▁비웃	-11.8361
▁싸워	-11.8361
▁기관총	-11.8361
▁편견	-11.8362
▁페드로	-11.8362
▁루시디	-11.8362
▁give	-11.8362
▁축구스타	-11.8362
▁스노우	-11.8362
▁형편	-11.8362
▁교각	-11.8362
▁필사적	-11.8362
▁근절	-11.8362
▁cac	-11.8362
▁케이티	-11.8362
▁간접	-11.8362
▁알렉	-11.8362
▁결말	-11.8363
▁애견	-11.8363
▁윈터	-11.8363
▁암살사건	-11.8364
▁자치권	-11.8364
▁today	-11.8364
▁합작	-11.8364
▁짐작	-11.8364
▁폭발사고	-11.8364
▁girls	-11.8364
▁무시했다	-11.8364
▁하렐	-11.8364
▁아프리카연합	-11.8364
▁에베레스트산	-11.8364
▁반테러	-11.8364
▁계급	-11.8365
▁애완용	-11.8365
▁헝	-11.8365
▁듀크	-11.8365
▁경합	-11.8365
▁요한슨	-11.8365
▁선례	-11.8366
▁가디언	-11.8366
▁휴회	-11.8366
▁속편	-11.8366
▁사망원인	-11.8366
▁종말	-11.8366
▁소도시	-11.8367
▁주택시장	-11.8367
▁안타깝게	-11.8367
▁실천	-11.8368
▁상향	-11.8368
▁폭력배	-11.8368
▁난입	-11.8368
▁연합정부	-11.8368
▁설전	-11.8368
▁무례	-11.8369
▁발머	-11.8369
▁대국민	-11.8369
▁보스톤	-11.8369
▁투자은행	-11.8369
▁부시대통령	-11.837
▁uk	-11.837
▁변함없	-11.837
▁해산시키기	-11.8371
▁대대	-11.8371
▁플래시	-11.8371
▁평온	-11.8371
▁설비	-11.8372
▁로지스	-11.8373
▁들어설	-11.8373
▁놀란	-11.8374
▁무레이	-11.8374
▁버몬트주	-11.8374
▁일기장	-11.8374
▁야유	-11.8375
▁상업용	-11.8375
▁결단	-11.8376
▁입건	-11.8376
▁메모	-11.8377
▁조엘	-11.8377
wood	-11.8377
▁국세청장	-11.8377
▁음료수	-11.8377
▁org	-11.8378
▁김양	-11.8378
▁불확실성	-11.8378
▁매료	-11.8379
▁용납하지	-11.8379
▁가장자리	-11.8379
▁은둔	-11.838
▁종교단체	-11.838
▁담요	-11.8381
▁역설했다	-11.8382
▁공금	-11.8382
▁속력	-11.8383
▁용량	-11.8383
▁근본주의자들	-11.8384
▁과연	-11.8384
▁아샤	-11.8384
ous	-11.8384
▁매복	-11.8384
▁난방	-11.8385
▁위독	-11.8386
▁요크	-11.8386
▁천여	-11.8387
▁유영	-11.8388
▁왕비	-11.8389
▁당부	-11.8389
▁토미	-11.8389
▁군사위원회	-11.839
▁토레스	-11.839
▁커뮤니케이션	-11.839
▁검찰청	-11.8391
▁싶었다	-11.8391
▁골드만	-11.8391
▁호스트	-11.8392
▁당신들	-11.8393
▁서점	-11.8393
▁아쉬	-11.8394
▁레노	-11.8395
▁것인데	-11.8396
▁시립	-11.8396
▁로빈	-11.8396
▁펼쳐진	-11.8398
스쿨	-11.8399
▁고의적으로	-11.8399
▁거품	-11.84
▁번복	-11.8401
▁거머쥐었	-11.8402
▁리츠	-11.8403
▁나오기	-11.8403
▁수감돼	-11.8403
▁소모	-11.8404
▁매직	-11.8404
▁money	-11.8404
▁인권단체들	-11.8404
해준다	-11.8404
▁정치국	-11.8406
먼트	-11.8406
▁경계선	-11.8407
▁동부지역	-11.8408
▁잠재	-11.8409
▁관장	-11.841
▁심각성	-11.8411
▁뉴햄프셔주	-11.8411
▁게르	-11.8413
▁페니	-11.8413
▁연구소에서	-11.8413
▁메르	-11.8414
▁꺼리	-11.8414
▁거주민	-11.8415
▁옹호하	-11.8416
▁요구했었다	-11.8416
▁유출된	-11.8417
▁등장했다	-11.8418
▁설사	-11.842
▁끝내기	-11.8421
▁보물	-11.8421
▁오버	-11.8422
ior	-11.8423
▁엄청나	-11.8424
▁기울이지	-11.8424
정규직	-11.8424
▁함대	-11.8425
▁성범죄자	-11.8426
▁sw	-11.8426
▁간직	-11.8427
▁국어	-11.8428
▁기자단	-11.8429
▁소실됐다	-11.8431
▁생각되는	-11.8431
▁나누어	-11.8433
▁로케	-11.8433
▁속해	-11.8437
▁직원인	-11.8437
▁해역에서	-11.8439
▁불안해	-11.844
▁외화	-11.844
▁교리	-11.8442
np	-11.8442
▁원내	-11.8442
▁전반전	-11.8444
▁이윤	-11.8451
▁주의회	-11.8451
▁헨	-11.8451
▁거기에	-11.8453
▁지형	-11.8453
▁청장	-11.8454
▁스타인	-11.8457
▁웨스	-11.8458
▁기미	-11.8458
▁구성원들	-11.8459
▁공개되	-11.8461
▁알바로	-11.8463
▁피랍됐	-11.8466
▁기자였	-11.8467
▁분단	-11.8467
▁수혈	-11.8469
▁과학기술	-11.8471
▁지원국	-11.8472
▁기숙사에서	-11.8472
▁밝혀졌	-11.8475
▁이루기	-11.8477
ham	-11.8481
▁조치들	-11.8486
▁키니	-11.8488
사미	-11.8488
▁맛봤	-11.8491
▁야스	-11.8491
▁채용	-11.8492
▁출발했다	-11.8493
▁안정화	-11.8494
▁유니	-11.8495
▁간주되	-11.8495
bra	-11.8495
▁투표자	-11.8499
▁사육사들	-11.8499
▁출동했다	-11.8501
▁안정성	-11.8503
▁뒤진	-11.8507
▁도하	-11.8507
▁다크	-11.8513
▁등반	-11.8513
▁크레인	-11.8514
▁용지	-11.8515
▁버렸	-11.8517
▁추적하	-11.852
▁시차	-11.8533
▁활동가들	-11.8536
▁가문	-11.854
tan	-11.8548
▁저서	-11.8549
▁line	-11.8549
▁환경적	-11.8554
▁보수주의	-11.8556
▁고심하	-11.8557
▁여자친구와	-11.8557
▁김만	-11.8559
▁유나이티드와	-11.856
▁잎	-11.8562
였음	-11.8564
▁쉽	-11.8565
▁제출해야	-11.8567
▁유서	-11.8567
▁선수들에게	-11.8568
▁접어	-11.8571
▁인류학	-11.8575
성분	-11.8576
ago	-11.8581
▁각료들	-11.8583
▁상하이에서	-11.8587
▁적용할	-11.8592
▁납세자들	-11.8594
▁같지	-11.8594
▁경제팀	-11.86
▁헤리	-11.8603
▁친구들이	-11.8608
▁침체에	-11.8609
▁건강상	-11.8609
ino	-11.8612
투스	-11.8615
lb	-11.8615
셰르	-11.8615
person	-11.8617
▁더위	-11.8617
dy	-11.8618
환자	-11.8622
▁피난민	-11.8622
▁봉인	-11.8626
▁구사하	-11.8629
▁만부	-11.863
▁선출됐다	-11.8632
▁레스토랑에서	-11.8635
▁구리	-11.8636
▁부패와	-11.8637
▁초소	-11.8639
lum	-11.8645
▁표현할	-11.8659
▁주위에	-11.8659
▁나일	-11.8668
▁덤	-11.8669
▁sup	-11.8677
▁팔린	-11.868
▁끝나면	-11.8681
▁자비	-11.8684
▁근대	-11.869
▁계획안	-11.8691
▁거절한	-11.8694
▁일쯤	-11.8695
▁추산되	-11.8701
▁월급	-11.8701
▁특파원들	-11.8705
▁이하로	-11.8709
▁메카	-11.8719
▁이때	-11.8721
▁찌	-11.8723
▁대피하	-11.8726
▁경쟁사	-11.8727
▁빠	-11.8734
▁무능	-11.8735
타그	-11.8739
▁비서	-11.8746
▁날아가	-11.8746
▁표하고	-11.875
히코	-11.8752
▁공직자	-11.8754
▁장악했다	-11.8755
▁발전기	-11.8762
봤	-11.8762
▁제소	-11.8765
ray	-11.8769
▁안전성	-11.8772
▁휴대폰으로	-11.8773
▁점령한	-11.8773
란드	-11.8779
▁도발	-11.878
▁우려된다	-11.8783
▁미대사	-11.8785
▁직면하	-11.8788
nel	-11.8794
▁상징인	-11.8795
해주기	-11.8797
그리	-11.8806
▁한계	-11.8807
▁사망자들	-11.8814
▁생산되	-11.8816
▁보리	-11.8822
▁성대	-11.8824
▁치료하는	-11.883
▁전사자	-11.8832
▁본부에서	-11.8833
▁비난한다	-11.8835
▁인도적	-11.8839
▁버려	-11.8842
▁가방에	-11.8849
▁싶어하지	-11.8849
▁구매자들	-11.8854
▁약화시키	-11.8855
▁발견하고	-11.8864
▁강화하	-11.8868
▁인물들	-11.8869
었었다	-11.8869
나갔다	-11.8869
▁매장에서	-11.8871
▁요인들	-11.8871
잡지	-11.8874
활	-11.8876
▁개최국	-11.8876
▁생물학	-11.8877
하듯	-11.8877
봐	-11.8881
▁그러면	-11.8882
엑	-11.8884
보험	-11.8886
춤	-11.8886
폭탄	-11.8887
잇	-11.8889
월드컵	-11.889
제조	-11.8897
▁수감됐	-11.8897
모델	-11.8898
▁당혹	-11.8902
▁전장에	-11.8906
▁막지	-11.8907
열차	-11.8907
장애	-11.8908
▁스캔들에	-11.891
계약	-11.891
소득	-11.8913
▁모기	-11.8913
대결	-11.8915
▁거론되	-11.8915
▁중단하겠다	-11.8917
모건	-11.892
그라	-11.8921
▁india	-11.8924
▁참여하기	-11.8937
집회	-11.8938
▁mc	-11.894
▁한국전	-11.8952
일본	-11.8954
소니	-11.8958
▁확보하고	-11.8959
▁무차별	-11.8964
▁제시하지	-11.8966
▁재기	-11.8967
▁성교	-11.8968
▁자행한	-11.8973
▁미성년	-11.8978
▁나타낸	-11.8982
▁후보간	-11.8988
▁모욕적	-11.9005
식품	-11.9007
쿨	-11.9018
▁높았	-11.902
▁표지	-11.9021
랜스	-11.903
▁강조하는	-11.9036
▁상승했	-11.9044
▁유언	-11.9045
성명	-11.9058
▁참모총장	-11.906
▁안타깝	-11.9061
▁곤란	-11.9061
▁낙관	-11.9062
▁상인들	-11.9064
▁매리	-11.9064
▁터무니	-11.9064
슐	-11.9066
둑	-11.9066
슬라브	-11.9069
▁프란시스	-11.9069
▁lead	-11.907
▁경기부양	-11.9071
껴	-11.9072
궐	-11.9072
▁솔로몬	-11.9072
뚱	-11.9072
팽	-11.9072
▁john	-11.9072
▁microsoft	-11.9072
▁missile	-11.9072
▁prevent	-11.9072
▁unveil	-11.9072
▁델라웨어	-11.9072
▁독립선언	-11.9072
▁뒷좌석	-11.9072
▁발렌타인	-11.9072
▁비디오테이프	-11.9072
▁사우스다코타	-11.9072
▁스테로이드	-11.9072
▁스프린트	-11.9072
▁아쿠아리움	-11.9072
▁울프위츠	-11.9072
▁조기총선	-11.9072
▁카메룬	-11.9072
▁컨소시엄	-11.9072
▁클랩튼	-11.9072
륭	-11.9072
through	-11.9072
▁campaign	-11.9072
▁council	-11.9072
▁crisis	-11.9072
▁envoy	-11.9072
▁europe	-11.9072
▁great	-11.9072
▁illegal	-11.9072
▁kkk	-11.9072
▁number	-11.9072
▁refugee	-11.9072
▁safe	-11.9072
▁sncf	-11.9072
▁withdraw	-11.9072
▁고혈압	-11.9072
▁나스랄라	-11.9072
▁네브라스카	-11.9072
▁뉴욕타임즈	-11.9072
▁다녔다	-11.9072
▁다빈치	-11.9072
▁대기오염	-11.9072
▁대선예비후보	-11.9072
▁드림라이너	-11.9072
▁레오나르도	-11.9072
▁루프트한	-11.9072
▁마르세유	-11.9072
▁만파운드	-11.9072
▁머물렀다	-11.9072
▁먹었다	-11.9072
▁메탄가스	-11.9072
▁모토로라	-11.9072
▁믿어지	-11.9072
▁바예스테로스	-11.9072
▁박스오피스	-11.9072
▁북방한계선	-11.9072
▁분리독립	-11.9072
▁스머프	-11.9072
▁시니오라	-11.9072
▁시베리아	-11.9072
▁아름답	-11.9072
▁아리조나	-11.9072
▁애국전선	-11.9072
▁에메랄드	-11.9072
▁엔터프라이즈	-11.9072
▁오마이뉴스	-11.9072
▁와코비아	-11.9072
▁외할머니	-11.9072
▁워싱턴포스트	-11.9072
▁인공심장	-11.9072
▁자와히리	-11.9072
▁최연소	-11.9072
▁카스파로프	-11.9072
▁펠릭스	-11.9072
▁폴란스키	-11.9072
▁현충일	-11.9072
▁홀로코스트	-11.9072
▁히말라야	-11.9072
▁rbs	-11.9072
▁공청회	-11.9072
▁극단적인	-11.9072
▁라말라	-11.9072
▁부끄러	-11.9072
▁빔보	-11.9072
▁스릴러	-11.9072
▁알레르기	-11.9072
▁에버튼	-11.9072
▁카제미	-11.9072
▁크로포드	-11.9072
프로농구	-11.9072
▁산티아고	-11.9072
▁현기증	-11.9072
어느때보다	-11.9072
▁목걸이	-11.9072
▁우체국	-11.9072
▁허덕이	-11.9072
▁아세안	-11.9072
▁카우치	-11.9072
▁omx	-11.9072
▁분화구	-11.9072
▁엘비스	-11.9072
▁퇴근	-11.9072
▁김일성	-11.9072
▁알메이다	-11.9072
▁임상실험	-11.9072
▁퇴출	-11.9072
▁트레이드	-11.9072
▁direct	-11.9072
▁삼성전자	-11.9072
▁불도저	-11.9072
▁민주변화	-11.9072
▁떠다니	-11.9072
▁오피스	-11.9072
▁스프링스틴	-11.9072
▁아침식사	-11.9072
▁공동기자회견에	-11.9072
▁메세지	-11.9072
▁리프트	-11.9072
▁세비르	-11.9072
▁etc	-11.9072
▁트레이시	-11.9072
▁손가락	-11.9072
▁디아즈	-11.9072
▁행정명령	-11.9072
▁추도식	-11.9072
▁현명한	-11.9072
▁니가타	-11.9072
▁듀프레	-11.9072
▁버핏	-11.9072
▁쓰러진	-11.9072
▁월경작전	-11.9072
▁가오리	-11.9072
▁민주변화운동	-11.9072
▁히트곡	-11.9072
▁계절	-11.9072
▁클리닉	-11.9072
▁불상사	-11.9072
▁stock	-11.9072
▁종합병원	-11.9072
▁히잡	-11.9072
▁결론지었다	-11.9072
▁빠져나갔다	-11.9072
▁재가동	-11.9072
▁슬럼	-11.9072
▁적임자	-11.9072
▁헐값	-11.9072
▁구급차	-11.9073
▁홍보담당자	-11.9073
▁슬램	-11.9073
▁골드버그	-11.9073
▁출몰	-11.9073
▁블랙베리	-11.9073
▁데이비스컵	-11.9073
▁쥐스틴	-11.9073
▁완패	-11.9073
▁바꿨	-11.9073
▁constitutional	-11.9073
▁아름다움	-11.9073
▁평의회	-11.9073
▁강제진압	-11.9073
▁올라간다	-11.9073
▁천수이	-11.9073
▁사기꾼	-11.9073
▁겸손	-11.9073
▁용암	-11.9073
▁놀이기구	-11.9073
▁동북	-11.9073
▁베풀	-11.9073
▁마샬	-11.9073
▁감기약	-11.9074
▁선거운동본부	-11.9074
▁스페이스	-11.9074
▁enter	-11.9074
▁목욕	-11.9074
홍색	-11.9074
▁청취	-11.9074
▁패션쇼	-11.9074
▁폭염	-11.9074
▁출근	-11.9074
▁노골적	-11.9074
▁비겁	-11.9074
▁남아시아	-11.9074
▁유니티	-11.9075
▁수세기	-11.9075
▁fight	-11.9075
▁갈망하	-11.9075
▁금전적	-11.9075
▁달려있다	-11.9075
▁사형제도	-11.9075
▁검은색	-11.9075
▁육류	-11.9075
▁night	-11.9075
▁라디오뉴스	-11.9076
▁가져온	-11.9076
▁주모자	-11.9076
▁관습	-11.9076
phone	-11.9076
▁숙박비	-11.9076
▁베이커	-11.9077
▁입혔다	-11.9077
▁tam	-11.9077
▁뉴먼	-11.9077
▁응급실	-11.9077
▁실용적	-11.9078
▁상무위원	-11.9078
▁패트	-11.9078
▁올리버	-11.9078
▁축구협회	-11.9078
▁산업지수	-11.9078
▁환경운동	-11.9078
▁채굴	-11.9079
▁잠입	-11.9079
▁유명해졌다	-11.9079
▁성폭행범	-11.9079
▁처방전	-11.908
▁터졌다	-11.908
▁임시정부	-11.908
▁검시	-11.908
▁아이콘	-11.908
▁담합	-11.908
▁청원	-11.908
▁화산재	-11.9081
▁sola	-11.9081
▁열악	-11.9081
디언	-11.9081
▁자궁	-11.9081
자격	-11.9082
other	-11.9083
▁모스크	-11.9083
▁신랄	-11.9083
▁사무국	-11.9083
▁west	-11.9083
▁소득세	-11.9083
▁스토리	-11.9083
▁하향	-11.9083
▁교신	-11.9083
▁wta	-11.9084
▁에릭슨	-11.9084
▁잠복	-11.9084
▁어두	-11.9084
▁구슬	-11.9084
▁회생	-11.9085
▁수상작	-11.9085
▁정치활동	-11.9085
▁떼어	-11.9086
▁과열	-11.9086
▁담았다	-11.9086
▁독려	-11.9086
▁양빈	-11.9086
▁진학	-11.9086
▁변종	-11.9086
▁장시간	-11.9087
▁털어	-11.9087
▁성취	-11.9088
▁모빌	-11.9089
▁통치권	-11.9089
▁감형	-11.9089
▁축적	-11.909
▁완강	-11.909
▁거칠	-11.9091
▁친교	-11.9092
▁벗어나지	-11.9092
▁행보	-11.9092
▁연주자	-11.9093
▁벵	-11.9093
▁간격	-11.9093
▁혼자서	-11.9094
▁친지들	-11.9094
▁추위	-11.9094
▁응용	-11.9094
▁표출	-11.9094
▁중국어	-11.9095
▁usb	-11.9095
▁칼리드	-11.9095
▁파탄	-11.9096
▁자율	-11.9096
▁칭하며	-11.9096
▁아예	-11.9096
▁월터스	-11.9098
일간	-11.9098
▁신청자	-11.9098
▁석권	-11.9099
▁경고문	-11.9099
▁동조	-11.9099
▁돌발	-11.91
▁도매	-11.91
▁않음	-11.91
▁단단	-11.91
▁탐지기	-11.9101
ready	-11.9101
▁없어질	-11.9102
▁조종사들	-11.9102
▁카본	-11.9102
토프	-11.9102
▁인도양	-11.9103
▁실체	-11.9103
▁재연	-11.9104
▁propos	-11.9104
▁경영자들	-11.9104
▁증명서	-11.9104
▁보수주의자들	-11.9104
▁상류	-11.9105
▁chi	-11.9105
▁극우	-11.9106
요리	-11.9106
less	-11.9107
▁국정원장	-11.9107
▁쓰러졌다	-11.9108
▁형법	-11.9108
▁나빠지	-11.9108
▁nations	-11.9108
▁달아나	-11.9109
▁그렇지만	-11.9109
▁의문사	-11.9109
▁그라이브	-11.9109
▁오메	-11.911
▁위스콘신주	-11.911
▁환경부	-11.9111
▁세월	-11.9111
▁만들어낸	-11.9111
▁모친	-11.9111
▁아래서	-11.9111
▁유형	-11.9112
▁인출	-11.9113
▁의향	-11.9113
툴라	-11.9114
▁atp	-11.9115
▁소중	-11.9115
▁영국항공	-11.9117
▁별명	-11.9118
▁사본	-11.9118
▁시작하자	-11.9119
▁공단	-11.9119
▁보고됐다	-11.9119
▁폰다	-11.9121
▁건전	-11.9121
▁쥬	-11.9121
▁맘	-11.9122
▁피력	-11.9122
▁올림픽위원회	-11.9122
▁농성	-11.9124
▁저조	-11.9125
▁병원측	-11.9125
▁특권	-11.9125
▁아론	-11.9125
▁동화	-11.9125
▁원정경기에서	-11.9125
▁연비	-11.9126
▁배신	-11.9126
▁도와준	-11.9127
▁제마	-11.9129
▁이민국	-11.913
▁푸드	-11.9132
▁초보	-11.9134
▁중학교	-11.9135
side	-11.9136
▁저지대	-11.9139
퍼드	-11.9141
광장	-11.9145
포르	-11.9147
▁부호	-11.9147
▁실시간	-11.9148
▁강행할	-11.9149
▁동부지역에서	-11.9149
▁녹스	-11.915
▁영구적	-11.9151
▁불타	-11.9152
▁보장받	-11.9153
▁피랍됐다	-11.9156
▁감독관	-11.9156
▁기법	-11.9157
▁받아들여지	-11.9157
▁주거지	-11.9159
▁뉴욕시장	-11.9159
▁시에나	-11.9161
▁나타낸다	-11.9162
▁선진	-11.9163
▁얻어야	-11.9163
▁소비량	-11.9164
▁호르	-11.9164
▁국가대표팀	-11.9165
▁최소화	-11.9166
▁공급하기	-11.9168
▁오노	-11.9171
▁맞서기	-11.9171
▁정당성	-11.9172
▁설치했다	-11.9172
▁마우	-11.9176
▁마시지	-11.9177
▁무시한	-11.9177
▁입성	-11.9178
pass	-11.9178
▁모가디슈에서	-11.9178
▁들어간다	-11.9186
▁거주지역	-11.9188
▁거미	-11.9189
▁통과시킨	-11.9189
▁제거하는	-11.919
▁만족할	-11.9191
▁이루어지지	-11.9195
▁확보하기	-11.9197
▁auto	-11.9198
▁islami	-11.92
▁제외됐다	-11.9203
▁로키	-11.9208
▁분산	-11.9209
▁잡히	-11.9211
▁개종	-11.9211
▁프라하	-11.9212
▁무성	-11.9215
▁케네	-11.9217
▁힘들어	-11.9218
▁충분하다	-11.9221
▁옐로	-11.9222
▁멜로	-11.9224
▁발사해	-11.9224
▁노력해야	-11.923
▁스키장	-11.9232
▁안치	-11.9233
▁석방되	-11.9241
▁조언했다	-11.9244
▁resign	-11.9247
▁가설	-11.9248
플랜	-11.9248
▁살았다	-11.9252
▁사죄	-11.9252
▁신고서	-11.9255
주민들	-11.9256
▁제안했	-11.9257
우먼	-11.9257
▁모술에서	-11.9261
▁취지	-11.9261
▁정하지	-11.9264
▁보여주었다	-11.9267
▁비명	-11.9269
▁가든	-11.927
▁행해졌	-11.9271
▁샤리	-11.9272
▁사랑한다	-11.9273
했어야	-11.9273
▁입게	-11.9275
▁페러	-11.9276
▁싸우고	-11.9278
ina	-11.9282
▁발견하게	-11.9282
▁상원의원들	-11.9293
▁갑작스러	-11.9295
슈아	-11.9296
▁메이어	-11.9298
▁개헌안에	-11.9303
▁전달하는	-11.9305
▁고소했다	-11.9309
끌어냈다	-11.9313
▁구성했다	-11.932
▁봐야	-11.9324
▁벤와	-11.9326
▁제조업자	-11.9327
▁고려해야	-11.9332
▁도서	-11.9337
▁철로	-11.9341
웃	-11.9343
▁작품들	-11.9348
▁매치	-11.9349
▁연안에서	-11.9357
▁트로	-11.936
▁작성했다	-11.9366
▁필리	-11.9372
치오	-11.9373
워졌다	-11.9375
▁구역에서	-11.9375
▁물려	-11.9384
▁호프	-11.9388
▁알레	-11.9389
▁코브	-11.9396
▁알프레	-11.9397
▁변기	-11.9405
▁대표단과	-11.9406
gy	-11.9408
▁적기	-11.9408
▁분파	-11.941
▁재정비	-11.9411
▁자료들	-11.9413
▁어부들	-11.9414
젤리	-11.9416
▁인하했다	-11.942
▁배치되어	-11.9421
▁가파	-11.9426
ada	-11.9427
▁배심원들	-11.9428
▁돌아가기	-11.9432
▁디지	-11.9443
▁기소장	-11.9444
▁무장괴한들	-11.9447
▁지상에서	-11.9457
▁차트	-11.946
ire	-11.9462
▁주간지	-11.9468
aba	-11.9469
▁도슨	-11.9475
lan	-11.9488
▁취했	-11.9488
▁분자	-11.9491
▁대표자	-11.95
▁노스캐롤라이나에서	-11.95
▁사퇴했다	-11.9501
▁표준시	-11.9501
▁일본측	-11.9516
▁보행	-11.9524
▁부정했다	-11.9526
▁수행하기	-11.9531
▁봉쇄했다	-11.9531
▁보수적	-11.9534
▁포착했다	-11.9536
재산권	-11.955
▁사망하기	-11.9555
▁검사들	-11.9567
▁돌봐	-11.9576
▁보안국	-11.9599
▁슈퍼대의원들	-11.9602
▁확정했다	-11.9603
▁두려워하	-11.9605
rry	-11.9608
▁구입했다	-11.9608
▁인기있	-11.9617
▁평화롭	-11.962
▁원만	-11.962
▁연행했다	-11.9628
▁회피	-11.963
▁나와있	-11.9633
▁제작됐다	-11.9638
보좌관	-11.9648
싸	-11.9649
큐	-11.9649
▁전해왔	-11.965
▁포로로	-11.9652
▁시설들	-11.9653
행동	-11.9655
켄	-11.9655
졸	-11.9656
듀	-11.9657
낙	-11.9657
기상청	-11.9658
빅	-11.9659
평균	-11.9659
미사일	-11.966
▁추측되	-11.966
리서치	-11.9662
포인트	-11.9665
▁지휘관들	-11.967
평화	-11.9671
등록	-11.9671
▁제거했다	-11.9673
결정	-11.9675
소송	-11.9676
보낼	-11.9679
조각	-11.9679
▁warn	-11.968
▁붕괴됐다	-11.9686
다닐	-11.9688
▁배치된	-11.9691
▁부족해	-11.9692
▁환호하	-11.9693
쳐야	-11.9694
테오	-11.9698
▁전달하기	-11.9698
증세	-11.9701
▁디나	-11.9702
▁알리지	-11.9702
세워	-11.9707
불안	-11.9712
▁마련하는	-11.9714
수익	-11.9717
▁둔화되	-11.9717
드윈	-11.9722
▁멀어	-11.9725
▁안전하다	-11.9732
▁부과했다	-11.9759
▁서적	-11.9761
▁끝났	-11.9773
▁남았	-11.979
▁준결승전	-11.9795
gu	-11.9796
cle	-11.9796
▁쫓아	-11.9801
▁윌리암	-11.9803
오브	-11.9806
▁심기	-11.9809
▁정당들	-11.9815
▁빠뜨	-11.9816
▁드러냈	-11.9816
하원	-11.9818
▁떨어뜨	-11.9819
▁행성들	-11.9821
▁cl	-11.9823
▁far	-11.9823
▁기장	-11.9824
▁붙어	-11.9825
▁확보하는	-11.9825
▁price	-11.9829
▁늘려	-11.9831
▁실시됐	-11.9834
reme	-11.9835
셉	-11.9837
▁트래	-11.9839
뇨	-11.9839
ween	-11.984
▁elect	-11.984
벳	-11.9841
ould	-11.9841
▁launch	-11.9841
▁보궐선거	-11.9841
▁비무장	-11.9841
▁코펜하겐	-11.9841
▁children	-11.9841
▁flu	-11.9841
▁french	-11.9841
▁intelligen	-11.9841
▁investigation	-11.9841
▁israel	-11.9841
▁nhk	-11.9841
▁radio	-11.9841
▁terror	-11.9841
▁toward	-11.9841
▁ucla	-11.9841
▁가깝다	-11.9841
▁광저우	-11.9841
▁국제통화기금	-11.9841
▁나뭇가지	-11.9841
▁노스다코타	-11.9841
▁닫았	-11.9841
▁댕기열	-11.9841
▁데이터베이스	-11.9841
▁도마뱀	-11.9841
▁동아시아	-11.9841
▁롤러코스터	-11.9841
▁만배럴	-11.9841
▁맞먹는	-11.9841
▁맨하탄	-11.9841
▁명확하지	-11.9841
▁무사콸라	-11.9841
▁묶어	-11.9841
▁밀워키	-11.9841
▁불공평	-11.9841
▁브래들리	-11.9841
▁사파테로	-11.9841
▁선글라스	-11.9841
▁선덜랜드	-11.9841
▁성폭력	-11.9841
▁세계경제포럼	-11.9841
▁스폰서	-11.9841
▁쌓아	-11.9841
▁아틀레티코	-11.9841
▁애국심	-11.9841
▁에두아르	-11.9841
▁여우주연상	-11.9841
▁연방준비은행	-11.9841
▁유럽중앙은행	-11.9841
▁융통성	-11.9841
▁이슬라미야	-11.9841
▁인수합병	-11.9841
▁족자카르타	-11.9841
▁차이나데일리	-11.9841
▁츠요시	-11.9841
▁캄푸쉬	-11.9841
▁캐시미르	-11.9841
▁코리아타임즈	-11.9841
▁코뿔소	-11.9841
▁콴타스	-11.9841
▁클래식	-11.9841
▁클리브랜드	-11.9841
▁통합러시아당	-11.9841
▁트랜스포머	-11.9841
▁트럼프	-11.9841
▁파라마운트	-11.9841
▁파르베즈	-11.9841
▁프리미엄	-11.9841
▁휘두르	-11.9841
퀘	-11.9841
▁credit	-11.9841
▁critic	-11.9841
▁push	-11.9841
▁snl	-11.9841
▁노란색	-11.9841
▁대북제재	-11.9841
▁무작위	-11.9841
▁천안문	-11.9841
텔레그래프	-11.9841
▁냉소적	-11.9841
▁마들렌	-11.9841
▁배기가스	-11.9841
▁복부비만	-11.9841
▁스펙터	-11.9841
▁심사숙고	-11.9841
▁주일미군	-11.9841
▁친인척	-11.9841
간담회에서	-11.9841
▁강렬한	-11.9841
▁레예스	-11.9841
▁유니폼	-11.9841
▁의사소통	-11.9841
▁짐바브웨아프리카민족	-11.9841
▁트레이너	-11.9841
▁나르기스	-11.9841
▁쓰러지	-11.9841
▁조연상	-11.9841
▁카밀라	-11.9841
▁클래스	-11.9841
▁백만장자	-11.9841
▁안테나	-11.9841
▁고프섬	-11.9841
▁끼치지	-11.9841
▁왓슨	-11.9841
▁헬멧	-11.9841
▁욕실	-11.9841
▁리스본	-11.9841
무차관	-11.9841
▁구덩이	-11.9841
▁에볼라	-11.9841
▁그랜트	-11.9841
▁스트립	-11.9841
▁알래스카주	-11.9841
▁의정서	-11.9841
▁붐비는	-11.9841
operation	-11.9841
▁grand	-11.9841
▁서부텍사스산	-11.9841
▁need	-11.9841
▁sars	-11.9841
▁foundation	-11.9841
▁이스트우드	-11.9841
▁만수르	-11.9841
▁marine	-11.9841
프로야구	-11.9841
▁장래에	-11.9841
▁발리우드	-11.9841
▁클라우디	-11.9841
▁트루먼	-11.9841
▁물고문	-11.9841
▁선두주자	-11.9841
▁혈압	-11.9841
▁스코어	-11.9842
▁에어컨	-11.9842
▁현존하	-11.9842
▁징수	-11.9842
▁컨트리	-11.9842
▁펠트	-11.9842
▁board	-11.9842
▁깨뜨	-11.9842
▁내보내	-11.9842
▁휘둘	-11.9842
▁폭죽	-11.9842
▁악몽	-11.9842
▁집주인	-11.9842
resume	-11.9842
▁곤봉	-11.9842
▁좌초	-11.9842
▁billion	-11.9842
▁다이빙	-11.9842
▁로하스	-11.9842
▁제주도	-11.9842
▁gold	-11.9842
▁압축	-11.9842
▁internet	-11.9843
▁혈통	-11.9843
ility	-11.9843
▁착각	-11.9843
▁flight	-11.9843
▁차량폭탄테러	-11.9843
▁경범죄	-11.9843
▁전자제품	-11.9843
▁세계무역센터	-11.9843
▁hill	-11.9843
▁권좌	-11.9843
▁언더파	-11.9843
▁장병들	-11.9843
▁과격단체	-11.9843
▁니켈	-11.9843
▁station	-11.9843
▁학습	-11.9844
▁비서관	-11.9844
▁추락사고	-11.9844
▁바이올	-11.9844
▁dur	-11.9844
▁행정장관	-11.9844
▁움직여	-11.9844
▁타깃	-11.9844
▁글로브	-11.9844
▁브랜슨	-11.9844
▁음란	-11.9844
▁라마디	-11.9844
▁출품	-11.9844
▁독살	-11.9844
▁보호구역	-11.9845
▁기반시설	-11.9845
▁클로버	-11.9845
▁지켜볼	-11.9845
▁심각해지	-11.9845
첸코	-11.9845
▁rall	-11.9845
▁행해지	-11.9845
▁왕립	-11.9845
▁교도관	-11.9845
▁미시시피강	-11.9846
▁상여금	-11.9846
▁부흥	-11.9846
▁충실	-11.9846
▁가리키	-11.9846
▁치욕	-11.9846
▁주가지수	-11.9846
▁특별검사	-11.9846
▁신탁	-11.9846
▁mls	-11.9847
▁자금지원	-11.9847
▁관절	-11.9847
▁붉은색	-11.9847
▁스몰	-11.9847
▁아시안	-11.9847
▁헬러	-11.9848
▁한계선	-11.9848
▁유로스타	-11.9848
▁특검	-11.9848
▁낙타	-11.9848
▁휩쓸려	-11.9848
▁소멸	-11.9848
공간	-11.9849
▁출구	-11.9849
▁평화회담	-11.9849
▁올라있다	-11.9849
▁도킹	-11.9849
▁계란	-11.985
▁떠올리	-11.985
▁대선결과	-11.985
▁적합하지	-11.985
▁cre	-11.9851
▁피해규모	-11.9851
▁능가	-11.9851
▁삼판	-11.9851
▁소방서장	-11.9851
▁쏘아	-11.9851
▁항목	-11.9851
▁dra	-11.9851
▁목재	-11.9851
▁선거결과	-11.9852
▁솔라나	-11.9852
▁사흘	-11.9852
▁테너	-11.9853
▁채팅	-11.9853
▁메릴랜드주	-11.9853
▁양봉	-11.9853
▁도망치	-11.9854
▁변함	-11.9854
▁종족	-11.9854
▁소변	-11.9854
▁태형	-11.9855
▁청구했다	-11.9855
▁조별	-11.9855
▁갈색	-11.9855
▁오존	-11.9855
▁영공	-11.9856
▁온건	-11.9856
▁신변	-11.9856
▁드물게	-11.9856
▁친근	-11.9857
▁천만원	-11.9857
▁세르비아계	-11.9857
▁길거리	-11.9858
▁파열	-11.9859
▁커져	-11.986
▁코메	-11.986
▁쇼핑센터	-11.986
▁집행위원회	-11.986
▁무관	-11.9861
▁외교위원회	-11.9861
▁다수당	-11.9861
보르	-11.9861
▁실험실	-11.9862
▁열망	-11.9862
▁전국위원회	-11.9862
▁코스타	-11.9863
▁셸	-11.9864
aut	-11.9864
▁우울	-11.9864
▁앉아서	-11.9865
▁댄스	-11.9867
▁소탕하기	-11.9867
▁치유	-11.9867
▁동계	-11.9867
▁클린트	-11.9868
▁버티	-11.9868
▁성전환	-11.9868
▁군당국	-11.9868
▁청구서	-11.987
▁유래	-11.987
▁테러사건	-11.987
▁확고히	-11.987
▁바람직하다	-11.9871
▁우유	-11.9872
▁웬디	-11.9872
▁산출	-11.9872
▁실형	-11.9872
▁배치했다	-11.9872
▁구입하는	-11.9874
▁near	-11.9875
▁지낼	-11.9875
▁철수시킬	-11.9875
▁합성	-11.9876
▁반입	-11.9876
▁led	-11.9876
▁특유	-11.9877
▁내몰	-11.9877
▁방중	-11.9877
▁헤비	-11.9877
ember	-11.9877
▁모터스	-11.9878
▁총탄	-11.9879
▁시설물	-11.9879
▁현명하	-11.988
▁추측된다	-11.988
▁로이드	-11.988
▁뒷받침할	-11.9881
▁국교	-11.9881
▁쫓아내	-11.9882
▁싸운	-11.9882
▁원료	-11.9882
▁석방하라	-11.9882
▁파병군	-11.9883
무대	-11.9884
▁천체	-11.9884
노브	-11.9884
▁가르쳐	-11.9885
▁버니	-11.9885
▁원작	-11.9888
▁되어있다	-11.9888
▁우선시	-11.9889
▁담보	-11.9889
▁논리	-11.989
▁불신	-11.9892
▁미끄러지	-11.9892
▁cross	-11.9895
▁모리스	-11.9895
▁카라다	-11.9896
▁여신	-11.9898
▁피랍자	-11.9899
▁날조	-11.9899
▁탄력	-11.9901
▁건국	-11.9902
▁백명	-11.9903
▁안경	-11.9903
▁니콜슨	-11.9905
▁마련됐다	-11.9905
▁도처에	-11.9905
▁보내야	-11.9906
▁road	-11.9907
▁유린	-11.9909
▁정해졌	-11.9909
▁훔쳤	-11.991
▁있으면	-11.9911
▁개입하지	-11.9913
▁검찰관	-11.9914
▁선거위원회	-11.9915
▁인신	-11.9915
▁밝혀내지	-11.9917
큐리	-11.9918
▁마리오	-11.9918
▁원더	-11.9919
▁기뻐했다	-11.992
▁함자	-11.9921
▁불확실한	-11.9921
▁전망된다	-11.9922
▁게재했다	-11.9922
▁기조	-11.9923
▁온스	-11.9923
▁찬스	-11.9923
▁실시하는	-11.9923
▁추측했다	-11.9924
ball	-11.9928
추어	-11.9929
▁water	-11.993
▁알약	-11.9931
stic	-11.9931
▁흥미롭	-11.9933
▁외곽지역	-11.9936
▁상징하	-11.9938
ise	-11.9942
▁방일	-11.9944
▁후송됐다	-11.9944
▁중부지역	-11.9947
▁예측하기	-11.9948
대장	-11.9948
▁기본스	-11.9949
드리스	-11.9949
▁공보	-11.995
▁인디애나주	-11.9951
▁화학적	-11.9955
▁풀기	-11.9955
▁기여했다	-11.9956
▁주장하면서	-11.9957
▁여행객들이	-11.9957
▁묘사하고	-11.9957
▁맺었	-11.9958
▁중독자	-11.9958
▁쏟아지	-11.9958
▁마디	-11.9962
▁회복하기	-11.9964
▁발생했었다	-11.9964
▁농지	-11.9969
첼로	-11.9969
▁윙	-11.9971
▁경신했다	-11.9972
▁중추	-11.9973
▁주저	-11.9975
▁현재로서	-11.9976
타이거	-11.9977
▁인체에	-11.9977
▁방법이라고	-11.9978
▁만두	-11.9983
소식	-11.9983
▁맥스	-11.9984
▁사바	-11.9986
▁솔로	-11.9987
▁후원자	-11.9987
▁보고타	-11.9987
▁다투	-11.9989
▁취급하	-11.9991
▁바꾸어	-11.9995
▁말하면	-11.9996
▁살펴보	-11.9998
▁기상학자	-11.9998
▁절대적	-12.0008
▁타오	-12.0012
▁넘치	-12.0013
▁연구센터	-12.0014
▁나쁘지	-12.0019
▁선사	-12.0021
▁공제	-12.0022
▁육박	-12.0023
▁통근자들	-12.0026
이었기	-12.0028
▁이둘	-12.0029
▁마이어	-12.0034
▁사회자	-12.0037
▁확실시되	-12.0038
▁오래전	-12.0041
▁오크	-12.0042
전문가들	-12.0042
▁검문소에서	-12.0044
▁성당에서	-12.0044
▁설명하는	-12.0045
▁공판에서	-12.0047
▁생산국	-12.0052
▁달성하기	-12.0054
▁촉발됐다	-12.0056
▁가담했다	-12.0057
▁tru	-12.0057
▁막사	-12.0059
느린	-12.0065
▁경제학자인	-12.0066
인구가	-12.0071
▁제명	-12.0072
▁골프장	-12.0073
▁실장	-12.0082
▁사람이었다	-12.0082
▁만들려	-12.009
▁바보	-12.0091
스버그	-12.0099
▁치르기	-12.0102
▁잠정적	-12.0104
▁조야	-12.0105
▁주중	-12.0108
▁유명해	-12.0108
▁기관사	-12.0111
▁팔기	-12.0115
▁국제공항에서	-12.0118
▁피살됐다	-12.0122
▁드러	-12.0124
▁세워졌	-12.0132
▁if	-12.0132
▁생각하기	-12.0134
오차	-12.0141
▁사막에서	-12.0142
▁내린다	-12.0145
▁오염된	-12.0148
amp	-12.0159
▁회복되	-12.0162
▁질문들	-12.017
▁개발도상국들	-12.0172
▁회기	-12.0176
▁혁신	-12.0177
▁선생님	-12.0177
▁출두했다	-12.0181
하더라	-12.0185
러드	-12.0187
▁금융기관	-12.0188
폴리스	-12.0189
▁마니	-12.0191
▁jer	-12.0194
▁베라	-12.0196
▁학부모	-12.0197
통계국	-12.0197
▁허락했다	-12.0197
▁학교측	-12.02
▁ten	-12.02
▁ji	-12.0202
▁연결되	-12.0209
▁블로거들	-12.022
▁마린	-12.022
▁올리기	-12.0238
▁개별적	-12.0239
▁강화해	-12.0241
▁루시	-12.0241
▁지불해야	-12.0244
▁사과한다	-12.0249
▁체포되	-12.025
▁대항해	-12.0251
▁엔지니어들	-12.0252
▁소비자에게	-12.0257
▁위주	-12.0258
▁중단한다	-12.0259
▁지정했다	-12.0278
▁용이하	-12.0278
▁순찰차	-12.03
▁발효된	-12.0301
ung	-12.031
▁훈련시키	-12.0313
▁세무	-12.0317
▁조합원들	-12.0323
coming	-12.0336
▁돌려받	-12.0342
라이츠	-12.0349
▁가수들	-12.0353
▁피난민들	-12.0355
▁도착하기	-12.0355
▁거라	-12.0366
▁장갑차	-12.0369
▁자랑스럽	-12.0371
▁서머	-12.0378
▁개발자들	-12.0388
▁mac	-12.0392
▁예일대	-12.0395
▁납치하려	-12.0398
▁증명했다	-12.0399
▁문화부	-12.0407
▁잠정	-12.0419
▁로비스트	-12.0425
▁트랜	-12.0425
▁타자	-12.0431
▁연결시키	-12.0434
▁청중들	-12.0434
▁이슬람인들	-12.0435
▁간호사들	-12.0449
르모	-12.045
▁무기들	-12.0457
놓는다	-12.0458
▁복귀했다	-12.0461
▁스파	-12.0461
쉽	-12.0473
▁투입되	-12.048
▁동의하지	-12.0483
낭	-12.0485
▁del	-12.0486
아버지	-12.0486
흙	-12.0487
따	-12.0487
▁대변하는	-12.0487
극적으로	-12.0487
헬	-12.0491
[...]
